10110
1111111101011011
11010010
101110
1111111011111010
1111
1111111100000111
1001101
1111111111000101
1111111110110011
1111111011100111
1111111111011011
1111111110110100
1111111011101111
1010100
1111111101011101
110110
11111101
1111111111011100
11100011
1111111111111010
1111111110101001
1111111100001001
1111111100011100
1000101
1111111100101111
1111111100100101
1111111101111011
1111111011010000
1110100
1111111111110110
10110001
1011001
10110001
1111111110001011
1111111100111000
1010100
1111111110100101
1111111010111101
100000010
100010
1111111101111010
1111111110110010
11010
1110110
1111111100001001
1111111100010101
1111111011110001
1111111111100100
10101
10101100
1111111110110101
1100101
1111111011111010
11101010
1111111111001000
1111111010101011
10010000
1111111111011000
1111111111000010
1001101
11000110
1011010
1111111111001000
1111111101100100
1111111100111111
1111001
1111111101011001
1111111101111011
1111111011100100
10010000
11100001
1111111010011011
10111000
100
1111110
100001
1100011
100000100
1111111110110100
10110101
1111111100100011
1111111110000000
1111111010011000
10101001
1111111110111001
1111111100011011
11001
1111111100000100
11101101
1111111101011100
1111111111011100
1100110
11010011
11001
1111111010110000
1111111101110110
100010010
1111111101111110
1111111111100111
11100
0
1111111011110000
1111111111000011
11110001
10001100
1111111010001100
1111111111111000
10001111
1100000
1111111101001100
1111111011110001
1111111101001111
11101001
1111111101100101
1111111101010101
1111111110111101
1111111010110001
111010
1111111100000101
1110111
100001001
1111111111000111
1111111011011111
1111111011100111
1111111111001001
1111111010011111
1111111010011111
1111111100110000
10100
10000000
1111111010000011
1111111111010001
1111111010001110
1011111
1111111100000101
100010001
1111111110000010
1111111101000111
1001010
10000011
11000011
111000
1111111010111100
1111111010100001
1111111101100011
1111111100001011
1101111
111110
11011000
10001010
11000101
1111111010011111
1111111111111010
11001111
10111111
1111111101001000
1110000
1111111110100110
1101000
1111111010110111
101
1111111110000011
1010000
1111111101011010
1111111100010011
1111111011011001
1101101
1111111100101111
1111111100011110
1111111011101110
1111111100110111
1111111011011110
10000010
1111111101110101
1111111011111010
10111
1111111011110111
1111111011000011
1111111111111101
100000101
1111111110000110
1111111111100000
101111
1110000
11100000
1111111011111111
1111111100001010
1111111110110110
1111111011001100
1111111010000111
1111111100001111
1111111100101101
1111111110110100
1011000
1111111010111010
1111111111010100
1111111011100101
1111111111111000
10001001
1100010
1111111001111111
10010110
11111111
1001010
1111111100011001
10100001
1111111010101000
11100010
1111111011010110
1111111101100010
11000101
11010101
1111111101101100
111001
10001111
10010001
1111111110111010
1111111111101111
1111111111101101
10101101
1
1111111100011100
1111111011011100
1111111011000001
1111111100000001
1111111100010001
1010110
1000
11001101
1111111101111101
1111111110110110
111001
1111111011010111
1111111010011000
110110
11010011
1111111100011011
1111111111101111
1111111010011001
0
10011100
1111111111101000
1111111011001110
1111111101101000
1111111100111100
1111111100100010
1111111111000011
10000011
1110010
1111111110110101
1111111010100010
10101101
11000000
1111111010010010
1111111011001011
10
1011110
1001110
1111111010011101
1111111110100100
1000001
11101010
100000110
10011111
1111111010100000
1111111110010000
1111111101100011
11011001
1111111110100110
1111111111010010
1111111101010100
100001000
1111111010101000
1111111111110100
11111
10000100
1111111100101111
1010000
11000
1111111101111111
1111111011111100
11111000
1111111100010101
1001000
1111111010110010
1111111101011111
1111111011001101
110111
1111111011100000
1111111101100110
1111111101001010
1111111001111110
11101100
1111111011100100
11011101
111101
1111111110101001
100000110
10010011
10100
1111111100110110
1111111100100011
1111111110010010
10000111
1000110
111100
1111111010010100
1101
10010101
1111111111001010
1111010
1111111111110100
1111111110011010
11001010
1111111101001000
1111111111110001
1100110
1010100
1111111100111001
1111111010111001
1111111101111001
10100111
11111001
1111111111100101
100001110
1111111101010110
1111111010001001
10100011
100100
100000101
1111111101011110
1001111
1111111100010001
1111111010001101
1111111111100111
110011
1111111101110010
1111111111000011
111
11101101
1111111
11
10100111
11110100
1111111010101100
10110011
1111111101111000
1101
1111111011101100
1111111101000010
10000110
1111111011000101
1111111010101101
10010100
10101110
100111
10111100
10001100
100010100
1111111111001110
1111111110110110
1111111101001100
1111111010100011
100001101
1111111010010101
1111111101110101
1001110
1000001
1111111110000001
11100010
10101001
1111111011100000
100100
1111111
1111111111000011
1111111010111110
1111111011110100
1111111110100000
1111111110000000
1111111011000110
1111111111110010
1011000
1111111110100000
1111111111001101
11010110
1111111100110110
11001101
1111111011010011
1111111010010011
10110010
1111111011001111
111000
1101001
1111111101110100
11111
1111111111011101
1001010
10000011
1111111111100001
1111111010100100
1111111010000011
1111111010101100
1111111011000101
1111111110000111
1111111011010001
1111111011000100
1111111101010101
10001111
1111111110100010
1111111110010100
1111111110000000
1111111111001011
1111111111111011
100000110
1100100
111010
1111111101110101
11010001
1111111111000011
10110100
11011101
1111111110000111
11100101
1111110
1111111110101000
10010100
1111111010001001
100010001
11001
1111111100011000
1111111110001111
1111111011011010
10000011
1111111011001100
11111100
1111111011000000
11011101
10100000
11010100
1111111100110010
11101010
1110011
10100
1111111011100111
100001010
1111111011011111
1111111101011110
101101
1111111010100011
10011001
1111111100110101
1111111110010100
10000110
11111101
1111111101011000
1111111101101001
1111111100011110
1011000
1111111111000110
1111111101100010
100001111
110110
1111111010100011
1111111111011111
1111111101000101
1111111111100111
11000100
11111
11101010
1111111010101010
1111111011011001
1111111011010100
100000100
1111111110010110
1111111011101001
10101
1111111100100111
1111111111111111
1111100
1111111011001010
1111111111101001
1111111100110111
1111111011100011
1111111110011010
10111110
1111111110011110
1111111100110100
10011011
1011100
1111111110001011
10100111
11011101
1111111100111001
1111111101110111
1111111111110101
1111111100111100
1111111110101010
11011010
100000010
1111111010001101
1111111110111100
1111011
1111111101101100
1101
10101011
1111111100100101
1111111010110111
1111111010110011
1111111010100111
1111111010001110
1111111100001001
1111111111001100
1111111011100110
1111111011111000
1111111010011111
1111111101010000
100000001
100000110
100000101
1111111110011001
1111111101000000
100001110
1000100
10101011
11000
1001111
1010110
1111111010101101
11111000
1010
11000110
10011111
1111111110010010
1010
1111111010101110
1111111100111001
11000000
1111111100001100
10100101
1111111101011010
10000000
1111111111111010
1111111011110101
1111111100011101
1111111110001000
11001001
1001001
10111111
10110110
1111111110011101
11111100
100001001
1111111101111001
10100100
11000110
11010
10101010
100001011
1110
11010100
111011
1111110
1111111011000110
11100011
1111001
1111111100111101
1111111011101111
1111111100011000
1111111111011000
1111111100001101
1111111011000100
1111111100000101
1100001
1111111111101111
1111111101011111
1111111010100100
1101100
1111111010111110
10011011
101100
11111000
1111111011010111
1111111100001000
1100110
100000001
100010
11111011
101000
1111111111000011
1111111001111110
1111111101110000
1111111110110000
1100011
1111111101011010
10000010
10100000
1111111011000001
1111111010110000
1111111010101000
1111111011111001
1111111101101110
1111111010101111
1111111100100000
1111111010111110
1111111010111110
1111111110101111
1111111010111111
1111111100011111
1111111110000110
100000
1111111111011111
101101
1111111110110111
1011
1111111101010011
10011110
1111111110110110
10010001
1111111101011111
1111111100010110
1111111010011011
0
10011101
11101011
1111111010100100
1111111100110010
1111111111000001
1111111110000111
1111111111110110
1111111110101011
1111111011100011
11110110
1111111101101111
1111111111101010
1111111111111111
101100
1111111010110010
1001001
111001
1111111100110011
1111111111001110
11101001
1111111110101101
11011010
10100110
1111111111110001
1111111110001111
1111111101101110
1111111100100001
1111111110011010
1111111010101110
1111111010101111
10011101
1111111011100100
1111111101110111
1111111110100010
100010000
1111111011011111
1111111010110100
1111111011100011
1111111110001000
1111111110101000
1111111110110100
1000001
1111111110101011
101010
100000111
1111111010101011
1111111110111101
1110100
100000111
1111111101010011
11101110
1111111110111010
100001001
1111111010101100
1111111011100111
1001011
111001
11110001
10101001
1011
1100001
1110100
1111111111101110
100001000
10001001
101010
10000110
1000010
11100100
1110010
10101010
1100101
10010101
100001101
101110
1111111101101001
1101110
1111111110100010
1111111100100010
10110011
1111111111000011
1111111010010100
10001101
110111
1111111010100100
1111111110001001
111
1111111011110010
1111111011101100
1011011
11100001
111010
1111111111100100
1111111110100010
11101000
1100101
1111111101000010
100000000
1111111011010011
1111111110101011
1111111110101101
1110111
1111111010010000
1111111110110100
11100011
1111111010001000
11100011
1111111011101001
1000111
1111111111110110
1111111100010000
11101110
1111111101100101
1111111111110011
1111111101100101
11000100
1111111100000111
11111010
1111111111011001
10101100
1111111101111111
11010110
100010
1111111011010000
1111111001111110
1111111100011011
1111111011001111
1111111101100110
1111111100010010
1110110
1000101
111010
11110011
10111110
1111111011010001
1111111110111001
1111111100100010
1111111011010110
1111111110000111
1111111101001000
1111111111000111
10100000
1111111110111110
1111111110001100
1111111111111101
1111111011100100
1101111
1111111101111011
1111111101100011
1111111011010101
1111111110010000
111010
1111111111111111
1111111100110010
1111011
1011
1111111111100001
111110
1111111100101111
10011100
110101
