1111111100001101
1111111101010111
1111111011011100
1001011010
1111110101111110
1111111010110011
1111111011011000
1111111111001101
1111111111000100
1001001011
1111110111001010
110000001
101010011
101110011
1111111111001100
1011010010
1000010000
1111111101110100
1111110111101110
111111011
1011000110
1101000100
1111111010100111
1111111001001111
1001000101
1011011001
1111111010000111
1111111001010011
1111111001100110
1111111111011101
1010000001
1111111110010100
1111111111101011
1111111111001101
1000011010
1111110110001000
1111111111101011
111100001
110101111
1111110110101000
1111110111111011
1100010101
1111110111111001
11000011
1011000111
100010011
1000011011
1101111
1111110111001000
1111111010111011
11110000
1111111100110110
100011001
100
1010010101
1111111001010100
1111111111101110
1011111010
1001010100
1001100100
110110100
110110110
1111111011100001
1111111010110100
1001100100
1111111011101111
1001010001
1111111000010110
1111111100101010
1111111110011001
101
1010001010
1010011111
110110110
1111110110010001
1010111000
100001110
1111111011011110
100100100
1001110011
101010110
1111111000111111
1001011110
1111111100011000
1000111000
1111110111001000
11011
110011010
1000111011
1000101110
1010101101
1111111101011011
1111111110101111
101101000
1101000
1111110111000000
1111111100010101
1111
1111111101100100
101011111
1111111000100001
1010000000
1100010101
1000001001
110111010
11101111
1111111001101111
1111111000010100
1111111100100111
1111111101000100
110100
11100010
1111110111000001
1111000
1111111111000100
1111111111101110
1000000011
11010111
1111111001001110
1011010110
1111111101111010
110100110
1111111100101100
110110000
1111111000101001
101001111
1111111110111101
1101
