1111111100110100
1111110111001010
1111110010111100
11011101
111100101
1111111010010001
1111110011001101
1111111000101110
1111111110011110
1111110100111111
10011001
1001010010
1111111010110011
111011100
1111110100000111
110011010
1010000
1111110101000010
1000100
1111111100111110
11010001
1000101
1111111000001011
1111110111011101
1000111010
101001
1100010
1111110111001000
1111111010000111
10011001
1111111110001100
1111111111101111
1001000
1000010101
110101100
1111111111000101
1111111101000000
1111111001111110
110110111
1111111011100100
1111111110111100
10000001
1001010111
1111111111010101
1111111101000010
100000110
1000110000
110100010
111110010
1111110110100100
1111110110111011
101101111
11000100
1111111110001001
1111111000101111
101010001
1111111001011011
11110011
111100
101111111
1001010100
1111111001011010
1111111011001000
1111111100111010
1111110111100101
10000111
100100
111001110
1111111001001010
110011110
1111111100100001
1111110110101100
1111110
1111111000100011
1111111001100000
1111111101111001
110001010
1111110111010010
1111111001001100
1111110101000101
11000
1111110110111001
1111110111001101
1000000011
1111111000000010
1111111111000011
1111110101010011
100011100
1111111111010100
1111111111000011
100001110
1111110111010100
1111111011110001
1111110011111100
1111111110100110
1111111110010000
1111111110001001
1111111011110011
1111110101010011
100011010
110100101
1000011100
111010010
1111111001111011
1111111100010011
111110001
1111111111110101
1111111010101010
1111110110111010
111001
101011001
1111110100001100
1000011000
1111111100101010
1111111110100001
1111110101100000
110111011
100010011
1111111000011011
1111110111000010
1111111001000111
1111111010010010
1111110101110000
1111111101010011
1000010110
1010100
1111111011101101
10010000
