11111111
1111111100001011
101000111
1010000000
1111111101100011
1111111001011000
1111110011011011
1111110111000111
1001011101
101100101
1110110
1111110110001111
1011000
1111111000100111
1111111001110111
1000001000
1111111010000010
10011100
1000
1111110011101000
1111111110000011
11001100
1111111100000010
10010111
1111111111110111
110100001
100011110
110001100
1111111011000011
1111111100111001
1111110100110111
101110101
11011
1111111101111110
1111110100100110
1111111100000011
1111111010101010
111111011
1101011
100101101
111100100
111011000
1111110111111111
11100100
1111110111001111
11010110
1111111001001110
100000
1111111101010001
1111111000001001
1111110011101001
1111111001001000
1111111011011011
1111111100011010
1111111100000111
1000100100
1001001001
110101000
1000110000
1111111000010010
1111110100111110
101010100
100100
101011011
1111111110110010
101001000
1111111101000011
1111110110000100
1111111011010001
1111111011000001
1111111111111001
1111110100100011
1111110110011100
1111111100011011
110100001
1111111100100001
1111111011110101
1111110111110010
11100010
110010
1111110100110110
1111111001111100
111100101
11001100
1111110011101001
1111111001100000
10110101
11001100
1111110111001100
1111111010111001
111001000
1111110101100001
1111111111110100
110001001
11000011
1111111111100000
1111110011100010
1010000001
10100111
1111111110111100
11011110
1111111000111001
1111111111111110
10000010
1111110100101010
1000111110
1111111110010110
1111111010110010
1111111001111111
1111111000111001
1111111110001110
1111110110011001
101001011
1111110101111110
10101
10100111
1111111000000100
100000011
1111111100100101
101111100
11011001
1111111101110000
1111111010000011
1111111010001110
101010001
11111001
1111111011010011
1111111010000110
