1111111111110100
1111111101011110
10101110
101000010
100100100
11010011
101100001
110101011
1111111101000001
101110001
11010100
1000010
1010010
101001000
100010101
0
10101000
111101
100111111
100101000
100001000
1110110
1111111111101011
11101011
110111111
1111111111101001
10001001
110000101
1111111101110100
1111111111000111
1010
111000
1111111111110011
111011101
101001111
101010110
1111111111101010
1111111100111010
1111111110010000
110111001
1111111110010000
10100011
1011011
1010011
10010010
101000111
11101001
1111111110000100
1111111111100110
11100000
11110110
11110011
110101010
111001001
101100101
10010100
1111111101111110
1010101
110110100
1111111111100010
1111111101011111
110111100
110101101
1111111101100110
11111101
1011010
101101101
101100100
100101010
111001101
11001000
1111111111111100
1111111101101001
11011100
110001001
1111111101000100
1101100
1111111111110000
10101011
100100111
10101
100000010
10000010
110000
1111111100110011
11010011
1111111110011111
110111011
1111111101011001
101100010
111000000
1111111111111011
10001101
10110010
10010101
100011101
1111111110100101
100011001
110101101
110010011
101110110
101111
1111111100101001
1111111111100001
110101
1111111111101011
10001
1111111111100111
111000
110011
1111111111100111
101001100
1111111110111101
1111111100111000
100001010
11111000
111010001
1111111111100001
1111111110011100
10100110
110010111
101110110
100000000
1110
101011100
100011001
100001001
101001111
1111111101010100
11001100
1111111100110100
100001000
11100111
1111111111110111
1111111111000110
111110
101000100
111011100
111010011
1001101
1110101
1111111110011101
1000
1111111100111001
100011101
100000001
1101000
1111111110001101
1111111111100111
101001101
1111111101111010
101010011
100000101
1111111101100111
10110
11110011
10011010
11101011
110110110
1111111110101010
10010000
1001
1111111101000011
11010
1111111101011110
1111111101100100
1111111110100001
100101001
1111111111100100
101111001
101011101
1111010
1111111101001110
1111111100111100
10100010
1000
1111111100111010
101100111
1111111101001101
1111111101011000
1111111111111110
1101000
1111111110010011
111001000
110111000
1111111111100111
110011
1111111111000100
1111111111000011
101011001
1111111101010001
10101101
100001110
11001110
1111111101101011
10101010
101100
1111111110011101
110000010
10010111
100101101
1111111101001101
1111111110101011
1111111101101100
1111111100111001
1111111111110101
1111111100110010
10110100
1111100
110110111
1111111100110110
101011001
1111111110111011
1111111110011100
1100011
100010110
10100
1010001
1111111111100010
1111111111010110
1111111101101010
101001010
111011111
111100010
110000001
1111111110001110
100000
101010111
1101111
1111111100101111
101011101
110001100
1111111110010000
1111111110110101
1111111111001001
1000000
11001110
111000100
111
1101000
100100101
1011101
11111111
111011101
1111111100111100
1111111110111011
1111111101101100
10011
11100110
1111111111010101
1001100
1111111111000100
10000101
1111111101100000
100011101
1111111100110010
110000101
101001111
11100111
1000110
110000000
110110101
110101111
100111011
1111111111111111
1010110
1111111110001010
10110100
111001011
101100000
100011011
111100110
111100000
11111011
101110110
1111111111010000
1111111101001101
10101011
111100
110101010
100000010
1010001
11100110
101111100
10101111
1111111111111110
101001110
1111111110110001
10001101
1111111110111110
110000100
1111111101001110
100000000
10010011
1111111111001010
111010010
1001101
100011000
1111111101110101
111010110
11010001
11000000
1110100
1111111101110100
1111111110101001
110111100
1111111111010011
11101010
1111011
101001010
111100110
1111111110100000
1111111111001101
100011011
110110111
1110101
11001001
1111111110010011
11000001
1111111110001101
100010111
101000
10100001
1111100
10000
110100
100001101
1111111110001010
11000101
101011101
1110100
1111111110011010
11010000
100010000
1111111101000000
1111111111010111
111011000
100011001
1111111110111011
10110101
101011000
110000011
1111111101010111
1011100
1111111101000111
1000011
100111010
11000111
1111111101010101
100100001
101001001
1111111111001010
10001111
111000000
110011010
1111111110001111
1111111111000000
11001011
1111111100101111
10101011
11000110
100111010
10101
1111111111110011
110111011
1111111110010100
1111111111011110
1111111101000111
10101110
11110111
10011110
1111111110011000
1111111110111010
100
1111111111100101
10010001
111000010
1111111111001010
100010011
1111111110001001
1111111111111001
1000000
1111111110101110
11100001
110010
1111111111110000
110010111
10001010
1111111110100101
101000101
10101001
1111111100101110
1111111111001110
111011101
11001000
101101100
100100001
1111111110101110
1111111110100110
1111111101110001
1100011
10110011
1111111111110111
1111111110000011
11101100
10010001
1000
11111100
110100
100110001
1000
1111111110011101
1010111
100111011
1111110
101101110
10000110
1111111111010101
100011011
101100001
11101101
10001
101110100
10000
1011
1111111111001100
1111111111000000
1100110
110100100
1111111110001111
1111111110010011
101011111
1111111111101000
1111111111111101
1111111110110100
111011
101100101
1111111101100001
100000010
11100100
1111111110111111
110100010
11100110
100111111
101001000
110001011
110101101
1111111111101001
110000000
1111111101001110
101100
111010
100010110
1111111101001011
10100
1111111101000010
1111111110111100
1111111111111100
1111111110100110
0
1111111101010011
101000010
110110001
11000011
100111111
10010101
1111111110110010
1110000
10001001
10011010
101001
1111011
111100011
10100001
1110011
101101000
1111111101001100
101100001
1011110
1111111101100000
10001110
1000010
110111101
111011100
1111111110011000
1111111110111011
10001001
1111111111111101
101001
1110
110110111
1111111100111000
1111111111010101
110000111
1111111100110111
100111000
1111111100101111
1111111101000111
101001001
100110010
110010001
1001011
1111111111101011
100010001
1111111110001101
11110101
111011000
11111101
10011
101011000
11010100
10011111
100101000
111000010
1110101
1111111110100101
1101001
101110100
111010001
1010101
1111111101111010
1111111100110110
1011010
1111111110100101
110110001
110110001
101001110
1111111101111111
111011011
110000001
101
101000001
11111110
1111111110100010
100001001
11000000
10110
100010
1111111111110101
100111000
111100000
1111111110101001
10011011
1111111111001001
1111111111000000
1111111111100101
1111111101100000
10000100
111011111
1111111100110000
1111111111101101
110101011
1111111111000000
1111111101010011
1111111110001111
111010111
1110001
10111100
10010010
11000010
1111111110111010
1111111101011010
111100
110110100
110101100
11110000
1010010
111011111
10010010
10001110
1111111111100111
110010101
11011010
1111111111000101
100
100110001
1111111101101010
11110100
110101111
101010010
10110111
111010000
1001000
101100110
10101101
100100000
100000001
10010000
1111111110010011
10011001
100100111
1111111110011011
101101
11000011
111010011
110001
10011
1111111101110111
110001110
110001011
1111111
111000010
1111111100111000
1111111101111011
1111111101111011
11011101
1111111101010011
1111111101000011
1111111100111111
111011111
11000010
1111111110101000
101110001
1111111100101110
110110010
100101111
111001011
110100
1111111110110110
1100101
1111111101000111
1111111111101001
1111111100110001
1100011
1111111110101111
10100
101000010
110100110
1010101
10011
101001100
1010100
101110010
1111111111100010
101100100
10100110
10111011
1111111101111011
100110110
1111111110101100
100000011
10001010
101
1101111
101100100
101000011
100101001
1110101
1111111101011100
11010000
1101110
11111111
1110010
10110
1111111110100011
1111111101001001
101100010
110100111
110100001
1111111110110111
100011101
10011011
11110111
100101101
11111111
111001100
111010010
1111111101111110
1111111100101101
1111111110010100
1111111110110011
101100011
1101101
110110000
11000110
11100010
1111111110100001
100000001
1001010
10101001
11010000
111101
1111111111101110
110100
101110100
111000011
11001001
10100101
1111111110111000
1111111111111000
100101
110000101
1111111110001100
1111111110101001
1111111111000111
10010010
1111011
1001010
10001
110100001
1111111110111011
1111111100110010
1010011
10111000
111000010
11011010
110110011
1111111101101000
11110100
1101000
1111111110001010
111111
11001010
11011100
111100011
111100101
1111111110111000
10000110
111011101
111100001
100111110
1111111110101100
1100101
101110111
10100111
11111001
1111111111101100
10100001
1111111100101111
11011
110100100
111001100
1111111101010110
101010111
10010010
11010
1111111110001011
110111
1111111101100100
1111111101111001
110111101
11000001
1111111111011011
1111111111110010
1111111110111100
1111111111101111
1011011
10100011
1111111101010010
101000001
100011
10101010
1011011
1101001
1111111110100101
101001110
100110011
1111111101101010
100111111
101111010
1111111111101110
101000101
111010001
1111111111100000
10100010
100101100
11101011
1111111110110000
100010101
1111111111010010
111011100
10110
1111111111111011
1111111100101101
1111111100110010
1111111110101000
1111111110001110
1000
11001101
101100001
100000110
111010011
1111111101000101
11010001
