100111110
1111111100100111
1111111101101001
111011001
101010000
11010001
100011111
101001000
11111010
101111011
1111111100111011
11011011
100100001
101101010
1111111100110110
100011011
10011110
10101110
11111001
110110110
110001100
1001110
1111111111000011
1111111101111001
11000111
10111011
101111111
1111111110001000
100001111
1111001
1111111101100011
1111111101101010
1111111101001110
110001101
1111111110001101
10011000
1001011
11000100
101000
1111111110110000
1101111
11000011
110100100
111000100
110111110
100010111
101001
11110111
110
10100000
1111111101110010
110011110
111100
1111111100110011
110111010
100111001
1111111111110001
1111111100111000
1111111101100010
100001110
10111
1111111111100101
1111111100110001
1111111111111111
11110011
1000
101000011
101111100
10101010
10011010
101111110
10011000
111001101
110111110
1111111101110010
100101110
111011001
101000101
11011001
1111111110000001
11111000
1111111100111001
1101010
101101100
110100
11111101
1111111100101110
101010011
100110110
1111111101011000
110100111
11000110
111011110
101001000
1111111101011101
10000101
100110110
100001010
1001011
1101111
1111111110011011
1111111100111111
101010111
1111111101010001
101111001
1111111111011011
110110111
10010010
101111110
1000100
110010
1111111111100001
111010011
101111100
110101011
11000
10001011
101001101
1111111111010100
1111111110001001
111000101
11010101
1111111110011111
1111111101101000
110100001
10110111
10110001
110000111
1111010
100100001
111100
100101000
100100001
1111111101011111
111101
10111000
101001
1111100
1111111101110010
1111111100111100
1111111111101111
1111111110001110
10001011
10111101
110101110
1111111
10001101
11001000
1100100
1111111110100101
11000111
1111111101010111
1111111110001011
1111111111000101
101111
10010101
1111111100110000
110100111
1001001
10001100
1111111111010010
11100000
10111100
10000001
11001001
1111111110001000
110110000
100111011
1100011
10000110
100000100
110000000
10000011
1111111101010110
100001011
10111010
11011111
1111111101111101
101011000
111010010
100100010
100100000
1111111111001100
1111111100100111
11011100
10011100
11101001
10111001
1111111101101011
1111111110111011
101011000
1010000
110100001
1111111100110000
1111111111100100
1111111110110101
1111111111111010
101100101
1111111100101101
110101010
1111111100111000
1010000
1100
1100
10110001
101001100
101011111
1111111110101100
1111111110010011
1001010
1111111110011111
1111111110010111
1111111110100100
111001110
11010110
100010000
110000001
10010101
100001010
1111111100111100
1001111
1111111
110110101
10110101
1101101
1111111100111000
100110011
11000101
110011100
1111111100101111
110110000
1111111101011101
1111111110011010
10110011
1111111111010100
10101111
101
101101110
1111111101011101
101110010
110111100
100010100
111011110
1010101
101111110
1111111111100010
1111111101011100
1011101
100010
1111111101001011
101101101
11101
110000000
1100
10010111
11010101
101111000
10100111
110100011
1111111111000101
1100101
1111111111011000
1111111100100011
100010000
1001011
1111111101101000
1111111110100011
1000011
111000111
1101010
1111111100100011
100100000
110101010
1010
101101110
1111111111010100
1101001
10110001
111001000
110001110
111000
110110011
101001001
1111111111101101
1111111101000001
111000101
101111
10100001
1100001
111000110
100111000
10000011
100101101
1111111110111100
1111111110010110
1100000
11101010
101000101
1111111110000001
100111001
101011101
100100110
110100110
110001110
11110100
1111111110001111
1111111111101111
11010
1100101
110000100
11110010
1111111110000111
1111111101100111
110010011
1111001
1111111100111111
11010100
1111111110000111
110100011
11111011
1111111111010001
1111111110000000
1111111101011111
100100011
1111111101110001
101100100
100011010
11001110
1111111111111101
1111111101010010
1111111111011011
1111111110111111
10100010
1111111111100110
100010
1000110
1001001
1010011
100010010
10111100
1010000
1111111101011111
1111111100110001
100110
11100010
110010001
1110011
100101111
110100011
101001100
1111111111110011
1111111111011010
1111111111000001
1111111110111110
1111111111101101
111001101
1111111110010101
1111111101110111
1011
1111111101000111
10000101
101110111
100011110
1111111101011100
100000000
1100100
101111010
111001100
100101011
1001000
1111111101000011
1111111110011000
1111111101100010
100000011
1111111110010001
1111111100101111
1111111111000011
111000101
110001111
1111111111010010
110100010
1111111101101011
1111111101010110
1111000
10010001
10100111
10111100
100101100
100011110
1110001
1111111110010100
101111100
1111111111111100
110101100
1111111101011000
10110001
1111111111110011
101100011
1111111110111000
111001010
1111111101000001
1111111110101010
101100110
1111111101100010
10100110
1111111101111110
110110
1111111111101000
101010
1111111110110010
110010011
10000110
1111111110000010
1111111110011111
10001011
11011010
10101010
1111111101101111
110000100
100001100
110100111
1111111111111111
1111111110111111
1111111110100001
1111111110110101
1111111101101100
11100101
1111111101001101
1011
1001000
111111
1010100
110110000
101010011
10110010
1111111111010110
10001010
1111111111100011
110110001
110010000
1111111100100100
100010110
11000011
1111111111100011
100110011
110011010
110001101
110110101
11001100
1111111100111101
1100101
11100111
110110000
1100111
1111111101101001
110001110
1110110
1000011
100001101
101011010
10011011
11110100
110001001
1001
1111111101011101
1111111101111100
10101
110001000
1111111110001110
100
110101110
1111000
110100111
1111111100101111
101010101
100010001
11000000
1111111101010110
11111000
10010
1111111110001100
1010000
110010111
100011000
111001001
111010000
111000100
1111111101111001
110001010
11110100
1111111110111111
110110000
1111111110111111
110110100
111000001
1111111110000001
1111111101010000
10101110
1111111110110010
11110100
1100111
101111010
11000001
101010101
1111111111000111
1111111111011010
1111111111000100
11111110
1111111111110101
1001000
100111001
1111111100110110
100111100
10010111
10010
1111111
1111111110010110
1010
100000111
101100010
111010111
101010110
111001
101111
100110101
10110111
1111111101100000
100110000
11110001
1111111100100001
10001
101110011
1001011
101110010
11001101
1111111101011111
11100101
111010111
1010111
1100
101111010
11011101
1111111100111110
10011100
11000
101010
101101110
10100010
101101
10100000
10001
101100
1111111101000111
101001100
1100000
1111111101001011
111101
11101000
1010101
1111111111010101
101010110
101001001
11101000
1111111110011001
1111111110010010
101100110
100101101
11111011
1111111110001111
1000111
1111111101001010
1111111100100000
10110010
100000100
1111111110011100
110100
1111111110100101
1010001
10010100
1111111111010110
11101100
1000101
10001010
1111111111111111
111011011
10001010
1111111110001010
11000000
10000100
1111111101010111
110000
1111111110101000
100001110
1111111111110100
1010010
110001110
110101111
1111111110110100
101101
1111111100101101
1111111101000010
1111111111010110
1111111110011011
110111100
1010010
1111111101011100
1111111110111101
110110111
101101100
110111100
10110010
1111111110000000
1111111100100101
10110111
1111111110010011
11111101
110101110
1111111111101001
110110110
1111111111100100
10000010
110010100
111001110
111001101
101101100
1001100
101001110
10101101
100110101
101110111
1111111101011011
1111111111101000
110010111
11101011
1111111110101010
111001110
100001
1111111101110000
1111111111000001
11100
101110001
10111
1111111110110001
101110001
111011010
1111111110010000
10101000
1111111110101010
101000101
100101110
1111111110000000
110100000
1110110
10010011
101110111
1111111111011010
10001001
100
100010010
100111111
110011101
1011001
1111111110111110
1111111100101001
100111000
1111111111010011
110001111
11110010
111100
1111111110111111
1111111101000010
111010111
1111111111101110
100011100
101110001
11111110
101100010
1111111101101110
100100101
100011001
111110
10111001
11001100
10101011
1000111
1111111101100001
101000001
1111110
1111111110010010
111000010
110100001
1111111111101111
11111111
1111111111011101
111
100101000
111001100
1111111101001101
1000111
110011010
110011100
1111111101001101
1111111110010010
11000111
1111111110101000
1111111110100100
1
100000
1111111100101011
111000011
1111111110110000
1111111101001111
11101111
1111111110000110
100011010
101
110010011
11111
101100000
100111101
1111111111001110
110001110
110010001
100000010
10101111
10101011
10111111
1111111100100011
11011
11111000
1111111111011001
1111111110110101
10111000
101010010
111010110
110110101
110001101
1111111111000001
1111111111111011
1111111101101011
110000000
1111111100111010
1111111110011000
110100
101000011
111011011
1111111101000011
101100
10010100
10011
100110101
11110010
110000
111001100
110001100
1111111110101111
10010011
10110101
1111111111011110
1111111110011010
110110
11011011
10011010
111001011
101111011
110010000
1111111111001111
101010011
1111111111011110
1000111
100110111
1111111110010100
1111111110001111
100000100
1111111101001110
110111111
1111111111100111
10010111
10110000
1111111111001100
1111111110101010
11000110
1111111111000010
101111
