1111111111110111001000000100111101100000000000000000000000000000000000000000000000000000000000000000
1111111100001111011111011010101100000000000000000000000000000000000000000000000000000000000000000000
10000010111111000111100000000000000000000000000000000000000000000000000000000000000000000000
1001000111101100011011010000000000000000000000000000000000000000000000000000000000000000000
10000110011110111101000000000000000000000000000000000000000000000000000000000000000000000000
1111111111001000111011111100101110000000000000000000000000000000000000000000000000000000000000000000
100011011110101110111100000000000000000000000000000000000000000000000000000000000000000000000
1111111010110110101101110011100000000000000000000000000000000000000000000000000000000000000000000000
1111111011010111110000001001111000000000000000000000000000000000000000000000000000000000000000000000
1111111101110111001101101000111000000000000000000000000000000000000000000000000000000000000000000000
1110011011100011101000100000000000000000000000000000000000000000000000000000000000000000000
1111111010001111111001010101001000000000000000000000000000000000000000000000000000000000000000000000
1111111100000101000111011111111100000000000000000000000000000000000000000000000000000000000000000000
100010011011111000110001000000000000000000000000000000000000000000000000000000000000000000000
1111111011011000001101100101001000000000000000000000000000000000000000000000000000000000000000000000
1111111100110111011100100100000100000000000000000000000000000000000000000000000000000000000000000000
1111111111110011001000100010010111110000000000000000000000000000000000000000000000000000000000000000
100011111001101101100100000000000000000000000000000000000000000000000000000000000000000000000
11110001111001101011000000000000000000000000000000000000000000000000000000000000000000000000
100011101100010001111101000000000000000000000000000000000000000000000000000000000000000000000
10011100101000000101001100000000000000000000000000000000000000000000000000000000000000000000
1111111010001011101100000001000000000000000000000000000000000000000000000000000000000000000000000000
1110101001111010001101100000000000000000000000000000000000000000000000000000000000000000000
101110100010101101101001000000000000000000000000000000000000000000000000000000000000000000
1111111010101101001000100001011000000000000000000000000000000000000000000000000000000000000000000000
10110111000011111101101100000000000000000000000000000000000000000000000000000000000000000000
1111111111101010000110010011110110100000000000000000000000000000000000000000000000000000000000000000
1111111101100001111110110001101100000000000000000000000000000000000000000000000000000000000000000000
10011011001011010100000100000000000000000000000000000000000000000000000000000000000000000000
1111111110101011011101111010111100000000000000000000000000000000000000000000000000000000000000000000
10110010010101101110000100000000000000000000000000000000000000000000000000000000000000000000
1111111111101001100000000001011001000000000000000000000000000000000000000000000000000000000000000000
1111111011011111101011000110010000000000000000000000000000000000000000000000000000000000000000000000
1111111010100100010001101101101000000000000000000000000000000000000000000000000000000000000000000000
1111111011010011001000111011101000000000000000000000000000000000000000000000000000000000000000000000
1111111011000010110111011101001000000000000000000000000000000000000000000000000000000000000000000000
100000001010010000100101000000000000000000000000000000000000000000000000000000000000000000000
1111111100010010010100100110011100000000000000000000000000000000000000000000000000000000000000000000
1100100001011010101110010000000000000000000000000000000000000000000000000000000000000000
10010011100011000011110000000000000000000000000000000000000000000000000000000000000000000000
11101101011101110001010100000000000000000000000000000000000000000000000000000000000000000000
1111111010110010100011000110111000000000000000000000000000000000000000000000000000000000000000000000
1111111110110010000011001010101010000000000000000000000000000000000000000000000000000000000000000000
1111111011000000110101010000100000000000000000000000000000000000000000000000000000000000000000000000
1111111010010001010110111110111000000000000000000000000000000000000000000000000000000000000000000000
11011010111000001110000100000000000000000000000000000000000000000000000000000000000000000000
1111111011010011100011011100110000000000000000000000000000000000000000000000000000000000000000000000
1111111110100101101001111000010100000000000000000000000000000000000000000000000000000000000000000000
110111001111110111000000000000000000000000000000000000000000000000000000000000000000000000
10101001011100111101010000000000000000000000000000000000000000000000000000000000000000000000
1111111100001001101100001110001100000000000000000000000000000000000000000000000000000000000000000000
1111111100001010010111011001100100000000000000000000000000000000000000000000000000000000000000000000
1111111010100001100011111100011000000000000000000000000000000000000000000000000000000000000000000000
1111111100010001011010001001011100000000000000000000000000000000000000000000000000000000000000000000
1111111101110001101111111001011100000000000000000000000000000000000000000000000000000000000000000000
1111111011010001111111110100011000000000000000000000000000000000000000000000000000000000000000000000
1011000101011000000100010000000000000000000000000000000000000000000000000000000000000000000
1111111111101010001100001010100000100000000000000000000000000000000000000000000000000000000000000000
100011000010100011001100000000000000000000000000000000000000000000000000000000000000000000000
1111111101010001000111111101001100000000000000000000000000000000000000000000000000000000000000000000
1111111111000000011001011001111110000000000000000000000000000000000000000000000000000000000000000000
1111111011000011110111000110011000000000000000000000000000000000000000000000000000000000000000000000
1111111011001111001110110110110000000000000000000000000000000000000000000000000000000000000000000000
1111111101101110011011110101000100000000000000000000000000000000000000000000000000000000000000000000
1111111100000100000100011110011100000000000000000000000000000000000000000000000000000000000000000000
1010100000101100011010100000000000000000000000000000000000000000000000000000000000000000000
1111111011000111010111111101110000000000000000000000000000000000000000000000000000000000000000000000
1111111111111000100001101100010011110000000000000000000000000000000000000000000000000000000000000000
100001011000000100000100000000000000000000000000000000000000000000000000000000000000000000000
100010000010111011000110000000000000000000000000000000000000000000000000000000000000000000000
1111111010100000111110010001001000000000000000000000000000000000000000000000000000000000000000000000
1111111111011111000011001010011000000000000000000000000000000000000000000000000000000000000000000000
100011110100001011001100000000000000000000000000000000000000000000000000000000000000000000000
1111111101010111011011100110100100000000000000000000000000000000000000000000000000000000000000000000
1111111100100000000011110011011100000000000000000000000000000000000000000000000000000000000000000000
10110101000110000001100100000000000000000000000000000000000000000000000000000000000000000000
11000111100100111011001100000000000000000000000000000000000000000000000000000000000000000000
1111111100000100011011000010000100000000000000000000000000000000000000000000000000000000000000000000
1111111101001100100000110101110100000000000000000000000000000000000000000000000000000000000000000000
1111111011010011101011111000111000000000000000000000000000000000000000000000000000000000000000000000
1111111100011010011011101011101100000000000000000000000000000000000000000000000000000000000000000000
11111010110101111101001100000000000000000000000000000000000000000000000000000000000000000000
11000001001101101110101000000000000000000000000000000000000000000000000000000000000000000000
11010100011100100010011000000000000000000000000000000000000000000000000000000000000000000000
1111111100000100110011011110111000000000000000000000000000000000000000000000000000000000000000000000
1111111111100110100110000010110011100000000000000000000000000000000000000000000000000000000000000000
10110111001101111101110100000000000000000000000000000000000000000000000000000000000000000000
1010010000001011110100100000000000000000000000000000000000000000000000000000000000000000000
1111111101111001100100001100010100000000000000000000000000000000000000000000000000000000000000000000
10100111000011110101000000000000000000000000000000000000000000000000000000000000000000000000
10110011111110101010011100000000000000000000000000000000000000000000000000000000000000000000
1111111100001111000101001110101100000000000000000000000000000000000000000000000000000000000000000000
1111111111101001110011001001010110000000000000000000000000000000000000000000000000000000000000000000
1111111110000110000010110110110010000000000000000000000000000000000000000000000000000000000000000000
1100101001010101010100010000000000000000000000000000000000000000000000000000000000000000000
1111111110000000100100110011111110000000000000000000000000000000000000000000000000000000000000000000
1111111100100000110111000111000000000000000000000000000000000000000000000000000000000000000000000000
1111111010100010010001011011001000000000000000000000000000000000000000000000000000000000000000000000
1111111101100000011000111100010100000000000000000000000000000000000000000000000000000000000000000000
1111111110110010011101001111110100000000000000000000000000000000000000000000000000000000000000000000
100011100011101111000011000000000000000000000000000000000000000000000000000000000000000000
1111111010101011100101111110011000000000000000000000000000000000000000000000000000000000000000000000
1000000101010010010011000000000000000000000000000000000000000000000000000000000000000000000
1111111011100010010100101110000000000000000000000000000000000000000000000000000000000000000000000000
1111111101101011100110001010010000000000000000000000000000000000000000000000000000000000000000000000
1111111011011010110000101110000000000000000000000000000000000000000000000000000000000000000000000000
1111111111000010110011011001000100000000000000000000000000000000000000000000000000000000000000000000
1111111101010111111000110101001000000000000000000000000000000000000000000000000000000000000000000000
1111111110000001100111110011111110000000000000000000000000000000000000000000000000000000000000000000
100011010010110000000011000000000000000000000000000000000000000000000000000000000000000000000
1111111010110101010011001001111000000000000000000000000000000000000000000000000000000000000000000000
1111111010101111111000110010000000000000000000000000000000000000000000000000000000000000000000000000
1111111100111110110010011011110000000000000000000000000000000000000000000000000000000000000000000000
1111111101011000001010011101100100000000000000000000000000000000000000000000000000000000000000000000
1111111101111001111100110101101100000000000000000000000000000000000000000000000000000000000000000000
1111111100000001000001100111000100000000000000000000000000000000000000000000000000000000000000000000
1111111100010111011101111111110100000000000000000000000000000000000000000000000000000000000000000000
1111111100111011001011010111001100000000000000000000000000000000000000000000000000000000000000000000
1110011101011001100111010000000000000000000000000000000000000000000000000000000000000000000
11111010110011101110111000000000000000000000000000000000000000000000000000000000000000000000
1111111010110110001101111011011000000000000000000000000000000000000000000000000000000000000000000000
1111111100011111000100000010000100000000000000000000000000000000000000000000000000000000000000000000
1111111101001101001101100010001100000000000000000000000000000000000000000000000000000000000000000000
1010010000100000011101010000000000000000000000000000000000000000000000000000000000000000
1111111100100000110010110001110000000000000000000000000000000000000000000000000000000000000000000000
11001110010001000010110000000000000000000000000000000000000000000000000000000000000000000000
101110000100000001100111000000000000000000000000000000000000000000000000000000000000000000
1110110101000010110101100000000000000000000000000000000000000000000000000000000000000000000
1111111110010101100000101001111100000000000000000000000000000000000000000000000000000000000000000000
1111111100010100000110001001101000000000000000000000000000000000000000000000000000000000000000000000
100001011111011001100111000000000000000000000000000000000000000000000000000000000000000000000
100011111000110101011111000000000000000000000000000000000000000000000000000000000000000000000
1111111110000101110001000100101100000000000000000000000000000000000000000000000000000000000000000000
1111111100101110110001001110111000000000000000000000000000000000000000000000000000000000000000000000
1111111111000101011101010101100111000000000000000000000000000000000000000000000000000000000000000000
10111110111100111111110100000000000000000000000000000000000000000000000000000000000000000000
1111111011101101000101110001101000000000000000000000000000000000000000000000000000000000000000000000
1001110100101100110100000000000000000000000000000000000000000000000000000000000000000000000
1111111100011111010101100001111100000000000000000000000000000000000000000000000000000000000000000000
1111111110001111011111001100001010000000000000000000000000000000000000000000000000000000000000000000
1111111010110110000000000100000000000000000000000000000000000000000000000000000000000000000000000000
100000011101000001011101000000000000000000000000000000000000000000000000000000000000000000000
1111111101001000000001001111101100000000000000000000000000000000000000000000000000000000000000000000
1111111011110010101110100111110000000000000000000000000000000000000000000000000000000000000000000000
1111111100000001110100110001101100000000000000000000000000000000000000000000000000000000000000000000
1111111011100001110010101000000000000000000000000000000000000000000000000000000000000000000000000000
1111111010010000111000000110101000000000000000000000000000000000000000000000000000000000000000000000
10110011101010100101111000000000000000000000000000000000000000000000000000000000000000000000
1111111110000111001100101100111100000000000000000000000000000000000000000000000000000000000000000000
1111111111101010110000001010011101000000000000000000000000000000000000000000000000000000000000000000
1111111010011110001110100010010000000000000000000000000000000000000000000000000000000000000000000000
1111111110110111000111101011110010000000000000000000000000000000000000000000000000000000000000000000
1111111100100101011011010100110100000000000000000000000000000000000000000000000000000000000000000000
1111111110010111100000000101010100000000000000000000000000000000000000000000000000000000000000000000
10100101001110101000100100000000000000000000000000000000000000000000000000000000000000000000
1111111111111101111010110010100100011100000000000000000000000000000000000000000000000000000000000000
1001001010101001000101010000000000000000000000000000000000000000000000000000000000000000
11000110110010011011001100000000000000000000000000000000000000000000000000000000000000000000
100000111010100101110100000000000000000000000000000000000000000000000000000000000000000000000
1111111111100010110011101111000001000000000000000000000000000000000000000000000000000000000000000000
1000011010100000010111110000000000000000000000000000000000000000000000000000000000000000000
10010110010001010010101100000000000000000000000000000000000000000000000000000000000000000000
1111111100110100100100100010110000000000000000000000000000000000000000000000000000000000000000000000
1111111110010010110101100100101010000000000000000000000000000000000000000000000000000000000000000000
1011111010101110011100000000000000000000000000000000000000000000000000000000000000000000000
10111101000000010110111000000000000000000000000000000000000000000000000000000000000000000000
1010111010100010101110010000000000000000000000000000000000000000000000000000000000000000000
11011101101000111101010000000000000000000000000000000000000000000000000000000000000000000000
1101101110110001111000010000000000000000000000000000000000000000000000000000000000000000000
1111111111110110010010111101001011100000000000000000000000000000000000000000000000000000000000000000
1111111100010000111001000111011100000000000000000000000000000000000000000000000000000000000000000000
1111111011110001011100010000000000000000000000000000000000000000000000000000000000000000000
1111111011000001110010101010101000000000000000000000000000000000000000000000000000000000000000000000
100010100001101001101001000000000000000000000000000000000000000000000000000000000000000000000
11111101110100011010011000000000000000000000000000000000000000000000000000000000000000000000
10011111001111101010000000000000000000000000000000000000000000000000000000000000000000000000
100010011111101010011011000000000000000000000000000000000000000000000000000000000000000000000
1111111110111101100010111110111010000000000000000000000000000000000000000000000000000000000000000000
1111111101100001011100001111101000000000000000000000000000000000000000000000000000000000000000000000
1100101000010111010001110000000000000000000000000000000000000000000000000000000000000000000
1111111110001011011000100100011010000000000000000000000000000000000000000000000000000000000000000000
1111111110011000011001000010110100000000000000000000000000000000000000000000000000000000000000000000
11100111000111100111011100000000000000000000000000000000000000000000000000000000000000000000
1111111100111001001000011001010100000000000000000000000000000000000000000000000000000000000000000000
1111111100110100100001010111001100000000000000000000000000000000000000000000000000000000000000000000
1111111110100110001000111110111110000000000000000000000000000000000000000000000000000000000000000000
1101100111001110101101000000000000000000000000000000000000000000000000000000000000000000000
11010110110000000011001000000000000000000000000000000000000000000000000000000000000000000000
11101010001010000000101100000000000000000000000000000000000000000000000000000000000000000000
1111111010001111110100111110100000000000000000000000000000000000000000000000000000000000000000000000
10100110100001100101101000000000000000000000000000000000000000000000000000000000000000000000
1010111011010011010111100000000000000000000000000000000000000000000000000000000000000000000
1111111111011001101111001111000001000000000000000000000000000000000000000000000000000000000000000000
1111111101110100010000100111100000000000000000000000000000000000000000000000000000000000000000000000
1111111101111010010100011011110000000000000000000000000000000000000000000000000000000000000000000000
1111111011010000010101110111110000000000000000000000000000000000000000000000000000000000000000000000
1111111010001111000111100100010000000000000000000000000000000000000000000000000000000000000000000000
11101110111110100011000000000000000000000000000000000000000000000000000000000000000000000000
1111111111100101011001010110101100000000000000000000000000000000000000000000000000000000000000000000
1111111010110000100000000111100000000000000000000000000000000000000000000000000000000000000000000000
1000001010110011001010000000000000000000000000000000000000000000000000000000000000000000000
1111111110110000100010011010010100000000000000000000000000000000000000000000000000000000000000000000
1111111011000000010011101111110000000000000000000000000000000000000000000000000000000000000000000000
100011100101011111000111000000000000000000000000000000000000000000000000000000000000000000000
11111100101110100001100100000000000000000000000000000000000000000000000000000000000000000000
10010110000001010001101100000000000000000000000000000000000000000000000000000000000000000000
111110111101010111100100000000000000000000000000000000000000000000000000000000000000000000
1000111010100110011111000000000000000000000000000000000000000000000000000000000000000000000
1111111011101110111110110110111000000000000000000000000000000000000000000000000000000000000000000000
11000000111100000101100000000000000000000000000000000000000000000000000000000000000000000000
1111111101000110011101001000011100000000000000000000000000000000000000000000000000000000000000000000
1111111110010111100100110011111110000000000000000000000000000000000000000000000000000000000000000000
100001011000011110011000000000000000000000000000000000000000000000000000000000000000000000000
1111111100111111101101001110111000000000000000000000000000000000000000000000000000000000000000000000
1100001110101010011010100000000000000000000000000000000000000000000000000000000000000000000
1111111111110101011111000100100111110000000000000000000000000000000000000000000000000000000000000000
1111111100111100110000010110101100000000000000000000000000000000000000000000000000000000000000000000
1111111101001111000111110001101100000000000000000000000000000000000000000000000000000000000000000000
11000110001111111110100000000000000000000000000000000000000000000000000000000000000000000000
110010001101111000010010000000000000000000000000000000000000000000000000000000000000000000
1111111110110010101111001011110000000000000000000000000000000000000000000000000000000000000000000000
1111111011110110010010110110001000000000000000000000000000000000000000000000000000000000000000000000
1111111110010001111110000001011000000000000000000000000000000000000000000000000000000000000000000000
1111111010010001011100111000011000000000000000000000000000000000000000000000000000000000000000000000
1111111011111110100010001000010000000000000000000000000000000000000000000000000000000000000000000000
1111111100100000001111100011111100000000000000000000000000000000000000000000000000000000000000000000
1111111101001111001101000000001100000000000000000000000000000000000000000000000000000000000000000000
101001001010001000001010000000000000000000000000000000000000000000000000000000000000000000
1111111101101001001000100001110100000000000000000000000000000000000000000000000000000000000000000000
1111111010010100101011010001010000000000000000000000000000000000000000000000000000000000000000000000
11100001010110100111110000000000000000000000000000000000000000000000000000000000000000000000
1110101110100000111011100000000000000000000000000000000000000000000000000000000000000000000
11101000011001011100101000000000000000000000000000000000000000000000000000000000000000000000
1111111100111011101001101000101000000000000000000000000000000000000000000000000000000000000000000000
1100110000101101010000010000000000000000000000000000000000000000000000000000000000000000000
101011001010001110001010000000000000000000000000000000000000000000000000000000000000000000
1111111111001111110100101000101011000000000000000000000000000000000000000000000000000000000000000000
1111111100101110011001001001000100000000000000000000000000000000000000000000000000000000000000000000
11111000110011101010111100000000000000000000000000000000000000000000000000000000000000000000
1111111011100010000100011001100000000000000000000000000000000000000000000000000000000000000000000000
1111111111000010111011101111011001000000000000000000000000000000000000000000000000000000000000000000
1111111010011111000111011011000000000000000000000000000000000000000000000000000000000000000000000000
10111100110001111011100000000000000000000000000000000000000000000000000000000000000000000000
1111111110111111000010111001110000000000000000000000000000000000000000000000000000000000000000000000
1111111010110111100110101000110000000000000000000000000000000000000000000000000000000000000000000000
100001011000111100001010000000000000000000000000000000000000000000000000000000000000000000
1111111010111100110111001101111000000000000000000000000000000000000000000000000000000000000000000000
1111111100110001100000111110101000000000000000000000000000000000000000000000000000000000000000000000
10001111101001010000111000000000000000000000000000000000000000000000000000000000000000000000
1111101101010100110010110000000000000000000000000000000000000000000000000000000000000000000
1111111010011011000111101000111000000000000000000000000000000000000000000000000000000000000000000000
1111111101101100011101100011000000000000000000000000000000000000000000000000000000000000000000000000
1111111011010101011100100011000000000000000000000000000000000000000000000000000000000000000000000000
1111111110010010001001011011000010000000000000000000000000000000000000000000000000000000000000000000
1111111111000100001010001010001100000000000000000000000000000000000000000000000000000000000000000000
1111111101011110111111111110110100000000000000000000000000000000000000000000000000000000000000000000
1111111010010000010001101001111000000000000000000000000000000000000000000000000000000000000000000000
1111111100001001010011000111000100000000000000000000000000000000000000000000000000000000000000000000
1111111011101110001101111110111000000000000000000000000000000000000000000000000000000000000000000000
1111111011000101111111011010111000000000000000000000000000000000000000000000000000000000000000000000
1111111100001011100101011000101100000000000000000000000000000000000000000000000000000000000000000000
1111111111101111111100100010101111000000000000000000000000000000000000000000000000000000000000000000
1111111100100001101101100001111100000000000000000000000000000000000000000000000000000000000000000000
11001110100111100001110100000000000000000000000000000000000000000000000000000000000000000000
1111111101000100010000111010001000000000000000000000000000000000000000000000000000000000000000000000
1010110110110111000100010000000000000000000000000000000000000000000000000000000000000000000
10011000010000011000111100000000000000000000000000000000000000000000000000000000000000000000
1111111011001100001100010101100000000000000000000000000000000000000000000000000000000000000000000000
11000110010001100111101000000000000000000000000000000000000000000000000000000000000000000000
10110101110000001110100100000000000000000000000000000000000000000000000000000000000000000000
1111111011111110110011100111000000000000000000000000000000000000000000000000000000000000000000000000
1111111111100111101111111111110111100000000000000000000000000000000000000000000000000000000000000000
100001010110110100010011000000000000000000000000000000000000000000000000000000000000000000000
10011001100011010001111000000000000000000000000000000000000000000000000000000000000000000
10100101010101111100001100000000000000000000000000000000000000000000000000000000000000000000
1111111011111011001110001000000000000000000000000000000000000000000000000000000000000000000000000000
1001000001001100111111000000000000000000000000000000000000000000000000000000000000000000000
11011100011010011001110100000000000000000000000000000000000000000000000000000000000000000000
1111111110101011011110100010010000000000000000000000000000000000000000000000000000000000000000000000
1111111010101111101101010111100000000000000000000000000000000000000000000000000000000000000000000000
10110010000110010100110100000000000000000000000000000000000000000000000000000000000000000000
1111111111100101110100000100000110100000000000000000000000000000000000000000000000000000000000000000
1111111100100110010010101011111100000000000000000000000000000000000000000000000000000000000000000000
1111111110000111101000100011010110000000000000000000000000000000000000000000000000000000000000000000
1111111101111000111101100110000000000000000000000000000000000000000000000000000000000000000000000000
11100100111110010010000100000000000000000000000000000000000000000000000000000000000000000000
10010011100011011100001100000000000000000000000000000000000000000000000000000000000000000000
1100000011111000111100100000000000000000000000000000000000000000000000000000000000000000000
1111111111001011001010010110100011000000000000000000000000000000000000000000000000000000000000000000
100011010111010111100100000000000000000000000000000000000000000000000000000000000000000000
1111111110010011111110111101000010000000000000000000000000000000000000000000000000000000000000000000
100010111101100100001111000000000000000000000000000000000000000000000000000000000000000000000
10100110100000101100111000000000000000000000000000000000000000000000000000000000000000000
11101100011010001100010000000000000000000000000000000000000000000000000000000000000000000000
1000110110101111110000000000000000000000000000000000000000000000000000000000000000000000000
10011110101001100110010000000000000000000000000000000000000000000000000000000000000000000000
11001010000111110111011000000000000000000000000000000000000000000000000000000000000000000000
1111111110111001110010111101000110000000000000000000000000000000000000000000000000000000000000000000
11011010110001111111001100000000000000000000000000000000000000000000000000000000000000000000
11001011000101100111010000000000000000000000000000000000000000000000000000000000000000000000
1111111011111001011100100111010000000000000000000000000000000000000000000000000000000000000000000000
1111111110101110011000111110011010000000000000000000000000000000000000000000000000000000000000000000
11011011011110011011101000000000000000000000000000000000000000000000000000000000000000000000
1111111011011100111100111010001000000000000000000000000000000000000000000000000000000000000000000000
1111111100001011010010100000011100000000000000000000000000000000000000000000000000000000000000000000
1111111111100111111011011010011111000000000000000000000000000000000000000000000000000000000000000000
1111111110110110100010000001010000000000000000000000000000000000000000000000000000000000000000000000
1111111011001010010011111011101000000000000000000000000000000000000000000000000000000000000000000000
1111111100001010110000000001010000000000000000000000000000000000000000000000000000000000000000000000
100011111011011100001010000000000000000000000000000000000000000000000000000000000000000000000
10000011011011000000100000000000000000000000000000000000000000000000000000000000000000000000
10011101010110101110110000000000000000000000000000000000000000000000000000000000000000000000
111000101011010010110110000000000000000000000000000000000000000000000000000000000000000000
1111111011000101100101011011100000000000000000000000000000000000000000000000000000000000000000000000
1111111101000010001001101000100100000000000000000000000000000000000000000000000000000000000000000000
1111111111110101101001001101000010100000000000000000000000000000000000000000000000000000000000000000
1001001111111111010010010000000000000000000000000000000000000000000000000000000000000000000
100010000111100011111111000000000000000000000000000000000000000000000000000000000000000000000
1111111111110111010011111001110111110000000000000000000000000000000000000000000000000000000000000000
1111111101010101100111100111110100000000000000000000000000000000000000000000000000000000000000000000
1111111100110111100001011001000100000000000000000000000000000000000000000000000000000000000000000000
1000100101011001100000010000000000000000000000000000000000000000000000000000000000000000000
1111111110101101010000000110010000000000000000000000000000000000000000000000000000000000000000000000
1111111011111111010100110110101000000000000000000000000000000000000000000000000000000000000000000000
1111111100100111000111011100001000000000000000000000000000000000000000000000000000000000000000000000
11101001010110111001101100000000000000000000000000000000000000000000000000000000000000000000
1111111110100101001011100100100000000000000000000000000000000000000000000000000000000000000000000000
10101000110101111001101100000000000000000000000000000000000000000000000000000000000000000000
1111111010010100010101100111001000000000000000000000000000000000000000000000000000000000000000000000
1111111100011101001001110011011000000000000000000000000000000000000000000000000000000000000000000000
1111111011100001100111111111110000000000000000000000000000000000000000000000000000000000000000000000
1111111101001011000000000110000000000000000000000000000000000000000000000000000000000000000000000000
1111111010011001010101101011001000000000000000000000000000000000000000000000000000000000000000000000
1111111100011100010110010000000000000000000000000000000000000000000000000000000000000000000000000000
11001000101110110011101100000000000000000000000000000000000000000000000000000000000000000000
1111111100100001110110000111000100000000000000000000000000000000000000000000000000000000000000000000
1110100101010001100000000000000000000000000000000000000000000000000000000000000000000000000
1010111100101100101110010000000000000000000000000000000000000000000000000000000000000000000
1111111010011011110100100101100000000000000000000000000000000000000000000000000000000000000000000000
10000110111110001111010000000000000000000000000000000000000000000000000000000000000000000000
110010001011011100111011000000000000000000000000000000000000000000000000000000000000000000
10110110010110010110101000000000000000000000000000000000000000000000000000000000000000000000
1111111110011101001011010100111110000000000000000000000000000000000000000000000000000000000000000000
100100000111111110100001000000000000000000000000000000000000000000000000000000000000000000000
1111111111010100100101111110000111000000000000000000000000000000000000000000000000000000000000000000
1111111111110010010101010011100111000000000000000000000000000000000000000000000000000000000000000000
1111111110110101010111101001011100000000000000000000000000000000000000000000000000000000000000000000
10001001110111101111001000000000000000000000000000000000000000000000000000000000000000000000
100011101101110000000001000000000000000000000000000000000000000000000000000000000000000000000
1111111111111010110001111111001100111000000000000000000000000000000000000000000000000000000000000000
10111111000110011111011100000000000000000000000000000000000000000000000000000000000000000000
1111111111100011110101110100000100100000000000000000000000000000000000000000000000000000000000000000
1111111101001111101010011011000100000000000000000000000000000000000000000000000000000000000000000000
11001000000110101100000100000000000000000000000000000000000000000000000000000000000000000000
11110100011011010000111000000000000000000000000000000000000000000000000000000000000000000000
10111010100011000101011100000000000000000000000000000000000000000000000000000000000000000000
1011110000111011101100110000000000000000000000000000000000000000000000000000000000000000000
1111111101011000011111100100001100000000000000000000000000000000000000000000000000000000000000000000
10010000010011011101011100000000000000000000000000000000000000000000000000000000000000000000
10001000111001010010001100000000000000000000000000000000000000000000000000000000000000000000
10011011100100010000010000000000000000000000000000000000000000000000000000000000000000000000
1111111111110100000001100001011110010000000000000000000000000000000000000000000000000000000000000000
1000110100011110011010100000000000000000000000000000000000000000000000000000000000000000000
110110011110000101111010000000000000000000000000000000000000000000000000000000000000000000
1111111011001011110010101100001000000000000000000000000000000000000000000000000000000000000000000000
1111111110111110101101111110111100000000000000000000000000000000000000000000000000000000000000000000
11100000000111010110110000000000000000000000000000000000000000000000000000000000000000000000
1111111010110111100100110110011000000000000000000000000000000000000000000000000000000000000000000000
1111111110001000101100000011001010000000000000000000000000000000000000000000000000000000000000000000
1111111100110000100110111100110000000000000000000000000000000000000000000000000000000000000000000000
1111111111111111000001111100100000011110000000000000000000000000000000000000000000000000000000000000
10111010110101110010100100000000000000000000000000000000000000000000000000000000000000000000
10101111101110010111100100000000000000000000000000000000000000000000000000000000000000000000
1111111011011001100001011111111000000000000000000000000000000000000000000000000000000000000000000000
10010010011111010010001000000000000000000000000000000000000000000000000000000000000000000000
1111111101110001111111110010011000000000000000000000000000000000000000000000000000000000000000000000
1010011111000110011000000000000000000000000000000000000000000000000000000000000000000000000
1111111111001010111001100101101101000000000000000000000000000000000000000000000000000000000000000000
1111111011000111101010001001011000000000000000000000000000000000000000000000000000000000000000000000
1111111101100010000001001000100100000000000000000000000000000000000000000000000000000000000000000000
10111110011111101101110000000000000000000000000000000000000000000000000000000000000000000000
10101010101100010001100000000000000000000000000000000000000000000000000000000000000000000000
110101110000110010011110000000000000000000000000000000000000000000000000000000000000000000
100011110110001100001000000000000000000000000000000000000000000000000000000000000000000000000
1111111110111001110101011001000000000000000000000000000000000000000000000000000000000000000000000000
1000000010110011011011000000000000000000000000000000000000000000000000000000000000000000000
1111111011101111100010110011111000000000000000000000000000000000000000000000000000000000000000000000
110011000011000111011100000000000000000000000000000000000000000000000000000000000000000000
1001100001011001111001010000000000000000000000000000000000000000000000000000000000000000000
111110101011110100011110000000000000000000000000000000000000000000000000000000000000000000
100000110010001110001011000000000000000000000000000000000000000000000000000000000000000000000
1111111100100010001111101101111100000000000000000000000000000000000000000000000000000000000000000000
100010001101111001100010000000000000000000000000000000000000000000000000000000000000000000000
1111111111000001110000101000110101000000000000000000000000000000000000000000000000000000000000000000
11110010010111011110000100000000000000000000000000000000000000000000000000000000000000000000
1111111100111011010110011100011100000000000000000000000000000000000000000000000000000000000000000000
1111111011101011111101001110011000000000000000000000000000000000000000000000000000000000000000000000
1111111100011101011000011101010000000000000000000000000000000000000000000000000000000000000000000000
10001111000101111011001100000000000000000000000000000000000000000000000000000000000000000000
10101001100001100101110000000000000000000000000000000000000000000000000000000000000000000
100011010111101001001100000000000000000000000000000000000000000000000000000000000000000000000
10100010110000001101100100000000000000000000000000000000000000000000000000000000000000000000
1111111101110010101011101111010100000000000000000000000000000000000000000000000000000000000000000000
11000101010101001000000100000000000000000000000000000000000000000000000000000000000000000000
11100010001101011111010100000000000000000000000000000000000000000000000000000000000000000000
1111110110111110011111010000000000000000000000000000000000000000000000000000000000000000000
1111111110101111011000110011001110000000000000000000000000000000000000000000000000000000000000000000
1111111100110110100010101101101000000000000000000000000000000000000000000000000000000000000000000000
1111111010010010011111110111111000000000000000000000000000000000000000000000000000000000000000000000
10010101110011111111110000000000000000000000000000000000000000000000000000000000000000000000
1111111100010011100001101001100000000000000000000000000000000000000000000000000000000000000000000000
10000011111011000110101100000000000000000000000000000000000000000000000000000000000000000000
101000010100110011111111000000000000000000000000000000000000000000000000000000000000000
1111111101101000110001010110011000000000000000000000000000000000000000000000000000000000000000000000
1111111101001001010111110000000000000000000000000000000000000000000000000000000000000000000000000000
1011001110010111111001100000000000000000000000000000000000000000000000000000000000000000000
1111111111101110110111010101001110000000000000000000000000000000000000000000000000000000000000000000
1111111111101110011111100010000110000000000000000000000000000000000000000000000000000000000000000000
100000001100110110010111000000000000000000000000000000000000000000000000000000000000000000000
1111111100111110100011110111111000000000000000000000000000000000000000000000000000000000000000000000
11100110101111011001000000000000000000000000000000000000000000000000000000000000000000000000
1111111100100000011001000001101000000000000000000000000000000000000000000000000000000000000000000000
1111111101010100000101001000101100000000000000000000000000000000000000000000000000000000000000000000
1111111110010111000011110101000100000000000000000000000000000000000000000000000000000000000000000000
11010010000100100110001100000000000000000000000000000000000000000000000000000000000000000000
1010100110010110111111010000000000000000000000000000000000000000000000000000000000000000000
10011100001010001111010000000000000000000000000000000000000000000000000000000000000000000000
1111111101001110100010110000001000000000000000000000000000000000000000000000000000000000000000000000
1111111011101011111001001100010000000000000000000000000000000000000000000000000000000000000000000000
1111111011001101000101001110000000000000000000000000000000000000000000000000000000000000000000000000
11001001100110100010001000000000000000000000000000000000000000000000000000000000000000000000
111010111111011001011001000000000000000000000000000000000000000000000000000000000000000000
100000001110010100010110000000000000000000000000000000000000000000000000000000000000000000000
10010001000001111111000000000000000000000000000000000000000000000000000000000000000000000000
1111111110110101000100000010100100000000000000000000000000000000000000000000000000000000000000000000
1111111110101110110000111010001100000000000000000000000000000000000000000000000000000000000000000000
1111111101110110001000000101001100000000000000000000000000000000000000000000000000000000000000000000
1111111100100011111111100100100100000000000000000000000000000000000000000000000000000000000000000000
110110000011110010010010000000000000000000000000000000000000000000000000000000000000000000
11000101110101010010100100000000000000000000000000000000000000000000000000000000000000000000
1111111100010010101010000110110000000000000000000000000000000000000000000000000000000000000000000000
1111111011110010010100100111001000000000000000000000000000000000000000000000000000000000000000000000
1111111110001011001001000111000110000000000000000000000000000000000000000000000000000000000000000000
101011101011011001000000000000000000000000000000000000000000000000000000000000000000000000
1111111111001011010001101111000100000000000000000000000000000000000000000000000000000000000000000000
1010101111110001101100100000000000000000000000000000000000000000000000000000000000000000000
1110000000001010100010000000000000000000000000000000000000000000000000000000000000000000000
1100011010110010000111000000000000000000000000000000000000000000000000000000000000000000000
1000010110001010111001110000000000000000000000000000000000000000000000000000000000000000000
1111111011100000100011101011010000000000000000000000000000000000000000000000000000000000000000000000
111001000101001001010100000000000000000000000000000000000000000000000000000000000000000000
1100001100010110111100000000000000000000000000000000000000000000000000000000000000000000000
1111111110111110001101100100101110000000000000000000000000000000000000000000000000000000000000000000
1111111100111101110000000001001000000000000000000000000000000000000000000000000000000000000000000000
1111111010011000111101110101101000000000000000000000000000000000000000000000000000000000000000000000
1111111010011101101001110101100000000000000000000000000000000000000000000000000000000000000000000000
1111111011001100100101101000111000000000000000000000000000000000000000000000000000000000000000000000
1111111110000011011100010010100100000000000000000000000000000000000000000000000000000000000000000000
10000010011011001000001100000000000000000000000000000000000000000000000000000000000000000000
1101101011101100001101100000000000000000000000000000000000000000000000000000000000000000000
1111111101110100010001101100111100000000000000000000000000000000000000000000000000000000000000000000
11000110100110101111111100000000000000000000000000000000000000000000000000000000000000000
11111111010110100100010100000000000000000000000000000000000000000000000000000000000000000
1111111111100101111001001110111100100000000000000000000000000000000000000000000000000000000000000000
100001010010101111010001000000000000000000000000000000000000000000000000000000000000000000
1111111010010110010100001111101000000000000000000000000000000000000000000000000000000000000000000000
1111111111100001000110000010010011000000000000000000000000000000000000000000000000000000000000000000
1101101100111100010100010000000000000000000000000000000000000000000000000000000000000000000
1111111100011011011100100101010100000000000000000000000000000000000000000000000000000000000000000000
1111111100100010000100010100000100000000000000000000000000000000000000000000000000000000000000000000
1111111101000111000100000111110100000000000000000000000000000000000000000000000000000000000000000000
110111000100000110110001000000000000000000000000000000000000000000000000000000000000000000
10101110000111010010101000000000000000000000000000000000000000000000000000000000000000000000
1010010100011101001110110000000000000000000000000000000000000000000000000000000000000000000
1110001000000001101001100000000000000000000000000000000000000000000000000000000000000000000
1111111010100011100010001110001000000000000000000000000000000000000000000000000000000000000000000000
1111111110000011110111101010001010000000000000000000000000000000000000000000000000000000000000000000
1111111111011011010010100000110000000000000000000000000000000000000000000000000000000000000000000000
1111111011101101110010101011111000000000000000000000000000000000000000000000000000000000000000000000
1100110110100010000000000000000000000000000000000000000000000000000000000000000000000000000
1111111111110111011011001011110111010000000000000000000000000000000000000000000000000000000000000000
100000101110001101101100000000000000000000000000000000000000000000000000000000000000000000000
1111111011101001100001011011111000000000000000000000000000000000000000000000000000000000000000000000
1111111110110111110011011100011110000000000000000000000000000000000000000000000000000000000000000000
100110011110110000110001000000000000000000000000000000000000000000000000000000000000000000
1111111111011000110001010101101000000000000000000000000000000000000000000000000000000000000000000000
1111111100100100110100001101000000000000000000000000000000000000000000000000000000000000000000000000
10101111110101110110010100000000000000000000000000000000000000000000000000000000000000000000
1111111011001100111110000000110000000000000000000000000000000000000000000000000000000000000000000000
1101011001101000000110100000000000000000000000000000000000000000000000000000000000000000000
1111111011000010000111001001101000000000000000000000000000000000000000000000000000000000000000000000
1111111011001010110111010001010000000000000000000000000000000000000000000000000000000000000000000000
110101111010001110001001000000000000000000000000000000000000000000000000000000000000000
1110011011011101011110010000000000000000000000000000000000000000000000000000000000000000000
1111111011110010001011000011001000000000000000000000000000000000000000000000000000000000000000000000
1111111101100101000001011010101000000000000000000000000000000000000000000000000000000000000000000000
11010010000111110110000000000000000000000000000000000000000000000000000000000000000000000
1111111110100100110100101011111110000000000000000000000000000000000000000000000000000000000000000000
100001100110000001001001000000000000000000000000000000000000000000000000000000000000000000000
11101001111100110001011100000000000000000000000000000000000000000000000000000000000000000000
110011110100101001001011000000000000000000000000000000000000000000000000000000000000000000
1111111011100011100111110100101000000000000000000000000000000000000000000000000000000000000000000000
1111111110010011110010111010000000000000000000000000000000000000000000000000000000000000000000000000
111001100111101101011010000000000000000000000000000000000000000000000000000000000000000000
1111111101011010111100001011111100000000000000000000000000000000000000000000000000000000000000000000
11101111100011100010011000000000000000000000000000000000000000000000000000000000000000000000
10010001010011111010000000000000000000000000000000000000000000000000000000000000000000000000
1111111100000001111011011101110000000000000000000000000000000000000000000000000000000000000000000000
1111111100110101101000100011101000000000000000000000000000000000000000000000000000000000000000000000
1111111101000110110100101100001000000000000000000000000000000000000000000000000000000000000000000000
1111111010001010110110011011100000000000000000000000000000000000000000000000000000000000000000000000
1111111110010001000101001101101110000000000000000000000000000000000000000000000000000000000000000000
1111111010110011110101110011010000000000000000000000000000000000000000000000000000000000000000000000
101010011011110110000110000000000000000000000000000000000000000000000000000000000000000000
1111111100000011110111011011001100000000000000000000000000000000000000000000000000000000000000000000
1111111110010011011100011100000100000000000000000000000000000000000000000000000000000000000000000000
100010100100111000000010000000000000000000000000000000000000000000000000000000000000000000000
1000101100001000100001110000000000000000000000000000000000000000000000000000000000000000
10011100111111110011011100000000000000000000000000000000000000000000000000000000000000000000
11101101010000010100100100000000000000000000000000000000000000000000000000000000000000000000
1111111110100110001111001001111000000000000000000000000000000000000000000000000000000000000000000000
11000000110111000010111100000000000000000000000000000000000000000000000000000000000000000000
1111111111110000111110011001110110000000000000000000000000000000000000000000000000000000000000000000
1111111111000101000101000010110110000000000000000000000000000000000000000000000000000000000000000000
1111111111100100111101010110000110100000000000000000000000000000000000000000000000000000000000000000
1111111100110110101110000110000000000000000000000000000000000000000000000000000000000000000000000000
1111111100101110111010011000000100000000000000000000000000000000000000000000000000000000000000000000
10011010000101110110101000000000000000000000000000000000000000000000000000000000000000000000
10010101001111100000110100000000000000000000000000000000000000000000000000000000000000000000
1111111100000011010001011001100000000000000000000000000000000000000000000000000000000000000000000000
10011111010011011110001100000000000000000000000000000000000000000000000000000000000000000000
1111111010111001001110010001001000000000000000000000000000000000000000000000000000000000000000000000
111000100100101011101010000000000000000000000000000000000000000000000000000000000000000000
101100010100000110111000000000000000000000000000000000000000000000000000000000000000000000
101100010011011100001100000000000000000000000000000000000000000000000000000000000000000000
1111111101011010001010100011001100000000000000000000000000000000000000000000000000000000000000000000
1111111101100010110001001001101100000000000000000000000000000000000000000000000000000000000000000000
1111111110001100110000001101100110000000000000000000000000000000000000000000000000000000000000000000
110110100110010011100010000000000000000000000000000000000000000000000000000000000000000000
1111111110110100100111111111000110000000000000000000000000000000000000000000000000000000000000000000
10110101001001101010010000000000000000000000000000000000000000000000000000000000000000000000
10100001101000010010100100000000000000000000000000000000000000000000000000000000000000000000
1101111111010101000101000000000000000000000000000000000000000000000000000000000000000000000
1111111100110111001011111000010000000000000000000000000000000000000000000000000000000000000000000000
10010101111110001100000100000000000000000000000000000000000000000000000000000000000000000000
1111111101101110110010111110010100000000000000000000000000000000000000000000000000000000000000000000
110000001010111100011000000000000000000000000000000000000000000000000000000000000000000000
1111111100001111110100110111001000000000000000000000000000000000000000000000000000000000000000000000
1111111100001000100000000111110100000000000000000000000000000000000000000000000000000000000000000000
10100110011001001001110100000000000000000000000000000000000000000000000000000000000000000000
10011011100010010001110100000000000000000000000000000000000000000000000000000000000000000000
1111111101110001101011000011110000000000000000000000000000000000000000000000000000000000000000000000
100100001011111010111010000000000000000000000000000000000000000000000000000000000000000000000
1111111101111110000011110110101100000000000000000000000000000000000000000000000000000000000000000000
1111111110110110111110010110111110000000000000000000000000000000000000000000000000000000000000000000
1111111011101100100000110101111000000000000000000000000000000000000000000000000000000000000000000000
1111111010100010010001011010101000000000000000000000000000000000000000000000000000000000000000000000
1111111111001011011111101111000110000000000000000000000000000000000000000000000000000000000000000000
1111111011010110111011001010111000000000000000000000000000000000000000000000000000000000000000000000
10001111110011110101100000000000000000000000000000000000000000000000000000000000000000000000
11101010011100110101111100000000000000000000000000000000000000000000000000000000000000000000
11110110000111011000001100000000000000000000000000000000000000000000000000000000000000000000
11111011000001100111011000000000000000000000000000000000000000000000000000000000000000000000
10010110000001111000101100000000000000000000000000000000000000000000000000000000000000000000
1101100101010100000110000000000000000000000000000000000000000000000000000000000000000000000
1111111010001011001001100100111000000000000000000000000000000000000000000000000000000000000000000000
1111111100001001101010101111010100000000000000000000000000000000000000000000000000000000000000000000
111011010110001001000010000000000000000000000000000000000000000000000000000000000000000000
11011000111000010011101100000000000000000000000000000000000000000000000000000000000000000000
10011000001011101111010000000000000000000000000000000000000000000000000000000000000000000000
1111111100001101010010001011101100000000000000000000000000000000000000000000000000000000000000000000
1111000100100101100010110000000000000000000000000000000000000000000000000000000000000000
1101111010101111111011010000000000000000000000000000000000000000000000000000000000000000000
1111111100111011010001101110010100000000000000000000000000000000000000000000000000000000000000000000
1111111101111000100001010101110100000000000000000000000000000000000000000000000000000000000000000000
1111111100000111010000110000100100000000000000000000000000000000000000000000000000000000000000000000
1100000001001110111100100000000000000000000000000000000000000000000000000000000000000000000
11011011001011110110011000000000000000000000000000000000000000000000000000000000000000000
1011011001001011101011100000000000000000000000000000000000000000000000000000000000000000000
1111111101000100010111110101011100000000000000000000000000000000000000000000000000000000000000000000
1111111010001111100001101011001000000000000000000000000000000000000000000000000000000000000000000000
1111111010010111111010010101000000000000000000000000000000000000000000000000000000000000000000000000
1111111011010000100101111101110000000000000000000000000000000000000000000000000000000000000000000000
1111111101010101000110010111110000000000000000000000000000000000000000000000000000000000000000000000
1111111111001001100011000100110111000000000000000000000000000000000000000000000000000000000000000000
1111111110100111001011101101000010000000000000000000000000000000000000000000000000000000000000000000
100000101000111000010001000000000000000000000000000000000000000000000000000000000000000000000
1111111110100111011011000000110110000000000000000000000000000000000000000000000000000000000000000000
101101101110001100111001000000000000000000000000000000000000000000000000000000000000000000
100000011011111101000110000000000000000000000000000000000000000000000000000000000000000
1111111100001000010010111000000100000000000000000000000000000000000000000000000000000000000000000000
1101010000000011001111110000000000000000000000000000000000000000000000000000000000000000000
1111111011000000011011010001010000000000000000000000000000000000000000000000000000000000000000000000
11000100000100100111000100000000000000000000000000000000000000000000000000000000000000000000
1111111111110000101001000111100111100000000000000000000000000000000000000000000000000000000000000000
1111111100010100111011101001100100000000000000000000000000000000000000000000000000000000000000000000
11000000011110100110111100000000000000000000000000000000000000000000000000000000000000000000
1111111100101100000100111100111000000000000000000000000000000000000000000000000000000000000000000000
1111111010110011100111110001110000000000000000000000000000000000000000000000000000000000000000000000
1111111111100010001111110111101001100000000000000000000000000000000000000000000000000000000000000000
1111111010100000110000110101010000000000000000000000000000000000000000000000000000000000000000000000
1111111011011010101110001101110000000000000000000000000000000000000000000000000000000000000000000000
11010001011100101101000000000000000000000000000000000000000000000000000000000000000000000
1111111010001101110011110001001000000000000000000000000000000000000000000000000000000000000000000000
11100100000000100111111100000000000000000000000000000000000000000000000000000000000000000000
11111001000111001101100000000000000000000000000000000000000000000000000000000000000000000000
1111111011100110000101011001100000000000000000000000000000000000000000000000000000000000000000000000
100100010000111010010111000000000000000000000000000000000000000000000000000000000000000000000
1111111110110001110101101110011010000000000000000000000000000000000000000000000000000000000000000000
1111111101100100111101100101111100000000000000000000000000000000000000000000000000000000000000000000
1111111111111010111001110000111111001000000000000000000000000000000000000000000000000000000000000000
1111111011111110011010101110000000000000000000000000000000000000000000000000000000000000000000000000
100011111110101000000100000000000000000000000000000000000000000000000000000000000000000000000
1111111110101101011110000110011110000000000000000000000000000000000000000000000000000000000000000000
1111111010001011011101101001011000000000000000000000000000000000000000000000000000000000000000000000
11101010001100100110111100000000000000000000000000000000000000000000000000000000000000000000
11110100010010100100110000000000000000000000000000000000000000000000000000000000000000
1111111110011111101101100101111010000000000000000000000000000000000000000000000000000000000000000000
1111111010100000010011101111110000000000000000000000000000000000000000000000000000000000000000000000
10010001101000100111111000000000000000000000000000000000000000000000000000000000000000000000
1111111100001110100000000101010100000000000000000000000000000000000000000000000000000000000000000000
1111111011110010001111111000000000000000000000000000000000000000000000000000000000000000000000000000
1111111111000011011100101100010101000000000000000000000000000000000000000000000000000000000000000000
1111111010101010100001101000101000000000000000000000000000000000000000000000000000000000000000000000
1001010111001001111111110000000000000000000000000000000000000000000000000000000000000000000
11101100001011100101010000000000000000000000000000000000000000000000000000000000000000000000
1010001000001101111110110000000000000000000000000000000000000000000000000000000000000000000
1111111110100010010100000100010100000000000000000000000000000000000000000000000000000000000000000000
11111100001000101111111100000000000000000000000000000000000000000000000000000000000000000000
1111111101010111001000000111001100000000000000000000000000000000000000000000000000000000000000000000
1101111111101100100000000000000000000000000000000000000000000000000000000000000000000000000
1001100111100100101110110000000000000000000000000000000000000000000000000000000000000000000
100011000111111101100100000000000000000000000000000000000000000000000000000000000000000000000
1000011101010101110000000000000000000000000000000000000000000000000000000000000000000000000
1111111101000010010111100111100000000000000000000000000000000000000000000000000000000000000000000000
1111111110011001110011101000011110000000000000000000000000000000000000000000000000000000000000000000
1111111011011110101110001000101000000000000000000000000000000000000000000000000000000000000000000000
1111111110111101110000001111110010000000000000000000000000000000000000000000000000000000000000000000
1111111111000010110011000111110000000000000000000000000000000000000000000000000000000000000000000000
1111111101001111101001101101000000000000000000000000000000000000000000000000000000000000000000000000
100001001000010110000100000000000000000000000000000000000000000000000000000000000000000000
1111111111100011000010001110110000000000000000000000000000000000000000000000000000000000000000000000
11000100001001100010010100000000000000000000000000000000000000000000000000000000000000000
10000001101001010011111100000000000000000000000000000000000000000000000000000000000000000000
10000001100000010110101100000000000000000000000000000000000000000000000000000000000000000000
1000010110101000010001010000000000000000000000000000000000000000000000000000000000000000000
1111111111011101110001001001010101000000000000000000000000000000000000000000000000000000000000000000
1111111011100110001110000000101000000000000000000000000000000000000000000000000000000000000000000000
1101100101000000000010000000000000000000000000000000000000000000000000000000000000000000000
1111111011100101000101100001000000000000000000000000000000000000000000000000000000000000000000000000
1100111000110100011010000000000000000000000000000000000000000000000000000000000000000000000
1110100011110011100100000000000000000000000000000000000000000000000000000000000000000000000
1111111100010001101101100110111000000000000000000000000000000000000000000000000000000000000000000000
1111111110110110001100001101001010000000000000000000000000000000000000000000000000000000000000000000
1111111011101100111111111000001000000000000000000000000000000000000000000000000000000000000000000000
1111111111011111100000001000111011000000000000000000000000000000000000000000000000000000000000000000
1111111011101001011100110110100000000000000000000000000000000000000000000000000000000000000000000000
1111111100001010110000101111011000000000000000000000000000000000000000000000000000000000000000000000
1111111111100101100100001011000110100000000000000000000000000000000000000000000000000000000000000000
1111111010011101110000001001111000000000000000000000000000000000000000000000000000000000000000000000
1111111111000100110111011111011010000000000000000000000000000000000000000000000000000000000000000000
1010000101001101011100110000000000000000000000000000000000000000000000000000000000000000000
100110111111010001011001000000000000000000000000000000000000000000000000000000000000000000
1110000011101000000111100000000000000000000000000000000000000000000000000000000000000000
10111000010010110110111100000000000000000000000000000000000000000000000000000000000000000
1110001001101001110111100000000000000000000000000000000000000000000000000000000000000000000
100011010101010101101010000000000000000000000000000000000000000000000000000000000000000
10011111101110001101010100000000000000000000000000000000000000000000000000000000000000000000
1111111101000101011101111001101100000000000000000000000000000000000000000000000000000000000000000000
1111111011011101100100110001010000000000000000000000000000000000000000000000000000000000000000000000
1111111110000101010100000110011000000000000000000000000000000000000000000000000000000000000000000000
1111111101011011101011000101101100000000000000000000000000000000000000000000000000000000000000000000
11110010100010111110110000000000000000000000000000000000000000000000000000000000000000000000
1101100010010001101100000000000000000000000000000000000000000000000000000000000000000000000
1111111100010100010001000010010000000000000000000000000000000000000000000000000000000000000000000000
1111111101000110100000101000101100000000000000000000000000000000000000000000000000000000000000000000
1111111100111000101000000000101000000000000000000000000000000000000000000000000000000000000000000000
1111111100000100101111111011111000000000000000000000000000000000000000000000000000000000000000000000
111100000101110111100110000000000000000000000000000000000000000000000000000000000000000000
1010010000100010101110100000000000000000000000000000000000000000000000000000000000000000000
10111011001010010101010100000000000000000000000000000000000000000000000000000000000000000000
1111111101000100100010010110101000000000000000000000000000000000000000000000000000000000000000000000
1111111010001110011100110000010000000000000000000000000000000000000000000000000000000000000000000000
10000100101010001000111100000000000000000000000000000000000000000000000000000000000000000
1101100010000010000010010000000000000000000000000000000000000000000000000000000000000000000
100011000010111100011110000000000000000000000000000000000000000000000000000000000000000000
1111111111000010010011001001000101000000000000000000000000000000000000000000000000000000000000000000
1111111011110111100111000110100000000000000000000000000000000000000000000000000000000000000000000000
10001001010110010000110000000000000000000000000000000000000000000000000000000000000000000000
1111111111111000100110111011011110100000000000000000000000000000000000000000000000000000000000000000
1111111010110101101000100011011000000000000000000000000000000000000000000000000000000000000000000000
1111111111101010100110101000000100000000000000000000000000000000000000000000000000000000000000000000
10101001000010101010001100000000000000000000000000000000000000000000000000000000000000000000
10011011011010001000011000000000000000000000000000000000000000000000000000000000000000000000
1111111010011011000110000100100000000000000000000000000000000000000000000000000000000000000000000000
10111000001000100000111000000000000000000000000000000000000000000000000000000000000000000000
11101001110011110111101100000000000000000000000000000000000000000000000000000000000000000000
1111111111110011110111100010010000000000000000000000000000000000000000000000000000000000000000000000
1111111101010111100010101100110000000000000000000000000000000000000000000000000000000000000000000000
10111100011111001011111000000000000000000000000000000000000000000000000000000000000000000000
1111111011011011100000110110110000000000000000000000000000000000000000000000000000000000000000000000
10011110111101100001111100000000000000000000000000000000000000000000000000000000000000000000
1111111100010011100010011110100000000000000000000000000000000000000000000000000000000000000000000000
1001110110100011110011010000000000000000000000000000000000000000000000000000000000000000000
1111111110000001110011000011101010000000000000000000000000000000000000000000000000000000000000000000
100001100011000100110000000000000000000000000000000000000000000000000000000000000000000000000
10101001000010100011101000000000000000000000000000000000000000000000000000000000000000000000
1111111100000111011011101101111100000000000000000000000000000000000000000000000000000000000000000000
1111111110010111111010111100110000000000000000000000000000000000000000000000000000000000000000000000
1111111111011101111110100111011101000000000000000000000000000000000000000000000000000000000000000000
1111111110011101010011001110110110000000000000000000000000000000000000000000000000000000000000000000
1111111101111001110000000111110100000000000000000000000000000000000000000000000000000000000000000000
1111111111100101110001000110101101100000000000000000000000000000000000000000000000000000000000000000
1111111101000111111010010110110000000000000000000000000000000000000000000000000000000000000000000000
100000010110101011100100000000000000000000000000000000000000000000000000000000000000000000000
11110111011001010111001000000000000000000000000000000000000000000000000000000000000000000000
10010110111011100001111100000000000000000000000000000000000000000000000000000000000000000000
11001000000110111111101100000000000000000000000000000000000000000000000000000000000000000000
1111111111100001111100101001111111100000000000000000000000000000000000000000000000000000000000000000
1111111011110111011100001010101000000000000000000000000000000000000000000000000000000000000000000000
1111111110010100010111101011011100000000000000000000000000000000000000000000000000000000000000000000
1111111101110000101000011000111100000000000000000000000000000000000000000000000000000000000000000000
1101010100111110000000010000000000000000000000000000000000000000000000000000000000000000000
11110110111000011011111000000000000000000000000000000000000000000000000000000000000000000
1111111010011110001101111101100000000000000000000000000000000000000000000000000000000000000000000000
1111111100110100001110000110110100000000000000000000000000000000000000000000000000000000000000000000
1000000011001100111001010000000000000000000000000000000000000000000000000000000000000000000
100001101010110000111100000000000000000000000000000000000000000000000000000000000000000000000
11001110101101010100101000000000000000000000000000000000000000000000000000000000000000000000
1111111011110101111010001101001000000000000000000000000000000000000000000000000000000000000000000000
10000100101011100010011100000000000000000000000000000000000000000000000000000000000000000000
1111111010100110001100000100000000000000000000000000000000000000000000000000000000000000000000000000
10110011100010111101100100000000000000000000000000000000000000000000000000000000000000000000
1111111111100000001010111001011001000000000000000000000000000000000000000000000000000000000000000000
11000101010100111110001000000000000000000000000000000000000000000000000000000000000000000000
10001111010110100000011000000000000000000000000000000000000000000000000000000000000000000000
10111110100000110110111000000000000000000000000000000000000000000000000000000000000000000
1111111111110000011011100110010001110000000000000000000000000000000000000000000000000000000000000000
100001001111011010111100000000000000000000000000000000000000000000000000000000000000000000000
100000111101100010101111000000000000000000000000000000000000000000000000000000000000000000
100011110111111111010000000000000000000000000000000000000000000000000000000000000000000000
1111111111100010011110000011111011100000000000000000000000000000000000000000000000000000000000000000
1010010010001010110101100000000000000000000000000000000000000000000000000000000000000000
1111111111110100010110000111000000010000000000000000000000000000000000000000000000000000000000000000
1111111011010101101111110000111000000000000000000000000000000000000000000000000000000000000000000000
1111111110011110000101100101011000000000000000000000000000000000000000000000000000000000000000000000
1111111100110010100010100111010100000000000000000000000000000000000000000000000000000000000000000000
1111111011101011001110000010110000000000000000000000000000000000000000000000000000000000000000000000
1111111110100110110011001010001110000000000000000000000000000000000000000000000000000000000000000000
1111111110110001000100101001111100000000000000000000000000000000000000000000000000000000000000000000
1111111100001011011011000001100000000000000000000000000000000000000000000000000000000000000000000000
100101010001110111000011000000000000000000000000000000000000000000000000000000000000000000
1111111010111100111101110111000000000000000000000000000000000000000000000000000000000000000000000000
1111111100111001010101111011001100000000000000000000000000000000000000000000000000000000000000000000
1111111110010011111100001011100110000000000000000000000000000000000000000000000000000000000000000000
1111111101010110001011101010101000000000000000000000000000000000000000000000000000000000000000000000
10110011110111000111101000000000000000000000000000000000000000000000000000000000000000000000
1100111100110110011100100000000000000000000000000000000000000000000000000000000000000000000
11100010000111010100001000000000000000000000000000000000000000000000000000000000000000000000
1111111100010110010010101000010000000000000000000000000000000000000000000000000000000000000000000000
1010000001001100001010000000000000000000000000000000000000000000000000000000000000000000000
1111111011110010101111100001010000000000000000000000000000000000000000000000000000000000000000000000
11110010101001000101010100000000000000000000000000000000000000000000000000000000000000000000
100010100011001001011111000000000000000000000000000000000000000000000000000000000000000000000
1111111011100101001001010010100000000000000000000000000000000000000000000000000000000000000000000000
1111111110101010001010101111000010000000000000000000000000000000000000000000000000000000000000000000
1111111101101000011011011000000100000000000000000000000000000000000000000000000000000000000000000000
1010111101100000001001010000000000000000000000000000000000000000000000000000000000000000000
1111111010010111011001000001000000000000000000000000000000000000000000000000000000000000000000000000
1111111111000111010000000001100010000000000000000000000000000000000000000000000000000000000000000000
1111111101111100110110101101110100000000000000000000000000000000000000000000000000000000000000000000
111110011010111001111100000000000000000000000000000000000000000000000000000000000000000000
1111111100100010011100101101001000000000000000000000000000000000000000000000000000000000000000000000
1111111011111010010001101110111000000000000000000000000000000000000000000000000000000000000000000000
101111110011011001100001000000000000000000000000000000000000000000000000000000000000000000
1111111100101110100101111101110100000000000000000000000000000000000000000000000000000000000000000000
1111111100101110011011100101001100000000000000000000000000000000000000000000000000000000000000000000
1111111010010001100111000000001000000000000000000000000000000000000000000000000000000000000000000000
11011011100111111110000000000000000000000000000000000000000000000000000000000000000000000000
1111000100001110111011110000000000000000000000000000000000000000000000000000000000000000000
11100101100100100000111000000000000000000000000000000000000000000000000000000000000000000000
1111111101000000011010001011110100000000000000000000000000000000000000000000000000000000000000000000
11100001000011111111010000000000000000000000000000000000000000000000000000000000000000000000
10010011110110000101110100000000000000000000000000000000000000000000000000000000000000000000
