1111111011101010010101011110010000000000000000000000000000000000000000000000000000000000000000000000
1111111110110111010010100001010000000000000000000000000000000000000000000000000000000000000000000000
1111100111100111100111110000000000000000000000000000000000000000000000000000000000000000000
1101011101110001111010010000000000000000000000000000000000000000000000000000000000000000000
1100100000011111010001100000000000000000000000000000000000000000000000000000000000000000000
1111111100000101000001100111000000000000000000000000000000000000000000000000000000000000000000000000
1111111110101110000100010111011000000000000000000000000000000000000000000000000000000000000000000000
10100100011001110010100000000000000000000000000000000000000000000000000000000000000000000000
1111111011000110100111101011101000000000000000000000000000000000000000000000000000000000000000000000
100011110101101001001101000000000000000000000000000000000000000000000000000000000000000000000
1110001101001010011111110000000000000000000000000000000000000000000000000000000000000000000
1111111100110101100010000000011000000000000000000000000000000000000000000000000000000000000000000000
10000011000101111000111000000000000000000000000000000000000000000000000000000000000000000000
1111111101111010100111011011111100000000000000000000000000000000000000000000000000000000000000000000
1111111110101001001011011001100100000000000000000000000000000000000000000000000000000000000000000000
110010111101011011110111000000000000000000000000000000000000000000000000000000000000000000
1111111111101000000111111000110110000000000000000000000000000000000000000000000000000000000000000000
1111111110001111000011111100011000000000000000000000000000000000000000000000000000000000000000000000
1111111010100000000010001000111000000000000000000000000000000000000000000000000000000000000000000000
11001110101110011110110100000000000000000000000000000000000000000000000000000000000000000000
1111111011001101111011111100000000000000000000000000000000000000000000000000000000000000000000000000
100011101111011011011000000000000000000000000000000000000000000000000000000000000000000000000
10001000111100100010001000000000000000000000000000000000000000000000000000000000000000000000
100011100010100111001001000000000000000000000000000000000000000000000000000000000000000000000
10110011100000111110011000000000000000000000000000000000000000000000000000000000000000000000
1111111110010001010001000010111100000000000000000000000000000000000000000000000000000000000000000000
11100011100011010101111100000000000000000000000000000000000000000000000000000000000000000
11000101011101111110010100000000000000000000000000000000000000000000000000000000000000000000
1111111110100110011101101111100110000000000000000000000000000000000000000000000000000000000000000000
1111111100110110101011110101000100000000000000000000000000000000000000000000000000000000000000000000
1111111100100001111000101000101000000000000000000000000000000000000000000000000000000000000000000000
1111111010100010101111000011101000000000000000000000000000000000000000000000000000000000000000000000
10100110101000001101100000000000000000000000000000000000000000000000000000000000000000
1111111111100101101101110001011101000000000000000000000000000000000000000000000000000000000000000000
10001001110011000011110000000000000000000000000000000000000000000000000000000000000000000000
1111111011111000110110111110110000000000000000000000000000000000000000000000000000000000000000000000
110101011110000011100010000000000000000000000000000000000000000000000000000000000000000000
1111111010011110110000001111101000000000000000000000000000000000000000000000000000000000000000000000
1111111110001010111111101001101000000000000000000000000000000000000000000000000000000000000000000000
11100110011110010110111000000000000000000000000000000000000000000000000000000000000000000000
11000101110100001001111000000000000000000000000000000000000000000000000000000000000000000000
11001010100010110100011100000000000000000000000000000000000000000000000000000000000000000000
1111111101100011000100110100000000000000000000000000000000000000000000000000000000000000000000000000
1111111110010001111111011111111010000000000000000000000000000000000000000000000000000000000000000000
1101110100011101100111110000000000000000000000000000000000000000000000000000000000000000000
11011101111100011110011100000000000000000000000000000000000000000000000000000000000000000000
100101110000101100001110000000000000000000000000000000000000000000000000000000000000000000
1111111101101101110000011011001100000000000000000000000000000000000000000000000000000000000000000000
1111111101110011100101001011100100000000000000000000000000000000000000000000000000000000000000000000
1111111111110111110101111010001100010000000000000000000000000000000000000000000000000000000000000000
11000101011011011010101000000000000000000000000000000000000000000000000000000000000000000000
1111111010101110111101010100010000000000000000000000000000000000000000000000000000000000000000000000
10111101110100111001111100000000000000000000000000000000000000000000000000000000000000000000
1111111110011000100011101100101010000000000000000000000000000000000000000000000000000000000000000000
1111111010011100011100111010001000000000000000000000000000000000000000000000000000000000000000000000
1111111101001101100101101001010000000000000000000000000000000000000000000000000000000000000000000000
100000110110111011100011000000000000000000000000000000000000000000000000000000000000000000
1111111101000000101011010101111100000000000000000000000000000000000000000000000000000000000000000000
1111111100111011000001101111111100000000000000000000000000000000000000000000000000000000000000000000
1001000100000010100010000000000000000000000000000000000000000000000000000000000000000000000
1111111101000100000110011101110100000000000000000000000000000000000000000000000000000000000000000000
11010100011011011000001100000000000000000000000000000000000000000000000000000000000000000
1111111111010111001101111100011010000000000000000000000000000000000000000000000000000000000000000000
1111111111000100000001010010000110000000000000000000000000000000000000000000000000000000000000000000
100010011101110000111110000000000000000000000000000000000000000000000000000000000000000000000
1111111100001110100101110110001100000000000000000000000000000000000000000000000000000000000000000000
1111111101110011011110010010100000000000000000000000000000000000000000000000000000000000000000000000
1111111011001111001011111101011000000000000000000000000000000000000000000000000000000000000000000000
1111000011001111000110010000000000000000000000000000000000000000000000000000000000000000000
1001011011111100010111100000000000000000000000000000000000000000000000000000000000000000000
1111111010110001001111101010001000000000000000000000000000000000000000000000000000000000000000000000
1111111101010000101010101111100100000000000000000000000000000000000000000000000000000000000000000000
1111111100101001100011100001101100000000000000000000000000000000000000000000000000000000000000000000
1111111111111110110011011110000101010010000000000000000000000000000000000000000000000000000000000000
1011010010101101110010110000000000000000000000000000000000000000000000000000000000000000000
11011111100000101011110100000000000000000000000000000000000000000000000000000000000000000
1011101101101100010111100000000000000000000000000000000000000000000000000000000000000000000
1111111100101000000110101001100000000000000000000000000000000000000000000000000000000000000000000000
1111111010010101000101010001001000000000000000000000000000000000000000000000000000000000000000000000
1111111011011000101000101011011000000000000000000000000000000000000000000000000000000000000000000000
1111111111000100110100001110001110000000000000000000000000000000000000000000000000000000000000000000
11111111111000100100100000000000000000000000000000000000000000000000000000000000000000000000
1111111011100010000110011010111000000000000000000000000000000000000000000000000000000000000000000000
1111111100001001000011001011010000000000000000000000000000000000000000000000000000000000000000000000
1111111100110010011010110000000000000000000000000000000000000000000000000000000000000000000
1010111000010111101000010000000000000000000000000000000000000000000000000000000000000000
1111111100001110100011010101111100000000000000000000000000000000000000000000000000000000000000000000
1111111111100101100101011110001111000000000000000000000000000000000000000000000000000000000000000000
11100011010010110100100100000000000000000000000000000000000000000000000000000000000000000000
101101011000001000001011000000000000000000000000000000000000000000000000000000000000000000
100001001000110101111101000000000000000000000000000000000000000000000000000000000000000000000
1111111011111101101000011001011000000000000000000000000000000000000000000000000000000000000000000000
1111111101011101001100101110100000000000000000000000000000000000000000000000000000000000000000000000
1111111111110001010000111110110001100000000000000000000000000000000000000000000000000000000000000000
1111111011110110010110100101101000000000000000000000000000000000000000000000000000000000000000000000
11110110111100001000110000000000000000000000000000000000000000000000000000000000000000000000
100010100011000111110011000000000000000000000000000000000000000000000000000000000000000000000
1111111011110010101110011101111000000000000000000000000000000000000000000000000000000000000000000000
1111111101001101011100010011111100000000000000000000000000000000000000000000000000000000000000000000
11110111010010110000000100000000000000000000000000000000000000000000000000000000000000000000
1111111011110011110110000010100000000000000000000000000000000000000000000000000000000000000000000000
1111111110101110111010111011000000000000000000000000000000000000000000000000000000000000000000000000
1111111110111000110111101011111010000000000000000000000000000000000000000000000000000000000000000000
1111111101101111011011001000101000000000000000000000000000000000000000000000000000000000000000000000
1111111101100101110110110011001000000000000000000000000000000000000000000000000000000000000000000000
11001101010101101000111100000000000000000000000000000000000000000000000000000000000000000000
1111111101011101011110000100101000000000000000000000000000000000000000000000000000000000000000000000
1111111110001001010111011000000010000000000000000000000000000000000000000000000000000000000000000000
10011111000111110100101100000000000000000000000000000000000000000000000000000000000000000
1000111101100000100000100000000000000000000000000000000000000000000000000000000000000000000
1111111010111010011100010100000000000000000000000000000000000000000000000000000000000000000000000000
1000000000100000101110100000000000000000000000000000000000000000000000000000000000000000000
1111111100110101100010100101000100000000000000000000000000000000000000000000000000000000000000000000
11100011010110010001010000000000000000000000000000000000000000000000000000000000000000000000
11110000011010111010101000000000000000000000000000000000000000000000000000000000000000000000
1111111101010110101100000010100000000000000000000000000000000000000000000000000000000000000000000000
1111111100001110100101100100110100000000000000000000000000000000000000000000000000000000000000000000
1111111101100101100001100100011000000000000000000000000000000000000000000000000000000000000000000000
100011010011010100010010000000000000000000000000000000000000000000000000000000000000000000000
11101101000110111111000100000000000000000000000000000000000000000000000000000000000000000
1111111101110001010100000100100000000000000000000000000000000000000000000000000000000000000000000000
11111111111111111111111000000000000000000000000000000000000000000000000000000000000000
1111111111110101101111100101010000010000000000000000000000000000000000000000000000000000000000000000
11111001101110101001010000000000000000000000000000000000000000000000000000000000000000000
1111111010110101100110011111001000000000000000000000000000000000000000000000000000000000000000000000
1111111100001100000111000000001000000000000000000000000000000000000000000000000000000000000000000000
1111111101011111111000101000000100000000000000000000000000000000000000000000000000000000000000000000
10100110000000100110000100000000000000000000000000000000000000000000000000000000000000000000
100000101000011111101100000000000000000000000000000000000000000000000000000000000000000000000
1111111011110101100011111110011000000000000000000000000000000000000000000000000000000000000000000000
1111111100011110101001100011100100000000000000000000000000000000000000000000000000000000000000000000
110010011010010101100111000000000000000000000000000000000000000000000000000000000000000000
1111111101111010100101001000011000000000000000000000000000000000000000000000000000000000000000000000
1111111010101011011100011110000000000000000000000000000000000000000000000000000000000000000000000000
1111111101101011110001111010000000000000000000000000000000000000000000000000000000000000000000000000
111010110110111000111110000000000000000000000000000000000000000000000000000000000000000000
1110110110000111001101110000000000000000000000000000000000000000000000000000000000000000000
10000101101100000111100100000000000000000000000000000000000000000000000000000000000000000
11110011000110001111110000000000000000000000000000000000000000000000000000000000000
1111111101001110000100100001101100000000000000000000000000000000000000000000000000000000000000000000
11100001010101000000011000000000000000000000000000000000000000000000000000000000000000000000
1111111111111010011010011101101110100000000000000000000000000000000000000000000000000000000000000000
11011100001011011000011000000000000000000000000000000000000000000000000000000000000000000
1100001111011000111110110000000000000000000000000000000000000000000000000000000000000000000
1111111010101101110101010001011000000000000000000000000000000000000000000000000000000000000000000000
1111111101010010100001111001011000000000000000000000000000000000000000000000000000000000000000000000
1111111011111110010000100100001000000000000000000000000000000000000000000000000000000000000000000000
1111111110111110010111000010011110000000000000000000000000000000000000000000000000000000000000000000
1100001100111001100110000000000000000000000000000000000000000000000000000000000000000000000
1111111011011111001110100011111000000000000000000000000000000000000000000000000000000000000000000000
1111111010011100000110110001000000000000000000000000000000000000000000000000000000000000000000000000
1111111011000110001101110000100000000000000000000000000000000000000000000000000000000000000000000000
1101001001000100010010000000000000000000000000000000000000000000000000000000000000000000000
10000000100000001110101000000000000000000000000000000000000000000000000000000000000000000000
10101101010000001010000100000000000000000000000000000000000000000000000000000000000000000000
1111111110111101100000011110111000000000000000000000000000000000000000000000000000000000000000000000
100010010110110000010001000000000000000000000000000000000000000000000000000000000000000000000
11000101100101110010100000000000000000000000000000000000000000000000000000000000000000000000
1111111101111110000101001101001100000000000000000000000000000000000000000000000000000000000000000000
1111111101000010011011101011110100000000000000000000000000000000000000000000000000000000000000000000
1111111110001110010000001011111010000000000000000000000000000000000000000000000000000000000000000000
10101101000011100011010000000000000000000000000000000000000000000000000000000000000000000000
1111111100001011100010111110101000000000000000000000000000000000000000000000000000000000000000000000
1111111100001001001011100101100000000000000000000000000000000000000000000000000000000000000000000000
100100010000100100110110000000000000000000000000000000000000000000000000000000000000000000000
11010000011111011001110100000000000000000000000000000000000000000000000000000000000000000000
1111111111111110111000010001010001011110000000000000000000000000000000000000000000000000000000000000
1111111111000111100110110110011010000000000000000000000000000000000000000000000000000000000000000000
1111111100011010011000100000011000000000000000000000000000000000000000000000000000000000000000000000
1000110000011110010111100000000000000000000000000000000000000000000000000000000000000000000
1111111111010011001010010110000100000000000000000000000000000000000000000000000000000000000000000000
1101000010000110001001110000000000000000000000000000000000000000000000000000000000000000000
1111111101010110111110110101011100000000000000000000000000000000000000000000000000000000000000000000
1111111111001100101010000110110011000000000000000000000000000000000000000000000000000000000000000000
1111111010110101111100001110000000000000000000000000000000000000000000000000000000000000000000000000
1111111100100100001100000110110100000000000000000000000000000000000000000000000000000000000000000000
1111111101110111100010111101100000000000000000000000000000000000000000000000000000000000000000000000
1111111100001001111010011000101100000000000000000000000000000000000000000000000000000000000000000000
1111111110110010110011010010110100000000000000000000000000000000000000000000000000000000000000000000
1111111111011011100110110010111111000000000000000000000000000000000000000000000000000000000000000000
1111111101101111010110001000110000000000000000000000000000000000000000000000000000000000000000000000
1100111001111001101100010000000000000000000000000000000000000000000000000000000000000000000
1111100100101010000100010000000000000000000000000000000000000000000000000000000000000000000
1111111100100111001010001011101100000000000000000000000000000000000000000000000000000000000000000000
11001001111011011011011000000000000000000000000000000000000000000000000000000000000000000000
1111111110100100110000111001110110000000000000000000000000000000000000000000000000000000000000000000
1111111110110000011110100110010010000000000000000000000000000000000000000000000000000000000000000000
100001110010001010100110000000000000000000000000000000000000000000000000000000000000000000000
11100010111100000001110000000000000000000000000000000000000000000000000000000000000000000000
1111111110101001000000000010000010000000000000000000000000000000000000000000000000000000000000000000
1111111110010001111000101110100100000000000000000000000000000000000000000000000000000000000000000000
1111111011010000001100011010011000000000000000000000000000000000000000000000000000000000000000000000
1111111011100001110110011011010000000000000000000000000000000000000000000000000000000000000000000000
1111111011010011001011010111110000000000000000000000000000000000000000000000000000000000000000000000
1111111010011000101110011111011000000000000000000000000000000000000000000000000000000000000000000000
1111111110011010101100110101010010000000000000000000000000000000000000000000000000000000000000000000
100011000010001000011100000000000000000000000000000000000000000000000000000000000000000000
111010010101100000101101000000000000000000000000000000000000000000000000000000000000000000
110110010011110110110101000000000000000000000000000000000000000000000000000000000000000000
1111111111001111000111111110010011000000000000000000000000000000000000000000000000000000000000000000
11110111010001000011010000000000000000000000000000000000000000000000000000000000000000000000
1111111111000001111010001101110001000000000000000000000000000000000000000000000000000000000000000000
100011111001110000111100000000000000000000000000000000000000000000000000000000000000000000000
1111111010011100100001010111011000000000000000000000000000000000000000000000000000000000000000000000
1100100101001000111100100000000000000000000000000000000000000000000000000000000000000000
111111001110000001100000000000000000000000000000000000000000000000000000000000000000000000
10111010001100100000010100000000000000000000000000000000000000000000000000000000000000000000
11010111110100111011100000000000000000000000000000000000000000000000000000000000000000000000
1111111100011001010000000100110100000000000000000000000000000000000000000000000000000000000000000000
1111111011001110010001010010011000000000000000000000000000000000000000000000000000000000000000000000
1111111100101101010100100011010100000000000000000000000000000000000000000000000000000000000000000000
11001100000001101011111000000000000000000000000000000000000000000000000000000000000000000000
1100110100111010101100100000000000000000000000000000000000000000000000000000000000000000000
1111111110110111000111010110011110000000000000000000000000000000000000000000000000000000000000000000
100001000010101001010111000000000000000000000000000000000000000000000000000000000000000000000
1111111110100011011101110110111100000000000000000000000000000000000000000000000000000000000000000000
11000111000111010011001100000000000000000000000000000000000000000000000000000000000000000000
1111111100000011111111010110100000000000000000000000000000000000000000000000000000000000000000000000
1111111111011101111110101111001100000000000000000000000000000000000000000000000000000000000000000000
1111110011111011010101110000000000000000000000000000000000000000000000000000000000000000000
1111111111010000111011010111001101000000000000000000000000000000000000000000000000000000000000000000
11000111101001010010001000000000000000000000000000000000000000000000000000000000000000000000
1111111110100000010100101100001000000000000000000000000000000000000000000000000000000000000000000000
1100010010101101001111110000000000000000000000000000000000000000000000000000000000000000000
11111100010111011010111100000000000000000000000000000000000000000000000000000000000000000000
10100010010111100010111100000000000000000000000000000000000000000000000000000000000000000000
1111111101111010000100101110100000000000000000000000000000000000000000000000000000000000000000000000
1111111010010011000100000010010000000000000000000000000000000000000000000000000000000000000000000000
10110111101100001001100100000000000000000000000000000000000000000000000000000000000000000000
11010111110111001011000100000000000000000000000000000000000000000000000000000000000000000000
11011100011101110110101100000000000000000000000000000000000000000000000000000000000000
1111111101011111001010010000000000000000000000000000000000000000000000000000000000000000000000000000
1101001010000001010001110000000000000000000000000000000000000000000000000000000000000000000
10001001011000111010111100000000000000000000000000000000000000000000000000000000000000000000
10111100100101101100001100000000000000000000000000000000000000000000000000000000000000000000
1111111101011101010101111110010000000000000000000000000000000000000000000000000000000000000000000000
1111111011011000000000110011000000000000000000000000000000000000000000000000000000000000000000000000
10001100111010101111011100000000000000000000000000000000000000000000000000000000000000000000
11011010011100110111001000000000000000000000000000000000000000000000000000000000000000000000
10011100010010011000000000000000000000000000000000000000000000000000000000000000000000000000
1111111100010111000011100101011100000000000000000000000000000000000000000000000000000000000000000000
1111111100101000111011000010000000000000000000000000000000000000000000000000000000000000000000000000
111001100101110010110100000000000000000000000000000000000000000000000000000000000000000
11110010110000010100000100000000000000000000000000000000000000000000000000000000000000000000
1111111110000100011101110000101110000000000000000000000000000000000000000000000000000000000000000000
111111000101111000011100000000000000000000000000000000000000000000000000000000000000000000
1111111110010001111110011011100010000000000000000000000000000000000000000000000000000000000000000000
1101001101011100011101100000000000000000000000000000000000000000000000000000000000000000
1111111011110100001001010100101000000000000000000000000000000000000000000000000000000000000000000000
1111111101110110111000101110101100000000000000000000000000000000000000000000000000000000000000000000
1111111010110011110111000100110000000000000000000000000000000000000000000000000000000000000000000000
1111111010011000110010101101111000000000000000000000000000000000000000000000000000000000000000000000
1111111101101010111000111000000000000000000000000000000000000000000000000000000000000000000000000000
1001010111001001100101000000000000000000000000000000000000000000000000000000000000000000000
1111111111011010001110000000110110000000000000000000000000000000000000000000000000000000000000000000
1111111111100001101111011000000011000000000000000000000000000000000000000000000000000000000000000000
1101110110110010101100010000000000000000000000000000000000000000000000000000000000000000000
1111111111101010001001100100010100100000000000000000000000000000000000000000000000000000000000000000
10011000000101101101000100000000000000000000000000000000000000000000000000000000000000000000
1111111101110111010000110000010000000000000000000000000000000000000000000000000000000000000000000000
1111111101100100010000111111111000000000000000000000000000000000000000000000000000000000000000000000
1111111011001000000001100110111000000000000000000000000000000000000000000000000000000000000000000000
1111111101110011101111000101100000000000000000000000000000000000000000000000000000000000000000000000
1111111010100100000111110011001000000000000000000000000000000000000000000000000000000000000000000000
11101011111000101100011100000000000000000000000000000000000000000000000000000000000000000000
11101010011000001100100000000000000000000000000000000000000000000000000000000000000000000000
1111111111010001011111111000101101000000000000000000000000000000000000000000000000000000000000000000
1111111111010111000001010110110111000000000000000000000000000000000000000000000000000000000000000000
1111111100110001011010001010110000000000000000000000000000000000000000000000000000000000000000000000
100001110010111001000000000000000000000000000000000000000000000000000000000000000000000000000
1111111101001110110011110101011100000000000000000000000000000000000000000000000000000000000000000000
10110010100000000111001000000000000000000000000000000000000000000000000000000000000000000000
1111111010010111111001001011111000000000000000000000000000000000000000000000000000000000000000000000
1111111010111100111101110000010000000000000000000000000000000000000000000000000000000000000000000000
1111111110100100011101110101110010000000000000000000000000000000000000000000000000000000000000000000
1111111010100000011001010100111000000000000000000000000000000000000000000000000000000000000000000000
1111111101110010001111001101101000000000000000000000000000000000000000000000000000000000000000000000
1011100100000010100000010000000000000000000000000000000000000000000000000000000000000000000
1111111101001001111010010011100000000000000000000000000000000000000000000000000000000000000000000000
1111111010110101000110110000101000000000000000000000000000000000000000000000000000000000000000000000
1111111111111110111101111000000001001110000000000000000000000000000000000000000000000000000000000000
11111101000001000001011000000000000000000000000000000000000000000000000000000000000000000000
1111111011000101110011001100111000000000000000000000000000000000000000000000000000000000000000000000
10000111100111100011101100000000000000000000000000000000000000000000000000000000000000000000
1000010010011110011100110000000000000000000000000000000000000000000000000000000000000000000
1111111111100111101010101110100011000000000000000000000000000000000000000000000000000000000000000000
1111111101110111010111000101110000000000000000000000000000000000000000000000000000000000000000000000
1010011111101111010100100000000000000000000000000000000000000000000000000000000000000000000
1101001100010001000001100000000000000000000000000000000000000000000000000000000000000000000
1100110100011001101110000000000000000000000000000000000000000000000000000000000000000000000
11001001110000001010010000000000000000000000000000000000000000000000000000000000000000000000
1111111111100000011010101010101110100000000000000000000000000000000000000000000000000000000000000000
10110000000110100010110000000000000000000000000000000000000000000000000000000000000000000000
100010000111111100100100000000000000000000000000000000000000000000000000000000000000000000000
1111111111001110010000101101001101000000000000000000000000000000000000000000000000000000000000000000
10010001000101000100100000000000000000000000000000000000000000000000000000000000000000000000
1111111010111010011111000101001000000000000000000000000000000000000000000000000000000000000000000000
1111111011101000001100011010110000000000000000000000000000000000000000000000000000000000000000000000
1111111100000111000110001010000100000000000000000000000000000000000000000000000000000000000000000000
10011001111100000111101000000000000000000000000000000000000000000000000000000000000000000000
100110111101101111100111000000000000000000000000000000000000000000000000000000000000000000
100001100011011010011100000000000000000000000000000000000000000000000000000000000000000000
1101100011101000000011010000000000000000000000000000000000000000000000000000000000000000000
10100000000011101101111100000000000000000000000000000000000000000000000000000000000000000000
1111111101110000001001010011001100000000000000000000000000000000000000000000000000000000000000000000
1111110001101101011101010000000000000000000000000000000000000000000000000000000000000000
1111111010100010101110100000010000000000000000000000000000000000000000000000000000000000000000000000
10101111011101110011001100000000000000000000000000000000000000000000000000000000000000000000
1111111011011101011001100110001000000000000000000000000000000000000000000000000000000000000000000000
1111111101100110100101101100100100000000000000000000000000000000000000000000000000000000000000000000
11011101110111100101110000000000000000000000000000000000000000000000000000000000000000000000
100001111011100101111001000000000000000000000000000000000000000000000000000000000000000000000
11111111111100110111100100000000000000000000000000000000000000000000000000000000000000000000
11000100110101010111011100000000000000000000000000000000000000000000000000000000000000000000
1111111101110011101110110010110000000000000000000000000000000000000000000000000000000000000000000000
1111111110000011010001101110100110000000000000000000000000000000000000000000000000000000000000000000
1111111011110110000010010000101000000000000000000000000000000000000000000000000000000000000000000000
1111111111110100011000011110000000000000000000000000000000000000000000000000000000000000000000000000
1111111010010011001100110101001000000000000000000000000000000000000000000000000000000000000000000000
1001111100001100110001110000000000000000000000000000000000000000000000000000000000000000000
1111111110011100100111110010110000000000000000000000000000000000000000000000000000000000000000000000
1011011111100001001101010000000000000000000000000000000000000000000000000000000000000000000
1111111010011100001101000000011000000000000000000000000000000000000000000000000000000000000000000000
1111111101100001010010111101110100000000000000000000000000000000000000000000000000000000000000000000
1111111111100100110110110000011110000000000000000000000000000000000000000000000000000000000000000000
1111111011111111100100101100110000000000000000000000000000000000000000000000000000000000000000000000
100000011110100101001101000000000000000000000000000000000000000000000000000000000000000000000
1111111110010010000011100100110100000000000000000000000000000000000000000000000000000000000000000000
100011100001001111100110000000000000000000000000000000000000000000000000000000000000000000000
1111111100111111010011001111001000000000000000000000000000000000000000000000000000000000000000000000
1001010101100010101110010000000000000000000000000000000000000000000000000000000000000000000
1111111101110110101000001000011000000000000000000000000000000000000000000000000000000000000000000000
1111111110101101001001101001101000000000000000000000000000000000000000000000000000000000000000000000
1111111111011011111101111001001010000000000000000000000000000000000000000000000000000000000000000000
1111111100101110110011110000000000000000000000000000000000000000000000000000000000000000000000000000
11101000011100010100000100000000000000000000000000000000000000000000000000000000000000000000
1111111010101011001111000111100000000000000000000000000000000000000000000000000000000000000000000000
1111010001101010100010000000000000000000000000000000000000000000000000000000000000000000
1111111110010110101000111100110110000000000000000000000000000000000000000000000000000000000000000000
110111010100010010110001000000000000000000000000000000000000000000000000000000000000000000
1111111111010111011110011101100010000000000000000000000000000000000000000000000000000000000000000000
10111000100000010001001000000000000000000000000000000000000000000000000000000000000000000000
10010100001001000010011100000000000000000000000000000000000000000000000000000000000000000000
1111111110111111110011001000101010000000000000000000000000000000000000000000000000000000000000000000
1111111011101111000100001011100000000000000000000000000000000000000000000000000000000000000000000000
1111111111000100011111110100101001000000000000000000000000000000000000000000000000000000000000000000
1111111011101110111011101111111000000000000000000000000000000000000000000000000000000000000000000000
1011100100110010010000010000000000000000000000000000000000000000000000000000000000000000000
10011000110100001000111100000000000000000000000000000000000000000000000000000000000000000000
1111111111001001000010110110000001000000000000000000000000000000000000000000000000000000000000000000
1111111110010000111000110101101010000000000000000000000000000000000000000000000000000000000000000000
10011110110100111100100000000000000000000000000000000000000000000000000000000000000000000
10000111100011001100101000000000000000000000000000000000000000000000000000000000000000000000
1111111011001101100010111110001000000000000000000000000000000000000000000000000000000000000000000000
1111111111111001101000001100100011110000000000000000000000000000000000000000000000000000000000000000
1111111110110111000101101100110000000000000000000000000000000000000000000000000000000000000000000000
1111111010110100001010110010000000000000000000000000000000000000000000000000000000000000000000000000
1111111111111110010001000101111110011110000000000000000000000000000000000000000000000000000000000000
1111111010111000010001111010000000000000000000000000000000000000000000000000000000000000000000000000
1111111010101011101000001011010000000000000000000000000000000000000000000000000000000000000000000000
1111111011010000101101001001001000000000000000000000000000000000000000000000000000000000000000000000
1111111100101001101011100001111000000000000000000000000000000000000000000000000000000000000000000000
1001111001100111101000100000000000000000000000000000000000000000000000000000000000000000000
1111111110011100010000000101010110000000000000000000000000000000000000000000000000000000000000000000
1000111000011100110011010000000000000000000000000000000000000000000000000000000000000000000
10001000111011110001000000000000000000000000000000000000000000000000000000000000000000000000
1111111111001111110000010011010111000000000000000000000000000000000000000000000000000000000000000000
1101100000101110100010110000000000000000000000000000000000000000000000000000000000000000
100000111000011001010001000000000000000000000000000000000000000000000000000000000000000000000
1111111011101001101000101011110000000000000000000000000000000000000000000000000000000000000000000000
1111111011011000000001111010101000000000000000000000000000000000000000000000000000000000000000000000
101010000010010111110101000000000000000000000000000000000000000000000000000000000000000000
1101111011011001100011110000000000000000000000000000000000000000000000000000000000000000000
110011111011101000010001000000000000000000000000000000000000000000000000000000000000000
10111111100101100010111000000000000000000000000000000000000000000000000000000000000000000000
1111111010110110011101100111110000000000000000000000000000000000000000000000000000000000000000000000
1111111101010010110111111011110100000000000000000000000000000000000000000000000000000000000000000000
110001001111111101101110000000000000000000000000000000000000000000000000000000000000000
1110110101101111110010000000000000000000000000000000000000000000000000000000000000000
1111111111110000100110000100000011110000000000000000000000000000000000000000000000000000000000000000
1111111111001110010111101111111101000000000000000000000000000000000000000000000000000000000000000000
10000011011111010101110100000000000000000000000000000000000000000000000000000000000000000
1111111111110010100111011000000101100000000000000000000000000000000000000000000000000000000000000000
1111111101100110111100100110001100000000000000000000000000000000000000000000000000000000000000000000
1101110111000000100100000000000000000000000000000000000000000000000000000000000000000000000
1111111100101110011011111010011000000000000000000000000000000000000000000000000000000000000000000000
1111111100111011010011110100001100000000000000000000000000000000000000000000000000000000000000000000
1111111110010111101100001110111110000000000000000000000000000000000000000000000000000000000000000000
1111111110011100101110001001100010000000000000000000000000000000000000000000000000000000000000000000
1111111110110110100000000000000000000000000000000000000000000000000000000000000000000000000
1111111101001101001111011000111100000000000000000000000000000000000000000000000000000000000000000000
1111111111000010111100110010100110000000000000000000000000000000000000000000000000000000000000000000
10010101100110111011011000000000000000000000000000000000000000000000000000000000000000000000
1111111101100001100001000111010100000000000000000000000000000000000000000000000000000000000000000000
110010001010010101111000000000000000000000000000000000000000000000000000000000000000000000
11110010011101101000100100000000000000000000000000000000000000000000000000000000000000000000
1111111011100110001001111001011000000000000000000000000000000000000000000000000000000000000000000000
1111111010011100001110000110001000000000000000000000000000000000000000000000000000000000000000000000
1111111111111101000010101111010011001100000000000000000000000000000000000000000000000000000000000000
1111111100110001100110111111110100000000000000000000000000000000000000000000000000000000000000000000
1111111111000100011111001011000010000000000000000000000000000000000000000000000000000000000000000000
1110110111000010110000000000000000000000000000000000000000000000000000000000000000000000000
1010100111011010001000100000000000000000000000000000000000000000000000000000000000000000000
1111111011110101010001110101110000000000000000000000000000000000000000000000000000000000000000000000
11010110001110010100010000000000000000000000000000000000000000000000000000000000000000000000
1111111110101011100001111100111100000000000000000000000000000000000000000000000000000000000000000000
1111111110100100100110010110000000000000000000000000000000000000000000000000000000000000000000000000
1111111011110111101101111011010000000000000000000000000000000000000000000000000000000000000000000000
11000100011011111001110000000000000000000000000000000000000000000000000000000000000000000000
1101110110000010011100010000000000000000000000000000000000000000000000000000000000000000000
1111111110010001111101101011001000000000000000000000000000000000000000000000000000000000000000000000
1111111110001000111010011010011110000000000000000000000000000000000000000000000000000000000000000000
100010010110101100001101000000000000000000000000000000000000000000000000000000000000000000000
1111111111011100011011010010010000000000000000000000000000000000000000000000000000000000000000000000
100100011110001100001001000000000000000000000000000000000000000000000000000000000000000000
1111111110100110100110010100110100000000000000000000000000000000000000000000000000000000000000000000
1000011101000000111111110000000000000000000000000000000000000000000000000000000000000000000
1111111011001110001100010010110000000000000000000000000000000000000000000000000000000000000000000000
111000101001000001010011000000000000000000000000000000000000000000000000000000000000000000
1111111101110001001010111100010000000000000000000000000000000000000000000000000000000000000000000000
11100101101100000111101100000000000000000000000000000000000000000000000000000000000000000000
1111111010100010001111000011001000000000000000000000000000000000000000000000000000000000000000000000
1011010100101100111010000000000000000000000000000000000000000000000000000000000000000000000
1111111010011100111000010011100000000000000000000000000000000000000000000000000000000000000000000000
1111111011111110100100010001000000000000000000000000000000000000000000000000000000000000000000000000
1111111110110011111110000011000000000000000000000000000000000000000000000000000000000000000000000000
10011010100100010100010100000000000000000000000000000000000000000000000000000000000000000
1000000001010101101100110000000000000000000000000000000000000000000000000000000000000000000
11111001001111010001001000000000000000000000000000000000000000000000000000000000000000000000
1111111111000001110111100000010110000000000000000000000000000000000000000000000000000000000000000000
1111111110001000010111010101000110000000000000000000000000000000000000000000000000000000000000000000
1111111110011111010110001111000010000000000000000000000000000000000000000000000000000000000000000000
10001010001001010000000100000000000000000000000000000000000000000000000000000000000000000000
1001010101101100001101010000000000000000000000000000000000000000000000000000000000000000000
11010100100000111011111000000000000000000000000000000000000000000000000000000000000000000000
10101101101000101011011000000000000000000000000000000000000000000000000000000000000000
1000100101011011000110010000000000000000000000000000000000000000000000000000000000000000000
1111111010100111101001000100101000000000000000000000000000000000000000000000000000000000000000000000
11110110101010011111110100000000000000000000000000000000000000000000000000000000000000000000
10000001101110010110010000000000000000000000000000000000000000000000000000000000000000000000
1111111010110001101000011110001000000000000000000000000000000000000000000000000000000000000000000000
1111111110100001011111010001001010000000000000000000000000000000000000000000000000000000000000000000
11111110011001110100110100000000000000000000000000000000000000000000000000000000000000000000
1111111011010000111001001111101000000000000000000000000000000000000000000000000000000000000000000000
1111111011000110001101010101000000000000000000000000000000000000000000000000000000000000000000000000
1111111111001000100000011000101000000000000000000000000000000000000000000000000000000000000000000000
100011000110110111000010000000000000000000000000000000000000000000000000000000000000000000000
1111111100100100111010110101000100000000000000000000000000000000000000000000000000000000000000000000
100100101001110001000100000000000000000000000000000000000000000000000000000000000000000000
11110000110101001101001100000000000000000000000000000000000000000000000000000000000000000000
1111111011010101001100100000110000000000000000000000000000000000000000000000000000000000000000000000
1111111111001101000011101101000101000000000000000000000000000000000000000000000000000000000000000000
1111111110100110001110001011110000000000000000000000000000000000000000000000000000000000000000000000
1101010111000100001101100000000000000000000000000000000000000000000000000000000000000000000
10100000101011100101011000000000000000000000000000000000000000000000000000000000000000
10111111000011000110111000000000000000000000000000000000000000000000000000000000000000000
1010101111110001010100110000000000000000000000000000000000000000000000000000000000000000
1111111010100010101010011101110000000000000000000000000000000000000000000000000000000000000000000000
100010111110001101100000000000000000000000000000000000000000000000000000000000000000000000000
1111111010110100110011101000100000000000000000000000000000000000000000000000000000000000000000000000
10100110100011010111110100000000000000000000000000000000000000000000000000000000000000000000
1111111011101000001010100010111000000000000000000000000000000000000000000000000000000000000000000000
10101100000010101110101100000000000000000000000000000000000000000000000000000000000000000000
1111111100010101101010101101101000000000000000000000000000000000000000000000000000000000000000000000
11000011100010010011110000000000000000000000000000000000000000000000000000000000000000000000
1111111111000110100110111100110110000000000000000000000000000000000000000000000000000000000000000000
1111111011011110101111110111111000000000000000000000000000000000000000000000000000000000000000000000
1111111110000110110101000001100000000000000000000000000000000000000000000000000000000000000000000000
1111111110100011011110100010110010000000000000000000000000000000000000000000000000000000000000000000
11001001011010001100110100000000000000000000000000000000000000000000000000000000000000000000
111110011011010110010010000000000000000000000000000000000000000000000000000000000000000000
1111100000001000101011100000000000000000000000000000000000000000000000000000000000000000000
1001011000010001010010010000000000000000000000000000000000000000000000000000000000000000000
1111111111011000000101000011111111000000000000000000000000000000000000000000000000000000000000000000
1111111111101100010111110001111110100000000000000000000000000000000000000000000000000000000000000000
100010011101100010011100000000000000000000000000000000000000000000000000000000000000000000000
10001110000100011100000000000000000000000000000000000000000000000000000000000000000000000000
1001000000000001101110000000000000000000000000000000000000000000000000000000000000000000000
1111111010011111011100110100110000000000000000000000000000000000000000000000000000000000000000000000
1111111011010000100000010100101000000000000000000000000000000000000000000000000000000000000000000000
1011110010101110000100110000000000000000000000000000000000000000000000000000000000000000000
101001000111100110111100000000000000000000000000000000000000000000000000000000000000000000
1111111110111001111001100001011010000000000000000000000000000000000000000000000000000000000000000000
1111111110000010101111000111001100000000000000000000000000000000000000000000000000000000000000000000
1111111011001001011101100101000000000000000000000000000000000000000000000000000000000000000000000000
100011111001110000010111000000000000000000000000000000000000000000000000000000000000000000000
10100010111110001111011000000000000000000000000000000000000000000000000000000000000000000000
1111111111110100100010011100100001010000000000000000000000000000000000000000000000000000000000000000
11100111000000011110011100000000000000000000000000000000000000000000000000000000000000000
100001101011111111010100000000000000000000000000000000000000000000000000000000000000000000000
1111111100100011111101011011100100000000000000000000000000000000000000000000000000000000000000000000
10000001010111101001011100000000000000000000000000000000000000000000000000000000000000000000
11011110000001010010101000000000000000000000000000000000000000000000000000000000000000000000
1111111011000010010001001000011000000000000000000000000000000000000000000000000000000000000000000000
101001100010101111111110000000000000000000000000000000000000000000000000000000000000000000
1111111110001101101110010100011010000000000000000000000000000000000000000000000000000000000000000000
1111111010111000010001111110111000000000000000000000000000000000000000000000000000000000000000000000
1111111110010101000000110101000100000000000000000000000000000000000000000000000000000000000000000000
1001101100011111100100010000000000000000000000000000000000000000000000000000000000000000
1111101110010001010100010000000000000000000000000000000000000000000000000000000000000000000
1111111011100001110111001100000000000000000000000000000000000000000000000000000000000000000000000000
1111111011100100011100110001101000000000000000000000000000000000000000000000000000000000000000000000
10011110110010000111111000000000000000000000000000000000000000000000000000000000000000000000
11101011100100111001101000000000000000000000000000000000000000000000000000000000000000000000
10000010101011101001001000000000000000000000000000000000000000000000000000000000000000000000
1111111111010001111010001101011110000000000000000000000000000000000000000000000000000000000000000000
1111111111011110111010100100000100000000000000000000000000000000000000000000000000000000000000000000
1111111111011101000001111010111110000000000000000000000000000000000000000000000000000000000000000000
100111111000001100011100000000000000000000000000000000000000000000000000000000000000000000
11100100110101001001111000000000000000000000000000000000000000000000000000000000000000000000
1111111010011110000111100001110000000000000000000000000000000000000000000000000000000000000000000000
1111111100100010010111000111001100000000000000000000000000000000000000000000000000000000000000000000
1011001010110110011010000000000000000000000000000000000000000000000000000000000000000000000
100010111011011010100110000000000000000000000000000000000000000000000000000000000000000000000
1111111100001101111010101100100100000000000000000000000000000000000000000000000000000000000000000000
1111111110100101101111100010111110000000000000000000000000000000000000000000000000000000000000000000
11001101011111000100110100000000000000000000000000000000000000000000000000000000000000
1111111110011111110111100001110010000000000000000000000000000000000000000000000000000000000000000000
1111111101001111111001111011001000000000000000000000000000000000000000000000000000000000000000000000
1111111111110110001101101010001111110000000000000000000000000000000000000000000000000000000000000000
10110000010101100111010100000000000000000000000000000000000000000000000000000000000000000000
100000011101011001010010000000000000000000000000000000000000000000000000000000000000000000000
1111111101001100011011001011110100000000000000000000000000000000000000000000000000000000000000000000
1111111010100111001000110110111000000000000000000000000000000000000000000000000000000000000000000000
1111111101101000001110010001001000000000000000000000000000000000000000000000000000000000000000000000
10100011100010000011011100000000000000000000000000000000000000000000000000000000000000000000
100100001111010100010000000000000000000000000000000000000000000000000000000000000000000000000
1111111101001111011101111110011100000000000000000000000000000000000000000000000000000000000000000000
1111111010111100100110010100101000000000000000000000000000000000000000000000000000000000000000000000
1111111101110001011001111001100000000000000000000000000000000000000000000000000000000000000000000000
1111111101000111100101011010010100000000000000000000000000000000000000000000000000000000000000000000
1111111010010000000001010101110000000000000000000000000000000000000000000000000000000000000000000000
1111111110011110111101110101100010000000000000000000000000000000000000000000000000000000000000000000
11010101111001010010111000000000000000000000000000000000000000000000000000000000000000000000
1111111101001000011100100001101000000000000000000000000000000000000000000000000000000000000000000000
1111111110001010000000010000000110000000000000000000000000000000000000000000000000000000000000000000
1111111101110111100011110101011000000000000000000000000000000000000000000000000000000000000000000000
1111111100001101111100010100001100000000000000000000000000000000000000000000000000000000000000000000
111001100010100010101000000000000000000000000000000000000000000000000000000000000000
11111000100101010100001000000000000000000000000000000000000000000000000000000000000000000000
1111111011000111110011111010101000000000000000000000000000000000000000000000000000000000000000000000
1111111010101100010110010101100000000000000000000000000000000000000000000000000000000000000000000000
100010001001010100110000000000000000000000000000000000000000000000000000000000000000000000000
1111111010011111110101010001101000000000000000000000000000000000000000000000000000000000000000000000
1111111100000111101100001100111000000000000000000000000000000000000000000000000000000000000000000000
110000101111010000111001000000000000000000000000000000000000000000000000000000000000000000
1111111110011001101110010100010100000000000000000000000000000000000000000000000000000000000000000000
1111111110010000101111101101101000000000000000000000000000000000000000000000000000000000000000000000
1111111011101011000110101001101000000000000000000000000000000000000000000000000000000000000000000000
1111111111010111001010011111011000000000000000000000000000000000000000000000000000000000000000000000
1111111110110110110011111100011010000000000000000000000000000000000000000000000000000000000000000000
1101010011011001010101100000000000000000000000000000000000000000000000000000000000000000000
1111111011000001111001001101011000000000000000000000000000000000000000000000000000000000000000000000
1111111011100000111110111100110000000000000000000000000000000000000000000000000000000000000000000000
1111111100000000001000000011001100000000000000000000000000000000000000000000000000000000000000000000
100000011000100101011110000000000000000000000000000000000000000000000000000000000000000000000
1111111110101010000101010111111110000000000000000000000000000000000000000000000000000000000000000000
10011100101110110011010100000000000000000000000000000000000000000000000000000000000000000000
1111111100101011111011001101100100000000000000000000000000000000000000000000000000000000000000000000
11101011100000111100110000000000000000000000000000000000000000000000000000000000000000
10101000001110111011011100000000000000000000000000000000000000000000000000000000000000000000
1111100111101101111000110000000000000000000000000000000000000000000000000000000000000000000
10001110000011000001101000000000000000000000000000000000000000000000000000000000000000000000
11001011111111011101000100000000000000000000000000000000000000000000000000000000000000000000
1111111101100111100001001110000000000000000000000000000000000000000000000000000000000000000000000000
100100011101011010011010000000000000000000000000000000000000000000000000000000000000000000000
10110101001001101111011000000000000000000000000000000000000000000000000000000000000000000000
1111111100111011111110111010011100000000000000000000000000000000000000000000000000000000000000000000
10011010000111101010010100000000000000000000000000000000000000000000000000000000000000000000
1111111101001001101101101011110100000000000000000000000000000000000000000000000000000000000000000000
11110011101001110011010100000000000000000000000000000000000000000000000000000000000000000
1011110011000010011010100000000000000000000000000000000000000000000000000000000000000000000
1111111110101101111001000000111110000000000000000000000000000000000000000000000000000000000000000000
1111111101101110110110101110001100000000000000000000000000000000000000000000000000000000000000000000
1111111100110110100001010111001000000000000000000000000000000000000000000000000000000000000000000000
10110100110011000101000000000000000000000000000000000000000000000000000000000000000000000
1111111011001010010000011010100000000000000000000000000000000000000000000000000000000000000000000000
1111111111101001001000100111100010100000000000000000000000000000000000000000000000000000000000000000
11000101101110100010011000000000000000000000000000000000000000000000000000000000000000000000
1110100001001110010010000000000000000000000000000000000000000000000000000000000000000000000
1111111011101011110010010100101000000000000000000000000000000000000000000000000000000000000000000000
11010001000101100010010000000000000000000000000000000000000000000000000000000000000000000000
1111111101100001111110100111101100000000000000000000000000000000000000000000000000000000000000000000
1111111011001101000011110011100000000000000000000000000000000000000000000000000000000000000000000000
1111111100010010110100000110101100000000000000000000000000000000000000000000000000000000000000000000
1111111100110110010100010110110000000000000000000000000000000000000000000000000000000000000000000000
1111111110011101000110101010111100000000000000000000000000000000000000000000000000000000000000000000
1111111011100110100011110110000000000000000000000000000000000000000000000000000000000000000000000000
11001100101000000110010100000000000000000000000000000000000000000000000000000000000000000000
1111111110101100011011001001010010000000000000000000000000000000000000000000000000000000000000000000
11100101101000010011010000000000000000000000000000000000000000000000000000000000000000000000
10101010011100100000011000000000000000000000000000000000000000000000000000000000000000000000
1111111101100001111110100011000100000000000000000000000000000000000000000000000000000000000000000000
1111111010100100110110011101100000000000000000000000000000000000000000000000000000000000000000000000
1111111010111000010010011111100000000000000000000000000000000000000000000000000000000000000000000000
100001011111011110011100000000000000000000000000000000000000000000000000000000000000000000000
11000010111111001001000100000000000000000000000000000000000000000000000000000000000000000
1111111101101101001010000110001100000000000000000000000000000000000000000000000000000000000000000000
101100011101001010110101000000000000000000000000000000000000000000000000000000000000000000
1111111111100101001100000110110001100000000000000000000000000000000000000000000000000000000000000000
100011101111111000100100000000000000000000000000000000000000000000000000000000000000000000000
11011010000001011011001100000000000000000000000000000000000000000000000000000000000000000000
11011110110010100111010000000000000000000000000000000000000000000000000000000000000000
1111111010011100001101000101101000000000000000000000000000000000000000000000000000000000000000000000
1101011111101011111101110000000000000000000000000000000000000000000000000000000000000000000
1111111100001111111111111001101000000000000000000000000000000000000000000000000000000000000000000000
1111111101110100001011001010101000000000000000000000000000000000000000000000000000000000000000000000
1111111100101000011111101010100100000000000000000000000000000000000000000000000000000000000000000000
1111111010011011111101011010111000000000000000000000000000000000000000000000000000000000000000000000
1010000000010110111001010000000000000000000000000000000000000000000000000000000000000000
1111111111100111100000011100000000100000000000000000000000000000000000000000000000000000000000000000
10011110000101011010111100000000000000000000000000000000000000000000000000000000000000000000
1111111110100111000001110010101000000000000000000000000000000000000000000000000000000000000000000000
10111101101001000100001100000000000000000000000000000000000000000000000000000000000000000000
1111111101000010110001011010110100000000000000000000000000000000000000000000000000000000000000000000
1111110111110011100110000000000000000000000000000000000000000000000000000000000000000
1111111100000110101111100101001000000000000000000000000000000000000000000000000000000000000000000000
110001010000100000100110000000000000000000000000000000000000000000000000000000000000000000
1111111010110011101101110101100000000000000000000000000000000000000000000000000000000000000000000000
1111111011101001011101101100001000000000000000000000000000000000000000000000000000000000000000000000
10110100100110100010100000000000000000000000000000000000000000000000000000000000000000000000
1111111101110100010101010000010000000000000000000000000000000000000000000000000000000000000000000000
10110110000110011110011100000000000000000000000000000000000000000000000000000000000000000000
1111111101010011110001101110000100000000000000000000000000000000000000000000000000000000000000000000
1111111100001111010000001111110000000000000000000000000000000000000000000000000000000000000000000000
1111111111110110110001001010101111010000000000000000000000000000000000000000000000000000000000000000
11001100000001000011110100000000000000000000000000000000000000000000000000000000000000000000
1111111101011010001001111100011000000000000000000000000000000000000000000000000000000000000000000000
1110100100101110101010100000000000000000000000000000000000000000000000000000000000000000000
11000110110110011100101000000000000000000000000000000000000000000000000000000000000000000000
100011000100100011101110000000000000000000000000000000000000000000000000000000000000000000000
10001010111010100010101000000000000000000000000000000000000000000000000000000000000000000000
11101111011100001011010000000000000000000000000000000000000000000000000000000000000000000000
11100001111111100100011100000000000000000000000000000000000000000000000000000000000000000
1111111110110110111000011110011100000000000000000000000000000000000000000000000000000000000000000000
11010000101111101010111100000000000000000000000000000000000000000000000000000000000000000000
1111111011110100111110100101011000000000000000000000000000000000000000000000000000000000000000000000
1111111011110010110111111100111000000000000000000000000000000000000000000000000000000000000000000000
10110100010010101110100000000000000000000000000000000000000000000000000000000000000000000000
11111000010111101101000000000000000000000000000000000000000000000000000000000000000000000000
1001010001110100110110110000000000000000000000000000000000000000000000000000000000000000000
100000111011001100001000000000000000000000000000000000000000000000000000000000000000000000000
1111111100010011110000100010101000000000000000000000000000000000000000000000000000000000000000000000
11101011111111101000001100000000000000000000000000000000000000000000000000000000000000000000
10010110000001111001010100000000000000000000000000000000000000000000000000000000000000000000
1111111111100010001001100100100100100000000000000000000000000000000000000000000000000000000000000000
1111111010010011100000000111000000000000000000000000000000000000000000000000000000000000000000000000
1111011010110101111111000000000000000000000000000000000000000000000000000000000000000000000
1111111101001000000001001100001100000000000000000000000000000000000000000000000000000000000000000000
1111111010010110000000010011011000000000000000000000000000000000000000000000000000000000000000000000
10111100110111111110000000000000000000000000000000000000000000000000000000000000000000000000
110000000111010011010011000000000000000000000000000000000000000000000000000000000000000000
1111111110111010110101001100010010000000000000000000000000000000000000000000000000000000000000000000
1111111010101110100001011011101000000000000000000000000000000000000000000000000000000000000000000000
101001000110000110101000000000000000000000000000000000000000000000000000000000000000000000
100000001101110011100000000000000000000000000000000000000000000000000000000000000000000000
1111111010101010110000011101010000000000000000000000000000000000000000000000000000000000000000000000
1111111011010100111011011010010000000000000000000000000000000000000000000000000000000000000000000000
1111111010011000100000110101010000000000000000000000000000000000000000000000000000000000000000000000
11111001000000010011111100000000000000000000000000000000000000000000000000000000000000000
1111111111011010001111011111101110000000000000000000000000000000000000000000000000000000000000000000
1111111010100101110010100010111000000000000000000000000000000000000000000000000000000000000000000000
1111111111111001010101101000111011001000000000000000000000000000000000000000000000000000000000000000
1010011000110100011100110000000000000000000000000000000000000000000000000000000000000000000
1111111010010011010111011101000000000000000000000000000000000000000000000000000000000000000000000000
1111111010101101001111011010010000000000000000000000000000000000000000000000000000000000000000000000
1111111111001100100000010011010000000000000000000000000000000000000000000000000000000000000000000000
1111111110110001101011011011101100000000000000000000000000000000000000000000000000000000000000000000
1111111010110101000100110100011000000000000000000000000000000000000000000000000000000000000000000000
1111010000011110011111110000000000000000000000000000000000000000000000000000000000000000000
1111111110101000000110100010000100000000000000000000000000000000000000000000000000000000000000000000
100011010110010010111001000000000000000000000000000000000000000000000000000000000000000000
10000011101000000101000000000000000000000000000000000000000000000000000000000000000000000000
1111111111110110001001100110100010110000000000000000000000000000000000000000000000000000000000000000
11010000000100101010100000000000000000000000000000000000000000000000000000000000000000000
1111111101110110100101001011110000000000000000000000000000000000000000000000000000000000000000000000
1111111111010001100111000000011000000000000000000000000000000000000000000000000000000000000000000000
1001111110111001100001110000000000000000000000000000000000000000000000000000000000000000000
10110000010101001100110000000000000000000000000000000000000000000000000000000000000000000000
10010011011101110011101100000000000000000000000000000000000000000000000000000000000000000000
1111111110111101101100001101111000000000000000000000000000000000000000000000000000000000000000000000
100001111111101100111111000000000000000000000000000000000000000000000000000000000000000000000
10000010110110011011010000000000000000000000000000000000000000000000000000000000000000000000
1111111011001111110010000000100000000000000000000000000000000000000000000000000000000000000000000000
1111111110100011100111001011011000000000000000000000000000000000000000000000000000000000000000000000
100100010010110011100010000000000000000000000000000000000000000000000000000000000000000000000
1111111101000001001001011110001100000000000000000000000000000000000000000000000000000000000000000000
1111111100011011011101101101001100000000000000000000000000000000000000000000000000000000000000000000
1111111100100110001010101100000100000000000000000000000000000000000000000000000000000000000000000000
1101100001100111111100000000000000000000000000000000000000000000000000000000000000000000000
1111111110111110101000100100101010000000000000000000000000000000000000000000000000000000000000000000
11110000111101011111011100000000000000000000000000000000000000000000000000000000000000000000
10011111101101001101010100000000000000000000000000000000000000000000000000000000000000000000
1111111101110111000100101000111100000000000000000000000000000000000000000000000000000000000000000000
1111111110011011101010101111000000000000000000000000000000000000000000000000000000000000000000000000
1111111111011101000011110110101100000000000000000000000000000000000000000000000000000000000000000000
1111111110010101011010101110000010000000000000000000000000000000000000000000000000000000000000000000
1111111110001000100101111011001010000000000000000000000000000000000000000000000000000000000000000000
100000011101110010011001000000000000000000000000000000000000000000000000000000000000000000000
1111111101000111100011100001011100000000000000000000000000000000000000000000000000000000000000000000
11100100111011000000010100000000000000000000000000000000000000000000000000000000000000000000
1111111111000000010000100100000101000000000000000000000000000000000000000000000000000000000000000000
101110001100011111110111000000000000000000000000000000000000000000000000000000000000000000
10000000110101111111010100000000000000000000000000000000000000000000000000000000000000000000
1100100110111111101010010000000000000000000000000000000000000000000000000000000000000000000
11001100100000010100001100000000000000000000000000000000000000000000000000000000000000000000
11100110011001111111011000000000000000000000000000000000000000000000000000000000000000000000
101001101000100001101011000000000000000000000000000000000000000000000000000000000000000000
11111100111111100101011100000000000000000000000000000000000000000000000000000000000000000000
1010001011100001111100110000000000000000000000000000000000000000000000000000000000000000000
1010101000110001101111010000000000000000000000000000000000000000000000000000000000000000000
10110000110101111001101000000000000000000000000000000000000000000000000000000000000000000000
1001101110111111101011110000000000000000000000000000000000000000000000000000000000000000000
1111111110001111000100110111001010000000000000000000000000000000000000000000000000000000000000000000
1111111011001010001000111111110000000000000000000000000000000000000000000000000000000000000000000000
1011100101001010000010110000000000000000000000000000000000000000000000000000000000000000000
111110000101001000010110000000000000000000000000000000000000000000000000000000000000000000
1111111100110111011011010100111000000000000000000000000000000000000000000000000000000000000000000000
10100101010001010100011100000000000000000000000000000000000000000000000000000000000000000000
1101001001101100010010100000000000000000000000000000000000000000000000000000000000000000000
1100110100111010111010100000000000000000000000000000000000000000000000000000000000000
1111111111001111001111001010110000000000000000000000000000000000000000000000000000000000000000000000
1111111100101010000111111100001000000000000000000000000000000000000000000000000000000000000000000000
1111111101101010111000111101110100000000000000000000000000000000000000000000000000000000000000000000
1010101100000101011000000000000000000000000000000000000000000000000000000000000000000000000
11100100001110010000101000000000000000000000000000000000000000000000000000000000000000000000
11010010011100110010011000000000000000000000000000000000000000000000000000000000000000000000
1111111101001000001011001110011100000000000000000000000000000000000000000000000000000000000000000000
1111111011100000100100001000101000000000000000000000000000000000000000000000000000000000000000000000
100100001000101001010000000000000000000000000000000000000000000000000000000000000000000000000
1111111100001000011010000000100000000000000000000000000000000000000000000000000000000000000000000000
1111111101111100111000110001011100000000000000000000000000000000000000000000000000000000000000000000
1111111101001111001011001001100100000000000000000000000000000000000000000000000000000000000000000000
1111111011100110010110010000010000000000000000000000000000000000000000000000000000000000000000000000
101000001011011110110100000000000000000000000000000000000000000000000000000000000000000
1001100001001100110000100000000000000000000000000000000000000000000000000000000000000000000
1111111111101011011001101100010000100000000000000000000000000000000000000000000000000000000000000000
1111111111111100111111000110101111001100000000000000000000000000000000000000000000000000000000000000
1111111111000100001010000110101000000000000000000000000000000000000000000000000000000000000000000000
1111111111111100000111000110011111011000000000000000000000000000000000000000000000000000000000000000
1111111111111101100111111001101101101100000000000000000000000000000000000000000000000000000000000000
1111111101100100111011000000001100000000000000000000000000000000000000000000000000000000000000000000
10100110001001111010100100000000000000000000000000000000000000000000000000000000000000000
1111111101100100011000010000001000000000000000000000000000000000000000000000000000000000000000000000
11110000010000100100100100000000000000000000000000000000000000000000000000000000000000000000
1111111110001101011110001001101100000000000000000000000000000000000000000000000000000000000000000000
1101100111111010100000010000000000000000000000000000000000000000000000000000000000000000000
11101111001111011100000100000000000000000000000000000000000000000000000000000000000000000000
10001101111100111001000000000000000000000000000000000000000000000000000000000000000000000000
1111111100010001110111011001110000000000000000000000000000000000000000000000000000000000000000000000
1111111101100111011001100010111000000000000000000000000000000000000000000000000000000000000000000000
1111111100010010110100110010011100000000000000000000000000000000000000000000000000000000000000000000
1111111101000100101101011110001100000000000000000000000000000000000000000000000000000000000000000000
1111111010010001010000001001111000000000000000000000000000000000000000000000000000000000000000000000
11101001001010001001110000000000000000000000000000000000000000000000000000000000000000000000
1111111011001110010000111001010000000000000000000000000000000000000000000000000000000000000000000000
1111111100000010100101011011101000000000000000000000000000000000000000000000000000000000000000000000
11001000100011001101010100000000000000000000000000000000000000000000000000000000000000000000
1111111100000001110001100111010000000000000000000000000000000000000000000000000000000000000000000000
1111111011101010011100111100111000000000000000000000000000000000000000000000000000000000000000000000
1111111011010001110101100101110000000000000000000000000000000000000000000000000000000000000000000000
1101111011000000010101100000000000000000000000000000000000000000000000000000000000000000000
1011000111100111101011010000000000000000000000000000000000000000000000000000000000000000000
1111111010010111101010100110001000000000000000000000000000000000000000000000000000000000000000000000
11101101010000011001111000000000000000000000000000000000000000000000000000000000000000000000
11000010100111101010110100000000000000000000000000000000000000000000000000000000000000000
1111111011100001011000100011011000000000000000000000000000000000000000000000000000000000000000000000
1111111010111010100100001001011000000000000000000000000000000000000000000000000000000000000000000000
1101111101111100001101000000000000000000000000000000000000000000000000000000000000000000000
100100000010000011001111000000000000000000000000000000000000000000000000000000000000000000000
1111111011100010011100001111001000000000000000000000000000000000000000000000000000000000000000000000
0
1111111100111111011011010110100000000000000000000000000000000000000000000000000000000000000000000000
1111111101001101010000101010111000000000000000000000000000000000000000000000000000000000000000000000
1110111000110011000100000000000000000000000000000000000000000000000000000000000000000000000
1111111110000000001001110000101010000000000000000000000000000000000000000000000000000000000000000000
1111111011110111110111000001100000000000000000000000000000000000000000000000000000000000000000000000
1111111111011001000101101100100110000000000000000000000000000000000000000000000000000000000000000000
1111110010010001001101100000000000000000000000000000000000000000000000000000000000000000
100010111101111000010010000000000000000000000000000000000000000000000000000000000000000000
1111111100010011110011011011111100000000000000000000000000000000000000000000000000000000000000000000
1111111110011111111010111111010100000000000000000000000000000000000000000000000000000000000000000000
10011100111000101101001000000000000000000000000000000000000000000000000000000000000000000000
11110100000110100101001000000000000000000000000000000000000000000000000000000000000000000000
