100011110010000110010111000000000000000000000000000000000000000000000000000000000000000000000
1001110000111001101101010000000000000000000000000000000000000000000000000000000000000000000
10011100111100110000001100000000000000000000000000000000000000000000000000000000000000000000
1111111110000011110001011001100110000000000000000000000000000000000000000000000000000000000000000000
101010001101010111001000000000000000000000000000000000000000000000000000000000000000000000000
1111111101111110011100110111011000000000000000000000000000000000000000000000000000000000000000000000
110100000111010000011111000000000000000000000000000000000000000000000000000000000000000000000
11110111110100001000010000000000000000000000000000000000000000000000000000000000000000000
10010011000111100101000000000000000000000000000000000000000000000000000000000000000000000000
1111111101011100000011011100101000000000000000000000000000000000000000000000000000000000000000000000
10000111010100110010101000000000000000000000000000000000000000000000000000000000000000000000
10101011001011100010111000000000000000000000000000000000000000000000000000000000000000000000
1111111101110101111110111000011100000000000000000000000000000000000000000000000000000000000000000000
101000000110101101011101000000000000000000000000000000000000000000000000000000000000000000000
101001110010100001100011000000000000000000000000000000000000000000000000000000000000000
1111111111001010101011111011101101000000000000000000000000000000000000000000000000000000000000000000
1111111101000111011110111001101000000000000000000000000000000000000000000000000000000000000000000000
101101110001000111100100000000000000000000000000000000000000000000000000000000000000000000000
1111111100101010001101000110101100000000000000000000000000000000000000000000000000000000000000000000
11100111100011101111111100000000000000000000000000000000000000000000000000000000000000000000
101001111101100110001100000000000000000000000000000000000000000000000000000000000000000000000
100111011100100100011011000000000000000000000000000000000000000000000000000000000000000000000
100110101010110111101010000000000000000000000000000000000000000000000000000000000000000000000
101000000100011101000101000000000000000000000000000000000000000000000000000000000000000000000
1111111110101111101110001011100000000000000000000000000000000000000000000000000000000000000000000000
11111100100000001011011100000000000000000000000000000000000000000000000000000000000000000000
101111101101000010111101000000000000000000000000000000000000000000000000000000000000000000000
100010000001011111001101000000000000000000000000000000000000000000000000000000000000000000000
10100001111111100111100000000000000000000000000000000000000000000000000000000000000000000000
11101000101011001101100000000000000000000000000000000000000000000000000000000000000000000000
11110001001101111010110000000000000000000000000000000000000000000000000000000000000000000000
11010101000110101011010100000000000000000000000000000000000000000000000000000000000000000000
101100000001010011001000000000000000000000000000000000000000000000000000000000000000000000
1111111110001011011001011110111000000000000000000000000000000000000000000000000000000000000000000000
1011011100100010100010010000000000000000000000000000000000000000000000000000000000000000000
101010010001011110000111000000000000000000000000000000000000000000000000000000000000000000000
1111111111000100110110001110010101000000000000000000000000000000000000000000000000000000000000000000
1111111111001110110011010011011001000000000000000000000000000000000000000000000000000000000000000000
1111111100011100001100111101111100000000000000000000000000000000000000000000000000000000000000000000
10100000001011000000011000000000000000000000000000000000000000000000000000000000000000000000
10100110010011000100011100000000000000000000000000000000000000000000000000000000000000000000
1111111100101001110010110000010000000000000000000000000000000000000000000000000000000000000000000000
10100011100001001100110000000000000000000000000000000000000000000000000000000000000000000000
10000001010011101101010100000000000000000000000000000000000000000000000000000000000000000
11010101110010000000001000000000000000000000000000000000000000000000000000000000000000000000
1110010011011110111111000000000000000000000000000000000000000000000000000000000000000000000
1111111110010111001010001001110000000000000000000000000000000000000000000000000000000000000000000000
10111010101001000001000100000000000000000000000000000000000000000000000000000000000000000000
101010001010100001011100000000000000000000000000000000000000000000000000000000000000000000
110101010000110000011010000000000000000000000000000000000000000000000000000000000000000000
1111111110101100000101101110101110000000000000000000000000000000000000000000000000000000000000000000
1000011001011111100101000000000000000000000000000000000000000000000000000000000000000000
1010110101111101111100110000000000000000000000000000000000000000000000000000000000000000000
1011001110111101110110010000000000000000000000000000000000000000000000000000000000000000
10000000101010111101011100000000000000000000000000000000000000000000000000000000000000000000
1110011101110000000111100000000000000000000000000000000000000000000000000000000000000000
10001001100101001000111100000000000000000000000000000000000000000000000000000000000000000000
100001001000100010101010000000000000000000000000000000000000000000000000000000000000000000000
11000111011101110110011000000000000000000000000000000000000000000000000000000000000000000
1111111110011000110101001000011100000000000000000000000000000000000000000000000000000000000000000000
100000101001001100010110000000000000000000000000000000000000000000000000000000000000000000000
1111111101111100111010000001001100000000000000000000000000000000000000000000000000000000000000000000
11100001101110011011101000000000000000000000000000000000000000000000000000000000000000000000
10101101101000111000001000000000000000000000000000000000000000000000000000000000000000000000
1101001011001011110010000000000000000000000000000000000000000000000000000000000000000000000
1111111111001010110011011000010001000000000000000000000000000000000000000000000000000000000000000000
1111111110100000011111110101100110000000000000000000000000000000000000000000000000000000000000000000
1111111110101001011100100101000100000000000000000000000000000000000000000000000000000000000000000000
10100110111010011111101000000000000000000000000000000000000000000000000000000000000000000000
1010000111110001100001010000000000000000000000000000000000000000000000000000000000000000000
1111111101011101001101001110101000000000000000000000000000000000000000000000000000000000000000000000
1111111101000000101000110100000000000000000000000000000000000000000000000000000000000000000000000000
1111111110000110000000110111101110000000000000000000000000000000000000000000000000000000000000000000
10110010110111111011111100000000000000000000000000000000000000000000000000000000000000000000
11010110111000111011011100000000000000000000000000000000000000000000000000000000000000000000
1010000010010010011010010000000000000000000000000000000000000000000000000000000000000000000
11110111101111000010111100000000000000000000000000000000000000000000000000000000000000000000
110100100100011110010100000000000000000000000000000000000000000000000000000000000000000000000
101010111101011110111000000000000000000000000000000000000000000000000000000000000000000000000
101110000100101101110001000000000000000000000000000000000000000000000000000000000000000000000
10011000110110010011011000000000000000000000000000000000000000000000000000000000000000000000
101011010010000000001100000000000000000000000000000000000000000000000000000000000000000000000
11101101010100000000101000000000000000000000000000000000000000000000000000000000000000
110001001010001110010010000000000000000000000000000000000000000000000000000000000000000000000
1111111101010010000110011101111000000000000000000000000000000000000000000000000000000000000000000000
1111111110111110111110010100001010000000000000000000000000000000000000000000000000000000000000000000
11110001001000001010010100000000000000000000000000000000000000000000000000000000000000000
101101010000110100101100000000000000000000000000000000000000000000000000000000000000000000000
101011001110000111001101000000000000000000000000000000000000000000000000000000000000000000000
10010101101001110100011100000000000000000000000000000000000000000000000000000000000000000000
1011110100001000111100110000000000000000000000000000000000000000000000000000000000000000000
1111111111000100101100000010101010000000000000000000000000000000000000000000000000000000000000000000
100000001100110011010010000000000000000000000000000000000000000000000000000000000000000000
10110000010100011000110100000000000000000000000000000000000000000000000000000000000000000000
1111111110011011000111110001110000000000000000000000000000000000000000000000000000000000000000000000
1111111110011110100000110011111000000000000000000000000000000000000000000000000000000000000000000000
1111111111110010111101100101101010000000000000000000000000000000000000000000000000000000000000000000
1111111101010101000000110101101100000000000000000000000000000000000000000000000000000000000000000000
101110011011000111111010000000000000000000000000000000000000000000000000000000000000000000
1111111110000000000001001010111000000000000000000000000000000000000000000000000000000000000000000000
100110110100011100001001000000000000000000000000000000000000000000000000000000000000000000000
100111101111110100100011000000000000000000000000000000000000000000000000000000000000000000
1111111110011111101111001011001110000000000000000000000000000000000000000000000000000000000000000000
101010000000001010111010000000000000000000000000000000000000000000000000000000000000000000000
100111100101010111011011000000000000000000000000000000000000000000000000000000000000000000000
11000110111010000100100000000000000000000000000000000000000000000000000000000000000000000
101001100100110010101110000000000000000000000000000000000000000000000000000000000000000000000
101101000111000001111000000000000000000000000000000000000000000000000000000000000000000000000
11101001101111100001101100000000000000000000000000000000000000000000000000000000000000000000
11101010111000001100000000000000000000000000000000000000000000000000000000000000000000000000
1111111110010110010011110101000000000000000000000000000000000000000000000000000000000000000000000000
11001011101010101111011000000000000000000000000000000000000000000000000000000000000000000000
101011111011011000001100000000000000000000000000000000000000000000000000000000000000000000000
100001111011111100100000000000000000000000000000000000000000000000000000000000000000000000000
11110100010101000000000100000000000000000000000000000000000000000000000000000000000000000000
100111110011010101110011000000000000000000000000000000000000000000000000000000000000000000000
1111111111001110000010101100101010000000000000000000000000000000000000000000000000000000000000000000
1111111110001000000100011110001000000000000000000000000000000000000000000000000000000000000000000000
101100001111100110000101000000000000000000000000000000000000000000000000000000000000000000000
10101101110000000000101000000000000000000000000000000000000000000000000000000000000000000000
1111111111000110001000000011111110000000000000000000000000000000000000000000000000000000000000000000
1010101010010101110100100000000000000000000000000000000000000000000000000000000000000000000
1111111110001011000111011001000110000000000000000000000000000000000000000000000000000000000000000000
1111111100011101011000100010100000000000000000000000000000000000000000000000000000000000000000000000
110110110101111111110011000000000000000000000000000000000000000000000000000000000000000000
1111111100010000100111101000100000000000000000000000000000000000000000000000000000000000000000000000
11110101101001001010101100000000000000000000000000000000000000000000000000000000000000000000
1111111101010100001011010001001000000000000000000000000000000000000000000000000000000000000000000000
1111111110000101010110111110111100000000000000000000000000000000000000000000000000000000000000000000
100101111001010010010011000000000000000000000000000000000000000000000000000000000000000000000
100101100001010000010000000000000000000000000000000000000000000000000000000000000000000000000
101110110000100000001000000000000000000000000000000000000000000000000000000000000000000000000
1111111101101010110110111010000100000000000000000000000000000000000000000000000000000000000000000000
110000000110111001111000000000000000000000000000000000000000000000000000000000000000000000
100000100100101001011011000000000000000000000000000000000000000000000000000000000000000000000
1111111110000101100111001111111000000000000000000000000000000000000000000000000000000000000000000000
11100101111001100010011000000000000000000000000000000000000000000000000000000000000000000
100000001100010111110110000000000000000000000000000000000000000000000000000000000000000000000
101011001000101100111110000000000000000000000000000000000000000000000000000000000000000000
1111100000111100010101110000000000000000000000000000000000000000000000000000000000000000000
110010100010101010011101000000000000000000000000000000000000000000000000000000000000000000000
111111010100000101011010000000000000000000000000000000000000000000000000000000000000000000
1111111101101010100110010010011000000000000000000000000000000000000000000000000000000000000000000000
1111111100110000010011001011010000000000000000000000000000000000000000000000000000000000000000000000
100111100000110101010010000000000000000000000000000000000000000000000000000000000000000000000
1111111101000100001010111000011000000000000000000000000000000000000000000000000000000000000000000000
101001000011101011100100000000000000000000000000000000000000000000000000000000000000000000000
1111111101111001110001010101110000000000000000000000000000000000000000000000000000000000000000000000
100100010001111001010001000000000000000000000000000000000000000000000000000000000000000000
10001000110000000001110100000000000000000000000000000000000000000000000000000000000000000000
100100101100001111101110000000000000000000000000000000000000000000000000000000000000000000000
10010100100110111011100000000000000000000000000000000000000000000000000000000000000000000000
110110010011011000000011000000000000000000000000000000000000000000000000000000000000000000
1111111100111111010101011100101100000000000000000000000000000000000000000000000000000000000000000000
110000101111100111000011000000000000000000000000000000000000000000000000000000000000000000000
11110000010101100001001000000000000000000000000000000000000000000000000000000000000000000000
10100000010110111101011100000000000000000000000000000000000000000000000000000000000000000000
100101000011011010011100000000000000000000000000000000000000000000000000000000000000000000000
1111111100011111100001111100000000000000000000000000000000000000000000000000000000000000000000000000
100001010001100001101010000000000000000000000000000000000000000000000000000000000000000000000
1111111111100101010101010110001110000000000000000000000000000000000000000000000000000000000000000000
101110000010111111111110000000000000000000000000000000000000000000000000000000000000000000
1111111100011110010100101011100000000000000000000000000000000000000000000000000000000000000000000000
1111111111111001100001011011110001100000000000000000000000000000000000000000000000000000000000000000
110001000100111010100111000000000000000000000000000000000000000000000000000000000000000000000
1111111101000110001101111110101100000000000000000000000000000000000000000000000000000000000000000000
110001100001000111100110000000000000000000000000000000000000000000000000000000000000000000000
10001010000110100010110100000000000000000000000000000000000000000000000000000000000000000
1100101101001110101100110000000000000000000000000000000000000000000000000000000000000000000
1111111110001010001011101100111000000000000000000000000000000000000000000000000000000000000000000000
101011001111011011100110000000000000000000000000000000000000000000000000000000000000000000000
10101101101000010111010000000000000000000000000000000000000000000000000000000000000000000000
1111111111100101000001110010001100100000000000000000000000000000000000000000000000000000000000000000
100011011001000000000111000000000000000000000000000000000000000000000000000000000000000000000
11000100111001110100101100000000000000000000000000000000000000000000000000000000000000000000
110010100011011000111100000000000000000000000000000000000000000000000000000000000000000000000
1111111100100100100111010101101100000000000000000000000000000000000000000000000000000000000000000000
1111111111100001010100110001001011000000000000000000000000000000000000000000000000000000000000000000
110000000010010001000001000000000000000000000000000000000000000000000000000000000000000000000
1111111101101010111110010001000000000000000000000000000000000000000000000000000000000000000000000000
1111111110001001110101010101100000000000000000000000000000000000000000000000000000000000000000000000
101101000110001010110011000000000000000000000000000000000000000000000000000000000000000000000
110011110011101000110110000000000000000000000000000000000000000000000000000000000000000000000
1110100100111101100111110000000000000000000000000000000000000000000000000000000000000000000
10011111111001001100001100000000000000000000000000000000000000000000000000000000000000000000
1000100000101011101101010000000000000000000000000000000000000000000000000000000000000000000
1111111101100110011101100001110100000000000000000000000000000000000000000000000000000000000000000000
10111001100101111111001000000000000000000000000000000000000000000000000000000000000000000000
1111111111111011101101010011000100100000000000000000000000000000000000000000000000000000000000000000
101101001010010010101010000000000000000000000000000000000000000000000000000000000000000000
110010110111110010010100000000000000000000000000000000000000000000000000000000000000000000000
100110110001000001001111000000000000000000000000000000000000000000000000000000000000000000000
1111111111101011100111011110000000000000000000000000000000000000000000000000000000000000000000000000
1111111110100010101001000010000010000000000000000000000000000000000000000000000000000000000000000000
100111100011100110001010000000000000000000000000000000000000000000000000000000000000000000000
110011010010010111011000000000000000000000000000000000000000000000000000000000000000000000
10001101110110010110110100000000000000000000000000000000000000000000000000000000000000000000
1111111100010100111110110000100100000000000000000000000000000000000000000000000000000000000000000000
10101010011110011111001100000000000000000000000000000000000000000000000000000000000000000000
1111111111101010110011010100011010100000000000000000000000000000000000000000000000000000000000000000
110001001001000011101011000000000000000000000000000000000000000000000000000000000000000000
1111111100010001101010100000000100000000000000000000000000000000000000000000000000000000000000000000
1111111111100110100100010111001001100000000000000000000000000000000000000000000000000000000000000000
1111111111000111111111001010111011000000000000000000000000000000000000000000000000000000000000000000
101101011100100001000101000000000000000000000000000000000000000000000000000000000000000000000
1111111101000010111010011100110100000000000000000000000000000000000000000000000000000000000000000000
1010101101100110010011100000000000000000000000000000000000000000000000000000000000000000000
1111111111011111001010011111011101000000000000000000000000000000000000000000000000000000000000000000
1111111100101010100000101101101100000000000000000000000000000000000000000000000000000000000000000000
10001101110111111111111000000000000000000000000000000000000000000000000000000000000000000000
101111010001101111100100000000000000000000000000000000000000000000000000000000000000000000000
10100011101000001110100000000000000000000000000000000000000000000000000000000000000000000000
101001111000001001101010000000000000000000000000000000000000000000000000000000000000000000000
11111000011111001100010000000000000000000000000000000000000000000000000000000000000000000000
11000000111010111111010100000000000000000000000000000000000000000000000000000000000000000000
1111111111010010100000100111011100000000000000000000000000000000000000000000000000000000000000000000
101110101100011100011010000000000000000000000000000000000000000000000000000000000000000000000
1111111111100110111100110100100000100000000000000000000000000000000000000000000000000000000000000000
1111111101000000011111111110000100000000000000000000000000000000000000000000000000000000000000000000
10100011010110010101111000000000000000000000000000000000000000000000000000000000000000000000
1111111111111111011011101100001111111001000000000000000000000000000000000000000000000000000000000000
101010100010100111010100000000000000000000000000000000000000000000000000000000000000000000000
1100101111001010011001110000000000000000000000000000000000000000000000000000000000000000000
1001011001011100001000010000000000000000000000000000000000000000000000000000000000000
1100001100100111000110100000000000000000000000000000000000000000000000000000000000000000000
110010001101011010010100000000000000000000000000000000000000000000000000000000000000000000
1011000001011011011001100000000000000000000000000000000000000000000000000000000000000000000
100110010001110011010001000000000000000000000000000000000000000000000000000000000000000000000
1111111100110101011000100011001100000000000000000000000000000000000000000000000000000000000000000000
0
1111111100010111001101101101111100000000000000000000000000000000000000000000000000000000000000000000
1111111101110101011101111111111100000000000000000000000000000000000000000000000000000000000000000000
110111011101101001100110000000000000000000000000000000000000000000000000000000000000000000
1010010010001010011011110000000000000000000000000000000000000000000000000000000000000000000
100000110001011100000100000000000000000000000000000000000000000000000000000000000000000000000
110110001110011001110010000000000000000000000000000000000000000000000000000000000000000000
1111111100010111000101100110100000000000000000000000000000000000000000000000000000000000000000000000
101010110111010001011000000000000000000000000000000000000000000000000000000000000000000000000
110000111011001110100110000000000000000000000000000000000000000000000000000000000000000000000
11111101100101010101001000000000000000000000000000000000000000000000000000000000000000000000
100010110001111111101101000000000000000000000000000000000000000000000000000000000000000000000
1111111111001110000011000111001110000000000000000000000000000000000000000000000000000000000000000000
11110011010101101101100000000000000000000000000000000000000000000000000000000000000000000000
11000011010010110101001100000000000000000000000000000000000000000000000000000000000000000000
1011011101000001010101110000000000000000000000000000000000000000000000000000000000000000000
1001010101000010011001100000000000000000000000000000000000000000000000000000000000000000000
1111111111011000110000001011011001000000000000000000000000000000000000000000000000000000000000000000
11111010111101110010001000000000000000000000000000000000000000000000000000000000000000000000
1110010101000101101100000000000000000000000000000000000000000000000000000000000000000000
101000111000001001011000000000000000000000000000000000000000000000000000000000000000000000000
1111111110001101111101010101101000000000000000000000000000000000000000000000000000000000000000000000
11101011101011011111100000000000000000000000000000000000000000000000000000000000000000000000
10100111111111111111011100000000000000000000000000000000000000000000000000000000000000000000
1111111101101010010000000010101100000000000000000000000000000000000000000000000000000000000000000000
1111111101001111111100111001111000000000000000000000000000000000000000000000000000000000000000000000
11101101111100100010010000000000000000000000000000000000000000000000000000000000000000000000
11011110000100011111100000000000000000000000000000000000000000000000000000000000000000000000
11010011000011011000010000000000000000000000000000000000000000000000000000000000000000000000
1111111101110010100101010011100100000000000000000000000000000000000000000000000000000000000000000000
1111111101111001000100100111111100000000000000000000000000000000000000000000000000000000000000000000
1111111101111010000110110010101100000000000000000000000000000000000000000000000000000000000000000000
101001011000001110001111000000000000000000000000000000000000000000000000000000000000000000000
11010000011101000100101100000000000000000000000000000000000000000000000000000000000000000
101101111110001101100101000000000000000000000000000000000000000000000000000000000000000000000
1111111100011101110010100001011100000000000000000000000000000000000000000000000000000000000000000000
1111111101000000010111000110000100000000000000000000000000000000000000000000000000000000000000000000
1111111100010010100001101011110100000000000000000000000000000000000000000000000000000000000000000000
10011011101011010011111100000000000000000000000000000000000000000000000000000000000000000000
11100101001110111011110000000000000000000000000000000000000000000000000000000000000000000000
100011001011000101111111000000000000000000000000000000000000000000000000000000000000000000000
11111110101001101111000100000000000000000000000000000000000000000000000000000000000000000000
1111111100011101010100011010010000000000000000000000000000000000000000000000000000000000000000000000
1111111110000110010011001000110100000000000000000000000000000000000000000000000000000000000000000000
10101000001111011101000100000000000000000000000000000000000000000000000000000000000000000000
100110111000100011110010000000000000000000000000000000000000000000000000000000000000
1111111101011011111010011001101100000000000000000000000000000000000000000000000000000000000000000000
1111111101100001100001110001110100000000000000000000000000000000000000000000000000000000000000000000
110111010100010101010111000000000000000000000000000000000000000000000000000000000000000
1010100111100010100110110000000000000000000000000000000000000000000000000000000000000000000
1111111110111000000110000100100110000000000000000000000000000000000000000000000000000000000000000000
10011110111000000000110100000000000000000000000000000000000000000000000000000000000000000000
10011111111010111011000000000000000000000000000000000000000000000000000000000000000000000000
1111111101010001111101100101010000000000000000000000000000000000000000000000000000000000000000000000
1111111101110111000000010010010000000000000000000000000000000000000000000000000000000000000000000000
10100100100101011011010000000000000000000000000000000000000000000000000000000000000000000
1111111100100001000000011011000100000000000000000000000000000000000000000000000000000000000000000000
11110011010001010110010000000000000000000000000000000000000000000000000000000000000000000
10100100100010011100010100000000000000000000000000000000000000000000000000000000000000000000
10111110100000110001111000000000000000000000000000000000000000000000000000000000000000000000
11010111011001101001111000000000000000000000000000000000000000000000000000000000000000000
1111111111000100100001010110000000000000000000000000000000000000000000000000000000000000000000000000
110111111101110011101000000000000000000000000000000000000000000000000000000000000000000
100111100001000100000011000000000000000000000000000000000000000000000000000000000000000000000
101000100100001111010100000000000000000000000000000000000000000000000000000000000000000000000
1111111101111001010001101101100000000000000000000000000000000000000000000000000000000000000000000000
10110001101010010011001100000000000000000000000000000000000000000000000000000000000000000000
1111111100110110111111101001100100000000000000000000000000000000000000000000000000000000000000000000
100000010101110110000000000000000000000000000000000000000000000000000000000000000000000000000
1110010011111001001000000000000000000000000000000000000000000000000000000000000000000000000
1111111111100100010001111111000011000000000000000000000000000000000000000000000000000000000000000000
1111111111100001101101111100011010100000000000000000000000000000000000000000000000000000000000000000
1111111110010111101001110000010100000000000000000000000000000000000000000000000000000000000000000000
1111111101000001111110100000010100000000000000000000000000000000000000000000000000000000000000000000
10011011110101111100110000000000000000000000000000000000000000000000000000000000000000000000
101110011100110101101100000000000000000000000000000000000000000000000000000000000000000000000
11111001111111101101111000000000000000000000000000000000000000000000000000000000000000000000
10010001010101010000011100000000000000000000000000000000000000000000000000000000000000000
101010011001011111111010000000000000000000000000000000000000000000000000000000000000000000000
1111111100101010110011110110001000000000000000000000000000000000000000000000000000000000000000000000
101101001110011000111010000000000000000000000000000000000000000000000000000000000000000000000
1111111110001010000001101001101110000000000000000000000000000000000000000000000000000000000000000000
11011110011100000011000100000000000000000000000000000000000000000000000000000000000000000000
101011101111001010011100000000000000000000000000000000000000000000000000000000000000000000000
1000100000010000011101000000000000000000000000000000000000000000000000000000000000000000000
111010110001000001010100000000000000000000000000000000000000000000000000000000000000000000
110011001110110001010000000000000000000000000000000000000000000000000000000000000000000000000
1111111100010101011001100100010000000000000000000000000000000000000000000000000000000000000000000000
11110100100100010000111100000000000000000000000000000000000000000000000000000000000000000000
110000010101011101110000000000000000000000000000000000000000000000000000000000000000000000000
10100110101011111111101100000000000000000000000000000000000000000000000000000000000000000000
1011111000001000011001110000000000000000000000000000000000000000000000000000000000000000000
1111111101101101111111101000000000000000000000000000000000000000000000000000000000000000000000000000
1011110101001000110100010000000000000000000000000000000000000000000000000000000000000000000
100010001011110100101001000000000000000000000000000000000000000000000000000000000000000000000
1111111110000110100010110111010000000000000000000000000000000000000000000000000000000000000000000000
1111111110000101000100110100000010000000000000000000000000000000000000000000000000000000000000000000
11001010100010101000000100000000000000000000000000000000000000000000000000000000000000000000
1111111101110111111000011110010100000000000000000000000000000000000000000000000000000000000000000000
1111111101100101000011101001011000000000000000000000000000000000000000000000000000000000000000000000
11100011011101110011011000000000000000000000000000000000000000000000000000000000000000000000
1111111101000100101101101111000100000000000000000000000000000000000000000000000000000000000000000000
1111111110010101000000010000001100000000000000000000000000000000000000000000000000000000000000000000
11001000010110010010010000000000000000000000000000000000000000000000000000000000000000000
1011000011111010110100000000000000000000000000000000000000000000000000000000000000000000000
1111111100011101100011011011111000000000000000000000000000000000000000000000000000000000000000000000
110011100100000011010001000000000000000000000000000000000000000000000000000000000000000000000
10010010101110101100110100000000000000000000000000000000000000000000000000000000000000000000
1111111101001011001001011111010100000000000000000000000000000000000000000000000000000000000000000000
101010011000110010100001000000000000000000000000000000000000000000000000000000000000000000
100110010010111010101101000000000000000000000000000000000000000000000000000000000000000
10000111000011100101011000000000000000000000000000000000000000000000000000000000000000000000
101010111010101011101111000000000000000000000000000000000000000000000000000000000000000000000
11110101000100111111100100000000000000000000000000000000000000000000000000000000000000000000
1110101010000111001001000000000000000000000000000000000000000000000000000000000000000
101010011011100010100101000000000000000000000000000000000000000000000000000000000000000000000
1111111101001110101000111100000100000000000000000000000000000000000000000000000000000000000000000000
101110000111000100010011000000000000000000000000000000000000000000000000000000000000000000000
1111111111010001100111011100100000000000000000000000000000000000000000000000000000000000000000000000
1111111100101000111011010110001000000000000000000000000000000000000000000000000000000000000000000000
100010011110111101011110000000000000000000000000000000000000000000000000000000000000000000000
110010101000000001111010000000000000000000000000000000000000000000000000000000000000000000000
100111011110110110111101000000000000000000000000000000000000000000000000000000000000000000000
11001010000110001001110000000000000000000000000000000000000000000000000000000000000000000000
1111111100110011101010110110011100000000000000000000000000000000000000000000000000000000000000000000
101111000110110111111100000000000000000000000000000000000000000000000000000000000000000000
100001110000001011011110000000000000000000000000000000000000000000000000000000000000000000
101110011010010010001010000000000000000000000000000000000000000000000000000000000000000000000
1111111111101111010110111100100100100000000000000000000000000000000000000000000000000000000000000000
1111111101111000100010000100011000000000000000000000000000000000000000000000000000000000000000000000
10111100000001000110011000000000000000000000000000000000000000000000000000000000000000000000
10110000111000001111101100000000000000000000000000000000000000000000000000000000000000000000
1100000011110100000110100000000000000000000000000000000000000000000000000000000000000000000
110100010100001100110011000000000000000000000000000000000000000000000000000000000000000000000
100000010100011000011110000000000000000000000000000000000000000000000000000000000000000000000
1111111110111010100100110101011110000000000000000000000000000000000000000000000000000000000000000000
10001000001101011100110100000000000000000000000000000000000000000000000000000000000000000000
11001111110100101010100100000000000000000000000000000000000000000000000000000000000000000000
100000010110110001111111000000000000000000000000000000000000000000000000000000000000000000000
11000101011111000111110100000000000000000000000000000000000000000000000000000000000000000000
1111111100010001000011010010101100000000000000000000000000000000000000000000000000000000000000000000
1111111100111110101101100101101100000000000000000000000000000000000000000000000000000000000000000000
11101110110010011010111100000000000000000000000000000000000000000000000000000000000000000000
10110000010000111011101000000000000000000000000000000000000000000000000000000000000000000000
11100011111001001101110100000000000000000000000000000000000000000000000000000000000000000
100011010000110101010001000000000000000000000000000000000000000000000000000000000000000000000
11101000000100101010111100000000000000000000000000000000000000000000000000000000000000000
11101011101001000010101100000000000000000000000000000000000000000000000000000000000000000000
10111101100110100000101000000000000000000000000000000000000000000000000000000000000000000000
1011100010001000111100110000000000000000000000000000000000000000000000000000000000000000000
1111111110000001000011000100110110000000000000000000000000000000000000000000000000000000000000000000
1111111111110000000110110011101000100000000000000000000000000000000000000000000000000000000000000000
101000011000011010000101000000000000000000000000000000000000000000000000000000000000000000000
1111111111011111111011101011101100000000000000000000000000000000000000000000000000000000000000000000
1111111110001011110101110001111110000000000000000000000000000000000000000000000000000000000000000000
1001110110101011111001000000000000000000000000000000000000000000000000000000000000000000000
1111111100100011100111001100110100000000000000000000000000000000000000000000000000000000000000000000
1111111111011000001001001110011100000000000000000000000000000000000000000000000000000000000000000000
1111111100010010110101100010110100000000000000000000000000000000000000000000000000000000000000000000
101010000101000110001110000000000000000000000000000000000000000000000000000000000000000000000
101000001101111101111000000000000000000000000000000000000000000000000000000000000000000000000
100011111100000111010111000000000000000000000000000000000000000000000000000000000000000000000
11110101011000001001110100000000000000000000000000000000000000000000000000000000000000000000
1111111111011100010110011100110011000000000000000000000000000000000000000000000000000000000000000000
1111111111110101101001100010110011110000000000000000000000000000000000000000000000000000000000000000
10110000110011110011101000000000000000000000000000000000000000000000000000000000000000000000
1111111100100001110001011010010100000000000000000000000000000000000000000000000000000000000000000000
10010000111101001101101000000000000000000000000000000000000000000000000000000000000000000000
101101010101010000001000000000000000000000000000000000000000000000000000000000000000000000000
1111111100110110000010010111101000000000000000000000000000000000000000000000000000000000000000000000
1111000110101010101001000000000000000000000000000000000000000000000000000000000000000000000
11010110000110000001010000000000000000000000000000000000000000000000000000000000000000000000
100000110110010011011011000000000000000000000000000000000000000000000000000000000000000000000
1111111100101111110100101001110000000000000000000000000000000000000000000000000000000000000000000000
1111111101010101000100111101010100000000000000000000000000000000000000000000000000000000000000000000
1111111110101100011110001101110110000000000000000000000000000000000000000000000000000000000000000000
1111111100101001010000000100101100000000000000000000000000000000000000000000000000000000000000000000
10010011001010110110111000000000000000000000000000000000000000000000000000000000000000000000
1110010101110111000010100000000000000000000000000000000000000000000000000000000000000000000
10010010111101000011101100000000000000000000000000000000000000000000000000000000000000000000
10001010011101111110101100000000000000000000000000000000000000000000000000000000000000
1100101001101011111011100000000000000000000000000000000000000000000000000000000000000000
11001001000110000100010000000000000000000000000000000000000000000000000000000000000000000000
101010100111000111110110000000000000000000000000000000000000000000000000000000000000000000
11001111110101010000000100000000000000000000000000000000000000000000000000000000000000000000
1111111111000110010101010011100111000000000000000000000000000000000000000000000000000000000000000000
1111111111000110101110001010010011000000000000000000000000000000000000000000000000000000000000000000
10111110001110011011010000000000000000000000000000000000000000000000000000000000000000000000
1111111110001010011101010100111110000000000000000000000000000000000000000000000000000000000000000000
1111111110101110001011101001110000000000000000000000000000000000000000000000000000000000000000000000
10100101110111110101011000000000000000000000000000000000000000000000000000000000000000000000
110000001100100111101101000000000000000000000000000000000000000000000000000000000000000000000
11100001001111111111100100000000000000000000000000000000000000000000000000000000000000000000
11011000001001001101100000000000000000000000000000000000000000000000000000000000000000000000
1111111110011110011101010000011010000000000000000000000000000000000000000000000000000000000000000000
10111010010111011101010100000000000000000000000000000000000000000000000000000000000000000000
1111111101011111111000100110100100000000000000000000000000000000000000000000000000000000000000000000
110000100111010010110011000000000000000000000000000000000000000000000000000000000000000000000
0
10001001000010010101011100000000000000000000000000000000000000000000000000000000000000000000
110001010011111101110110000000000000000000000000000000000000000000000000000000000000000000
1010111100011010001101000000000000000000000000000000000000000000000000000000000000000000000
1111111110111000001000111011001100000000000000000000000000000000000000000000000000000000000000000000
1111111100100011100011011101001100000000000000000000000000000000000000000000000000000000000000000000
1010100010010100001110010000000000000000000000000000000000000000000000000000000000000000000
1111111111000010100110111111000000000000000000000000000000000000000000000000000000000000000000000000
110000000000100100001101000000000000000000000000000000000000000000000000000000000000000000000
1111111110111100111010001100101110000000000000000000000000000000000000000000000000000000000000000000
1111111111000010011000011100101101000000000000000000000000000000000000000000000000000000000000000000
10101000100000101001000000000000000000000000000000000000000000000000000000000000000000000000
11001101100001001111110100000000000000000000000000000000000000000000000000000000000000000000
1111111101011001101100100100010100000000000000000000000000000000000000000000000000000000000000000000
10000100100010011001111000000000000000000000000000000000000000000000000000000000000000000000
1111111101000100101010000110000100000000000000000000000000000000000000000000000000000000000000000000
1110100010010111101100110000000000000000000000000000000000000000000000000000000000000000000
101001100001110001011001000000000000000000000000000000000000000000000000000000000000000000000
10011011010000100111010100000000000000000000000000000000000000000000000000000000000000000000
100100111110011110110110000000000000000000000000000000000000000000000000000000000000000000000
10010000100111101101111100000000000000000000000000000000000000000000000000000000000000000
1010100100110111011110110000000000000000000000000000000000000000000000000000000000000000000
1111111111101110011101010110110100100000000000000000000000000000000000000000000000000000000000000000
1110100001010001000000110000000000000000000000000000000000000000000000000000000000000000000
10101010100101001110101100000000000000000000000000000000000000000000000000000000000000000000
11000100101100111100001000000000000000000000000000000000000000000000000000000000000000000000
100110110111100011010011000000000000000000000000000000000000000000000000000000000000000000
1111111111100111100001101011100010000000000000000000000000000000000000000000000000000000000000000000
101010101110100011011011000000000000000000000000000000000000000000000000000000000000000000000
110010101100110111101000000000000000000000000000000000000000000000000000000000000000000000000
10111101000001011001110000000000000000000000000000000000000000000000000000000000000000000000
10010000010000100110000100000000000000000000000000000000000000000000000000000000000000000000
1111111111101000001001100101010011000000000000000000000000000000000000000000000000000000000000000000
1000000010001100111010000000000000000000000000000000000000000000000000000000000000000000000
101000011000101011100010000000000000000000000000000000000000000000000000000000000000000000000
11101111011111000001111000000000000000000000000000000000000000000000000000000000000000000000
11001000110011000011110000000000000000000000000000000000000000000000000000000000000000000000
1111111111001001111001101011101101000000000000000000000000000000000000000000000000000000000000000000
11011111010010101000010000000000000000000000000000000000000000000000000000000000000000000000
1111111111101111000110011010110101100000000000000000000000000000000000000000000000000000000000000000
1111111110111001000001001001011100000000000000000000000000000000000000000000000000000000000000000000
1111111110100001010100010000111010000000000000000000000000000000000000000000000000000000000000000000
10011010011110110101001000000000000000000000000000000000000000000000000000000000000000000000
1111111110101101110111011100111100000000000000000000000000000000000000000000000000000000000000000000
1111110010001010011010110000000000000000000000000000000000000000000000000000000000000000000
11111110111000000111100000000000000000000000000000000000000000000000000000000000000000000000
1111111110110110001001110110111000000000000000000000000000000000000000000000000000000000000000000000
1111111110010000001100110010110000000000000000000000000000000000000000000000000000000000000000000000
1111111101010010001110100100100000000000000000000000000000000000000000000000000000000000000000000000
1111111111100001000100101110010100000000000000000000000000000000000000000000000000000000000000000000
1111111110111010000011001011001000000000000000000000000000000000000000000000000000000000000000000000
1010100111001000000101010000000000000000000000000000000000000000000000000000000000000000000
1111111110111100111101011101100000000000000000000000000000000000000000000000000000000000000000000000
1111111111101111011110001010111110000000000000000000000000000000000000000000000000000000000000000000
11010110010100010111011100000000000000000000000000000000000000000000000000000000000000000000
100101000101010000001011000000000000000000000000000000000000000000000000000000000000000000000
101110101101111101111010000000000000000000000000000000000000000000000000000000000000000000
1111111111001000101110000101111000000000000000000000000000000000000000000000000000000000000000000000
1111111111001010000001000100100001000000000000000000000000000000000000000000000000000000000000000000
1111111111001001110110001111100101000000000000000000000000000000000000000000000000000000000000000000
1000111000010101100110010000000000000000000000000000000000000000000000000000000000000000000
1111111110111011111010011100010010000000000000000000000000000000000000000000000000000000000000000000
111100111001101110111000000000000000000000000000000000000000000000000000000000000000000000
1111111111000011101010010001000100000000000000000000000000000000000000000000000000000000000000000000
1101010010010110010110010000000000000000000000000000000000000000000000000000000000000000000
1111111101011100001010010100000100000000000000000000000000000000000000000000000000000000000000000000
1111111101010110010110011000010000000000000000000000000000000000000000000000000000000000000000000000
100101010100000110101111000000000000000000000000000000000000000000000000000000000000000000000
101000101111100000100101000000000000000000000000000000000000000000000000000000000000000000000
1111111101110110000110001010001000000000000000000000000000000000000000000000000000000000000000000000
11110110000101011000110100000000000000000000000000000000000000000000000000000000000000000000
100001011110010100001101000000000000000000000000000000000000000000000000000000000000000000000
101100101010011111000000000000000000000000000000000000000000000000000000000000000000000000000
10111001101111010000010100000000000000000000000000000000000000000000000000000000000000000000
1111111101001110001101001011110000000000000000000000000000000000000000000000000000000000000000000000
1111111100100010110111110101110000000000000000000000000000000000000000000000000000000000000000000000
10001111000101110000010100000000000000000000000000000000000000000000000000000000000000000
1111111111111011101001011010101000100000000000000000000000000000000000000000000000000000000000000000
1101110010010101011100000000000000000000000000000000000000000000000000000000000000000000000
11111111101011100001000000000000000000000000000000000000000000000000000000000000000000000000
1111111100011111000011011101111100000000000000000000000000000000000000000000000000000000000000000000
1111111110011100000111011101111110000000000000000000000000000000000000000000000000000000000000000000
1110010001110011100111000000000000000000000000000000000000000000000000000000000000000000000
10101100110100101100111000000000000000000000000000000000000000000000000000000000000000000
1111111100101101110010111001000000000000000000000000000000000000000000000000000000000000000000000000
110100100010111101101111000000000000000000000000000000000000000000000000000000000000000000000
100111100100100011000101000000000000000000000000000000000000000000000000000000000000000000000
1111111110111100010000110110001100000000000000000000000000000000000000000000000000000000000000000000
101111100011110001110110000000000000000000000000000000000000000000000000000000000000000000000
101010011000110111001110000000000000000000000000000000000000000000000000000000000000000000000
1111111110010111001000111011111100000000000000000000000000000000000000000000000000000000000000000000
101111011111110100010111000000000000000000000000000000000000000000000000000000000000000000000
1111111101101110110000110111111100000000000000000000000000000000000000000000000000000000000000000000
111001010000101000110010000000000000000000000000000000000000000000000000000000000000000000
1111111100100010010100001101011000000000000000000000000000000000000000000000000000000000000000000000
1111111101100011110011010100100100000000000000000000000000000000000000000000000000000000000000000000
1100000011011000010111110000000000000000000000000000000000000000000000000000000000000000000
101110010101101001100001000000000000000000000000000000000000000000000000000000000000000000000
1101001111001000000100010000000000000000000000000000000000000000000000000000000000000000
11100100000111101001101000000000000000000000000000000000000000000000000000000000000000000000
1111111100110110010011101100011100000000000000000000000000000000000000000000000000000000000000000000
1111111100100001000011001011111100000000000000000000000000000000000000000000000000000000000000000000
1111111101100110110010011110001100000000000000000000000000000000000000000000000000000000000000000000
101100101001111111010101000000000000000000000000000000000000000000000000000000000000000000
1011000001010111001111110000000000000000000000000000000000000000000000000000000000000000000
1111111110010101100110101110101110000000000000000000000000000000000000000000000000000000000000000000
101001101101010010011101000000000000000000000000000000000000000000000000000000000000000000000
1111111110001110011000111010110100000000000000000000000000000000000000000000000000000000000000000000
1101101011111111010110110000000000000000000000000000000000000000000000000000000000000000000
11101000011010111110111100000000000000000000000000000000000000000000000000000000000000000000
10010101010011011110101100000000000000000000000000000000000000000000000000000000000000000000
100001101000111011011111000000000000000000000000000000000000000000000000000000000000000000000
111100100001010010100110000000000000000000000000000000000000000000000000000000000000000000
100001000011000101100111000000000000000000000000000000000000000000000000000000000000000000000
1111111111011110010100110000100101000000000000000000000000000000000000000000000000000000000000000000
10010101010000100001000100000000000000000000000000000000000000000000000000000000000000000000
1111111110000110110111001110001100000000000000000000000000000000000000000000000000000000000000000000
1111111110100110011100000000001010000000000000000000000000000000000000000000000000000000000000000000
1111111111110001011110000110001001100000000000000000000000000000000000000000000000000000000000000000
11101100011111000000011000000000000000000000000000000000000000000000000000000000000000000
11000011000010011100100000000000000000000000000000000000000000000000000000000000000000000000
10001011011010000111010100000000000000000000000000000000000000000000000000000000000000000000
1111111100101111010111101110100100000000000000000000000000000000000000000000000000000000000000000000
1111111110011110111100010110011010000000000000000000000000000000000000000000000000000000000000000000
1111111111000100111010001001001101000000000000000000000000000000000000000000000000000000000000000000
11100101000010110101111100000000000000000000000000000000000000000000000000000000000000000000
1000101000000110100001100000000000000000000000000000000000000000000000000000000000000000
101110110001110110001111000000000000000000000000000000000000000000000000000000000000000000
1111111100111111101110000110101000000000000000000000000000000000000000000000000000000000000000000000
100001100001110000010101000000000000000000000000000000000000000000000000000000000000000000000
11011101001000101101111000000000000000000000000000000000000000000000000000000000000000000000
110001110111010001101011000000000000000000000000000000000000000000000000000000000000000000000
1111111100001111100110110100010100000000000000000000000000000000000000000000000000000000000000000000
1111111100010110010011111000110000000000000000000000000000000000000000000000000000000000000000000000
1101011110010111101001010000000000000000000000000000000000000000000000000000000000000000000
1111111111101110010100010010000000100000000000000000000000000000000000000000000000000000000000000000
100100000111111110011110000000000000000000000000000000000000000000000000000000000000000000000
1111111110001110011011101010100100000000000000000000000000000000000000000000000000000000000000000000
1111111101101111010010011010001100000000000000000000000000000000000000000000000000000000000000000000
1111111110101010110001000101101000000000000000000000000000000000000000000000000000000000000000000000
1111111100100101010100100011110000000000000000000000000000000000000000000000000000000000000000000000
100100111111101000111110000000000000000000000000000000000000000000000000000000000000000000000
11001111001010111100110100000000000000000000000000000000000000000000000000000000000000000000
1111111100100110111011101111111100000000000000000000000000000000000000000000000000000000000000000000
11011101000101010011001000000000000000000000000000000000000000000000000000000000000000000000
101111001001001010111100000000000000000000000000000000000000000000000000000000000000000000000
1111111111111011111100111100000000010000000000000000000000000000000000000000000000000000000000000000
1111111111001111001110000010000001000000000000000000000000000000000000000000000000000000000000000000
1111111111111101100011010011010110001100000000000000000000000000000000000000000000000000000000000000
110000110001101110101010000000000000000000000000000000000000000000000000000000000000000000000
1111111110100001101101000001011010000000000000000000000000000000000000000000000000000000000000000000
1111111110101000010101001111001100000000000000000000000000000000000000000000000000000000000000000000
100110011111111001010010000000000000000000000000000000000000000000000000000000000000000000000
101111001110010000110010000000000000000000000000000000000000000000000000000000000000000000000
1111111101010111011001000110010100000000000000000000000000000000000000000000000000000000000000000000
10111101110111011000111100000000000000000000000000000000000000000000000000000000000000000
1111111100101100111000111011010100000000000000000000000000000000000000000000000000000000000000000000
11111111111111111000111000000000000000000000000000000000000000000000000000000000000000000000
1111111111010101011010100001111011000000000000000000000000000000000000000000000000000000000000000000
1111111111011000010001110100100010000000000000000000000000000000000000000000000000000000000000000000
101000111111010101000111000000000000000000000000000000000000000000000000000000000000000000000
1111111111110110000010111111100101010000000000000000000000000000000000000000000000000000000000000000
11100100010001001100101000000000000000000000000000000000000000000000000000000000000000000000
1111111110001001010010011110100000000000000000000000000000000000000000000000000000000000000000000000
11111001001100101010110000000000000000000000000000000000000000000000000000000000000000000000
11101000110110101100011000000000000000000000000000000000000000000000000000000000000000000000
110010100111101101000111000000000000000000000000000000000000000000000000000000000000000000000
1111111100010111011111001000001000000000000000000000000000000000000000000000000000000000000000000000
1111111111000111101101110100110110000000000000000000000000000000000000000000000000000000000000000000
11101001100111111110001000000000000000000000000000000000000000000000000000000000000000000000
1011100110001001111011110000000000000000000000000000000000000000000000000000000000000000000
100110011110111000011011000000000000000000000000000000000000000000000000000000000000000000000
1111111111010001000101111000000110000000000000000000000000000000000000000000000000000000000000000000
11011001101111110001010100000000000000000000000000000000000000000000000000000000000000000000
100011100000111011100110000000000000000000000000000000000000000000000000000000000000000000000
1111111111000101110001100110010101000000000000000000000000000000000000000000000000000000000000000000
100001001000110110011111000000000000000000000000000000000000000000000000000000000000000000000
1111111111100111111110010000001100100000000000000000000000000000000000000000000000000000000000000000
1111111100111010111110001011010100000000000000000000000000000000000000000000000000000000000000000000
110011010011101000000011000000000000000000000000000000000000000000000000000000000000000000000
11100110000000010000001000000000000000000000000000000000000000000000000000000000000000000000
1111111101001100111000001001011000000000000000000000000000000000000000000000000000000000000000000000
101011110010011101010100000000000000000000000000000000000000000000000000000000000000000000000
110000111011101000100010000000000000000000000000000000000000000000000000000000000000000000000
1111111110101101110001110101000100000000000000000000000000000000000000000000000000000000000000000000
1111111111001010001001101100101000000000000000000000000000000000000000000000000000000000000000000000
10100000001101111001001000000000000000000000000000000000000000000000000000000000000000000000
1111111100011010100111000111111000000000000000000000000000000000000000000000000000000000000000000000
10101111010010011010101000000000000000000000000000000000000000000000000000000000000000000000
101010111111011000011101000000000000000000000000000000000000000000000000000000000000000000
10001010101100110011101100000000000000000000000000000000000000000000000000000000000000000000
1101110011101101111010010000000000000000000000000000000000000000000000000000000000000000000
110011111111101111111100000000000000000000000000000000000000000000000000000000000000000000000
1111111111100010100011011100110010100000000000000000000000000000000000000000000000000000000000000000
101000001100100110100011000000000000000000000000000000000000000000000000000000000000000000000
100010011001010110011101000000000000000000000000000000000000000000000000000000000000000000000
101011110010110011001110000000000000000000000000000000000000000000000000000000000000000000000
1111111111001100101001001110001100000000000000000000000000000000000000000000000000000000000000000000
101110011100001100100111000000000000000000000000000000000000000000000000000000000000000000000
1010110010000011100101010000000000000000000000000000000000000000000000000000000000000000000
100001100001001000000110000000000000000000000000000000000000000000000000000000000000000000000
101110111010110111001110000000000000000000000000000000000000000000000000000000000000000000
100010100001010011011101000000000000000000000000000000000000000000000000000000000000000000
110011001010111110000111000000000000000000000000000000000000000000000000000000000000000000
10010000011111111000101000000000000000000000000000000000000000000000000000000000000000000000
1111111101011010001000000000011000000000000000000000000000000000000000000000000000000000000000000000
1111111101000011000101111011010000000000000000000000000000000000000000000000000000000000000000000000
1111111101001000000100100011000100000000000000000000000000000000000000000000000000000000000000000000
1111111110010110011001001001110100000000000000000000000000000000000000000000000000000000000000000000
1111111101101011110001010011011000000000000000000000000000000000000000000000000000000000000000000000
1111111100010101010001111111001100000000000000000000000000000000000000000000000000000000000000000000
1111111101110111111110000000101000000000000000000000000000000000000000000000000000000000000000000000
1111111110101101011000001000001000000000000000000000000000000000000000000000000000000000000000000000
1111111110100010001101000000001010000000000000000000000000000000000000000000000000000000000000000000
1111111110000101010010110101011110000000000000000000000000000000000000000000000000000000000000000000
1111111101111101010101111000011100000000000000000000000000000000000000000000000000000000000000000000
1111111101111001011110000101111100000000000000000000000000000000000000000000000000000000000000000000
11001110000011000000101000000000000000000000000000000000000000000000000000000000000000000000
11101100101111111110000000000000000000000000000000000000000000000000000000000000000000000000
1111111110001111001011100000010110000000000000000000000000000000000000000000000000000000000000000000
1111111111010101010101001100111100000000000000000000000000000000000000000000000000000000000000000000
10000001001101001001001000000000000000000000000000000000000000000000000000000000000000000
1111111100110110011011111101011000000000000000000000000000000000000000000000000000000000000000000000
101010000010010111011100000000000000000000000000000000000000000000000000000000000000000000000
1111111111001110101000011111010100000000000000000000000000000000000000000000000000000000000000000000
100000110110111101000011000000000000000000000000000000000000000000000000000000000000000000000
1111111101000101100100110111111100000000000000000000000000000000000000000000000000000000000000000000
100100100110101010001111000000000000000000000000000000000000000000000000000000000000000000000
1111111110110110001010011011001110000000000000000000000000000000000000000000000000000000000000000000
1111111111010000010110000011001011000000000000000000000000000000000000000000000000000000000000000000
100100001100000111111000000000000000000000000000000000000000000000000000000000000000000000000
1100111100000010001100100000000000000000000000000000000000000000000000000000000000000000000
10100111100100000100101000000000000000000000000000000000000000000000000000000000000000000000
11011011111100111011100100000000000000000000000000000000000000000000000000000000000000000000
1111111101010000001110101111011100000000000000000000000000000000000000000000000000000000000000000000
10101011010101100101101000000000000000000000000000000000000000000000000000000000000000000000
11010111101011100111110100000000000000000000000000000000000000000000000000000000000000000000
1111111100101001000111000010000100000000000000000000000000000000000000000000000000000000000000000000
110100010101101100100001000000000000000000000000000000000000000000000000000000000000000000000
1111111101110101010010111111111000000000000000000000000000000000000000000000000000000000000000000000
101110000110000110010111000000000000000000000000000000000000000000000000000000000000000000000
1111111100101100110000011001011000000000000000000000000000000000000000000000000000000000000000000000
10100000111001110111111100000000000000000000000000000000000000000000000000000000000000000000
110001110100100011001110000000000000000000000000000000000000000000000000000000000000000000000
1111111111100000000011000101101110100000000000000000000000000000000000000000000000000000000000000000
1111111101010010100101110111100100000000000000000000000000000000000000000000000000000000000000000000
10001100000110011011110100000000000000000000000000000000000000000000000000000000000000000
1110110101110100101011100000000000000000000000000000000000000000000000000000000000000000000
101010100110000100011111000000000000000000000000000000000000000000000000000000000000000000
1111111100001110000101100001010000000000000000000000000000000000000000000000000000000000000000000000
1111111101000100110101001001011100000000000000000000000000000000000000000000000000000000000000000000
101001101101100110001101000000000000000000000000000000000000000000000000000000000000000000
11000100001111001000011000000000000000000000000000000000000000000000000000000000000000000000
1111111101000000111101011000111000000000000000000000000000000000000000000000000000000000000000000000
101010001001101111110101000000000000000000000000000000000000000000000000000000000000000000000
11001100110111100001000100000000000000000000000000000000000000000000000000000000000000000000
101000010001000010101111000000000000000000000000000000000000000000000000000000000000000000000
1111111111010101111011111111100111000000000000000000000000000000000000000000000000000000000000000000
101111101111001101100000000000000000000000000000000000000000000000000000000000000000000000000
1111111111110010100111111010111110100000000000000000000000000000000000000000000000000000000000000000
1111111110100110001010011100011100000000000000000000000000000000000000000000000000000000000000000000
101110011111001111010011000000000000000000000000000000000000000000000000000000000000000000000
1111111101111000101011101110010000000000000000000000000000000000000000000000000000000000000000000000
1111111100001110100001010111000100000000000000000000000000000000000000000000000000000000000000000000
11011001001101011001000000000000000000000000000000000000000000000000000000000000000000000000
101000010010111001110001000000000000000000000000000000000000000000000000000000000000000000000
11011011011011110011110100000000000000000000000000000000000000000000000000000000000000000000
101010100100010010000000000000000000000000000000000000000000000000000000000000000000000000000
1010101011110100100000010000000000000000000000000000000000000000000000000000000000000000000
100111101100011110101110000000000000000000000000000000000000000000000000000000000000000000000
1111111100110011110000110101101000000000000000000000000000000000000000000000000000000000000000000000
11010011101000011011111100000000000000000000000000000000000000000000000000000000000000000000
1111111110100111010111001110011110000000000000000000000000000000000000000000000000000000000000000000
1100111001001011100000110000000000000000000000000000000000000000000000000000000000000000000
1111111100101011111011001100110000000000000000000000000000000000000000000000000000000000000000000000
1111111111000101111110000101111101000000000000000000000000000000000000000000000000000000000000000000
100111001001010100100001000000000000000000000000000000000000000000000000000000000000000000000
11111100001111001011000100000000000000000000000000000000000000000000000000000000000000000000
10010001101011010001101000000000000000000000000000000000000000000000000000000000000000000000
1111111101100111100000111000100100000000000000000000000000000000000000000000000000000000000000000000
100110101000011111000100000000000000000000000000000000000000000000000000000000000000000000000
1111111111100101111011110101001110100000000000000000000000000000000000000000000000000000000000000000
1111111101001000100011001100001100000000000000000000000000000000000000000000000000000000000000000000
101111101110000010111111000000000000000000000000000000000000000000000000000000000000000000000
1111111111000000010101111001011110000000000000000000000000000000000000000000000000000000000000000000
1111111101010101111011010100110000000000000000000000000000000000000000000000000000000000000000000000
1111111111000001101000110011001000000000000000000000000000000000000000000000000000000000000000000000
110011011010101101110001000000000000000000000000000000000000000000000000000000000000000000000
1111111100110100101100110000101100000000000000000000000000000000000000000000000000000000000000000000
11010111101011011101111100000000000000000000000000000000000000000000000000000000000000000000
101111100101111000000001000000000000000000000000000000000000000000000000000000000000000000
100111001001101111001000000000000000000000000000000000000000000000000000000000000000000000000
11110110011011110100010100000000000000000000000000000000000000000000000000000000000000000
1111111100011010100110001000101100000000000000000000000000000000000000000000000000000000000000000000
11101010011101111010010000000000000000000000000000000000000000000000000000000000000000000000
101010100100011011001011000000000000000000000000000000000000000000000000000000000000000000000
10100010101011100000001100000000000000000000000000000000000000000000000000000000000000000000
1111111101011111100110101010011000000000000000000000000000000000000000000000000000000000000000000000
101010101011100100011000000000000000000000000000000000000000000000000000000000000000000000
111101000100101010110001000000000000000000000000000000000000000000000000000000000000000000
101110011100111011100100000000000000000000000000000000000000000000000000000000000000000000000
100011011000010111110101000000000000000000000000000000000000000000000000000000000000000000000
1111111111100100110110001001000111000000000000000000000000000000000000000000000000000000000000000000
1000101010101010001011010000000000000000000000000000000000000000000000000000000000000000000
11010110010001011000001100000000000000000000000000000000000000000000000000000000000000000000
1001011000110001000110000000000000000000000000000000000000000000000000000000000000000000000
1111111111110111100010001000010010000000000000000000000000000000000000000000000000000000000000000000
1111111111101111110110111101111001000000000000000000000000000000000000000000000000000000000000000000
10000110010001110001100000000000000000000000000000000000000000000000000000000000000000000
1111111100001101101111010100100100000000000000000000000000000000000000000000000000000000000000000000
1111111100101101110010110010110000000000000000000000000000000000000000000000000000000000000000000000
1111001110011011000111010000000000000000000000000000000000000000000000000000000000000000000
100100001111001100000110000000000000000000000000000000000000000000000000000000000000000000
10011100000000010011101100000000000000000000000000000000000000000000000000000000000000000
1111111111001110101001100001001001000000000000000000000000000000000000000000000000000000000000000000
110111100001101101000011000000000000000000000000000000000000000000000000000000000000000000
10010001111111110100110000000000000000000000000000000000000000000000000000000000000000000000
101001011101111001100001000000000000000000000000000000000000000000000000000000000000000000000
101001111011000001100001000000000000000000000000000000000000000000000000000000000000000000000
100111010011000101011010000000000000000000000000000000000000000000000000000000000000000000000
11101001001111000001000100000000000000000000000000000000000000000000000000000000000000000000
10000011000100001011010000000000000000000000000000000000000000000000000000000000000000000000
110010010000010101110010000000000000000000000000000000000000000000000000000000000000000000000
1101000010000110000100000000000000000000000000000000000000000000000000000000000000000000000
1111111101010011011011100111100100000000000000000000000000000000000000000000000000000000000000000000
101001110010110101100101000000000000000000000000000000000000000000000000000000000000000000000
101100100100000010001101000000000000000000000000000000000000000000000000000000000000000000000
1111111110000100001011110001000010000000000000000000000000000000000000000000000000000000000000000000
1111111101001010110111100110100100000000000000000000000000000000000000000000000000000000000000000000
101011111111101101111001000000000000000000000000000000000000000000000000000000000000000000000
1111111100101101111010100000100000000000000000000000000000000000000000000000000000000000000000000000
101010110101101011001001000000000000000000000000000000000000000000000000000000000000000000000
1111111100101000010110001100110000000000000000000000000000000000000000000000000000000000000000000000
1101101011101101111110000000000000000000000000000000000000000000000000000000000000000000000
1111111101011101011011111110010100000000000000000000000000000000000000000000000000000000000000000000
1111111100101110110111010011111100000000000000000000000000000000000000000000000000000000000000000000
1110100001010101001011000000000000000000000000000000000000000000000000000000000000000000000
1111111100011100000010011010101100000000000000000000000000000000000000000000000000000000000000000000
1111111110110111111110001100001110000000000000000000000000000000000000000000000000000000000000000000
101111011111101100100001000000000000000000000000000000000000000000000000000000000000000000000
1010001011011011111001010000000000000000000000000000000000000000000000000000000000000000000
1111111110011111110011011001100000000000000000000000000000000000000000000000000000000000000000000000
1111111101101101011010011111001000000000000000000000000000000000000000000000000000000000000000000000
1111111111111011110010001011010010001000000000000000000000000000000000000000000000000000000000000000
1111111110111001011001111011000000000000000000000000000000000000000000000000000000000000000000000000
1010001000001000111011110000000000000000000000000000000000000000000000000000000000000000000
100010011011001011100101000000000000000000000000000000000000000000000000000000000000000000000
1111111111000101101011111100101011000000000000000000000000000000000000000000000000000000000000000000
110010001000011111010011000000000000000000000000000000000000000000000000000000000000000000000
1111111111111110000111001001110110110000000000000000000000000000000000000000000000000000000000000000
101100001101000011111100000000000000000000000000000000000000000000000000000000000000000000000
100010000000001111100100000000000000000000000000000000000000000000000000000000000000000000000
110000000110110110110011000000000000000000000000000000000000000000000000000000000000000000000
11100111110011100010000000000000000000000000000000000000000000000000000000000000000000000000
101111110001111100001001000000000000000000000000000000000000000000000000000000000000000000000
100111111001110011110101000000000000000000000000000000000000000000000000000000000000000000000
1111111101011001111010101111000100000000000000000000000000000000000000000000000000000000000000000000
