101000001010111011100011000000000000000000000000000000000000000000000000000000000000000000000
101100111011101111111010000000000000000000000000000000000000000000000000000000000000000000000
1111111101100001110111011011010100000000000000000000000000000000000000000000000000000000000000000000
11001100111110100100010100000000000000000000000000000000000000000000000000000000000000000000
10001100010010000110101100000000000000000000000000000000000000000000000000000000000000000000
1111111110010100101110111111011110000000000000000000000000000000000000000000000000000000000000000000
110101010111110111011110000000000000000000000000000000000000000000000000000000000000000000000
11000000100011100011110100000000000000000000000000000000000000000000000000000000000000000000
101001110000101000010010000000000000000000000000000000000000000000000000000000000000000000000
1011000110010000101011010000000000000000000000000000000000000000000000000000000000000000000
1111111110100010101100100000101100000000000000000000000000000000000000000000000000000000000000000000
1000100010110001010011110000000000000000000000000000000000000000000000000000000000000000000
1001110110101110010000100000000000000000000000000000000000000000000000000000000000000000
1111111110101110001100100101101010000000000000000000000000000000000000000000000000000000000000000000
10011010110100101011000000000000000000000000000000000000000000000000000000000000000000000000
1111111101101001110100011111010100000000000000000000000000000000000000000000000000000000000000000000
11001101100101110010011100000000000000000000000000000000000000000000000000000000000000000000
110011001010001110000000000000000000000000000000000000000000000000000000000000000000000000000
1101110101000101010110110000000000000000000000000000000000000000000000000000000000000000000
1100000101010111001110000000000000000000000000000000000000000000000000000000000000000000000
1111111111000101011100000000110010000000000000000000000000000000000000000000000000000000000000000000
1001111110101111001100100000000000000000000000000000000000000000000000000000000000000000000
11110010011111000100010000000000000000000000000000000000000000000000000000000000000000000000
1111111100101101110110011010101000000000000000000000000000000000000000000000000000000000000000000000
10110111011101111010010100000000000000000000000000000000000000000000000000000000000000000000
100110100011000001110111000000000000000000000000000000000000000000000000000000000000000000000
110000111010001010000001000000000000000000000000000000000000000000000000000000000000000000000
11101010110100001011000100000000000000000000000000000000000000000000000000000000000000000000
11011101100111011010010100000000000000000000000000000000000000000000000000000000000000000
10000101001110000011101100000000000000000000000000000000000000000000000000000000000000000000
1111111100101111101001010011110000000000000000000000000000000000000000000000000000000000000000000000
110010100011110111011011000000000000000000000000000000000000000000000000000000000000000000000
11010111100001000000100000000000000000000000000000000000000000000000000000000000000000000000
1111101111000010011100010000000000000000000000000000000000000000000000000000000000000000000
1111111111110010111000010101110001000000000000000000000000000000000000000000000000000000000000000000
101111010011101111101111000000000000000000000000000000000000000000000000000000000000000000000
101001111101110101100111000000000000000000000000000000000000000000000000000000000000000000000
11000001011110101010000000000000000000000000000000000000000000000000000000000000000000000000
1111111101101011111000111001011000000000000000000000000000000000000000000000000000000000000000000000
1111111110000101011001000110010110000000000000000000000000000000000000000000000000000000000000000000
11100111111110110010010000000000000000000000000000000000000000000000000000000000000000000000
11000011000111110001101000000000000000000000000000000000000000000000000000000000000000000000
11111001110110101101001000000000000000000000000000000000000000000000000000000000000000000000
10100011010111111010111100000000000000000000000000000000000000000000000000000000000000000000
100101100110111011010000000000000000000000000000000000000000000000000000000000000000000000000
1111111100101110101111100001110000000000000000000000000000000000000000000000000000000000000000000000
11001111000100111100100000000000000000000000000000000000000000000000000000000000000000000
10010101000000111111110000000000000000000000000000000000000000000000000000000000000000000000
1111111111100001110011100011011110000000000000000000000000000000000000000000000000000000000000000000
1111111100101010111010001101110100000000000000000000000000000000000000000000000000000000000000000000
110110100000001111101111000000000000000000000000000000000000000000000000000000000000000000000
101111000011111100111000000000000000000000000000000000000000000000000000000000000000000000000
100011110000010011001100000000000000000000000000000000000000000000000000000000000000000000000
100011000110111100001010000000000000000000000000000000000000000000000000000000000000000000000
101110111010111011111011000000000000000000000000000000000000000000000000000000000000000000000
1011001011000000111111000000000000000000000000000000000000000000000000000000000000000000000
110011011100100110100110000000000000000000000000000000000000000000000000000000000000000000000
101111000001011000000010000000000000000000000000000000000000000000000000000000000000000000000
10111110110101111000100000000000000000000000000000000000000000000000000000000000000000000000
110001011101111010000001000000000000000000000000000000000000000000000000000000000000000000000
11101110111110110110101100000000000000000000000000000000000000000000000000000000000000000000
100100001100100010010000000000000000000000000000000000000000000000000000000000000000000000000
110101001011111000101001000000000000000000000000000000000000000000000000000000000000000
10111001111000100111111000000000000000000000000000000000000000000000000000000000000000000000
1111111111101010000101000111001011000000000000000000000000000000000000000000000000000000000000000000
1111111111100100001100100001110000000000000000000000000000000000000000000000000000000000000000000000
1111111101110001101001100010001000000000000000000000000000000000000000000000000000000000000000000000
1111111110001101001000010011111000000000000000000000000000000000000000000000000000000000000000000000
11001111011011000101111100000000000000000000000000000000000000000000000000000000000000000000
10110011011000101110101100000000000000000000000000000000000000000000000000000000000000000000
1111111110101101111010001100010000000000000000000000000000000000000000000000000000000000000000000000
1111111111111000000001110011100111110000000000000000000000000000000000000000000000000000000000000000
101101100101111101110000000000000000000000000000000000000000000000000000000000000000000000000
10101100110100100101101000000000000000000000000000000000000000000000000000000000000000000000
110010010111110111010000000000000000000000000000000000000000000000000000000000000000000000000
1111111101101011100101000100001000000000000000000000000000000000000000000000000000000000000000000000
100111011100011000011111000000000000000000000000000000000000000000000000000000000000000000000
1111111110010000001001011011001010000000000000000000000000000000000000000000000000000000000000000000
11100111010001100101100000000000000000000000000000000000000000000000000000000000000000000000
1101111101110101111001010000000000000000000000000000000000000000000000000000000000000000000
1111111110001000011000101101001110000000000000000000000000000000000000000000000000000000000000000000
1111111101110110011011110001111100000000000000000000000000000000000000000000000000000000000000000000
1001110101100111101110000000000000000000000000000000000000000000000000000000000000000000000
1111111110010000101101100100010110000000000000000000000000000000000000000000000000000000000000000000
1101101100001001100011100000000000000000000000000000000000000000000000000000000000000000000
110001000100101000010011000000000000000000000000000000000000000000000000000000000000000000000
111110101110000111100000000000000000000000000000000000000000000000000000000000000000000000
110101011111111010011010000000000000000000000000000000000000000000000000000000000000000000000
101101110101100011100010000000000000000000000000000000000000000000000000000000000000000000000
1111111110100100000000111111101000000000000000000000000000000000000000000000000000000000000000000000
1000000001111001100001110000000000000000000000000000000000000000000000000000000000000000000
1111111101101000101101100101100100000000000000000000000000000000000000000000000000000000000000000000
10001101101010001001001000000000000000000000000000000000000000000000000000000000000000000000
1111111111011100001001111001000001000000000000000000000000000000000000000000000000000000000000000000
100000101011001001110011000000000000000000000000000000000000000000000000000000000000000000000
1111111111100000011010001001010100100000000000000000000000000000000000000000000000000000000000000000
100011011011001010011010000000000000000000000000000000000000000000000000000000000000000000
11001000010110100011110100000000000000000000000000000000000000000000000000000000000000000000
100101001001111111010110000000000000000000000000000000000000000000000000000000000000000000000
101011010010010000110110000000000000000000000000000000000000000000000000000000000000000000000
1111111101111100010001000000110100000000000000000000000000000000000000000000000000000000000000000000
1111111111000011111000101011111100000000000000000000000000000000000000000000000000000000000000000000
100011101111101111101011000000000000000000000000000000000000000000000000000000000000000000
1111111100101111011010001010110100000000000000000000000000000000000000000000000000000000000000000000
1101001100011101101010100000000000000000000000000000000000000000000000000000000000000000000
100001010110111111000110000000000000000000000000000000000000000000000000000000000000000000000
101100011000011011101000000000000000000000000000000000000000000000000000000000000000000000
11011000011110010101011100000000000000000000000000000000000000000000000000000000000000000000
1111111110001001101001001100001010000000000000000000000000000000000000000000000000000000000000000000
1111111111100011100110111110001010100000000000000000000000000000000000000000000000000000000000000000
101001110010011100101101000000000000000000000000000000000000000000000000000000000000000000000
1111111100110001001000001110100100000000000000000000000000000000000000000000000000000000000000000000
100000101100011010000000000000000000000000000000000000000000000000000000000000000000000000000
11011100001000111111100000000000000000000000000000000000000000000000000000000000000000000
101101011010011001010010000000000000000000000000000000000000000000000000000000000000000000000
1111111111000100010000001110000001000000000000000000000000000000000000000000000000000000000000000000
1111111100110000000000011010110000000000000000000000000000000000000000000000000000000000000000000000
100101010011011110100101000000000000000000000000000000000000000000000000000000000000000000000
1111111111100110110000000001001110000000000000000000000000000000000000000000000000000000000000000000
100101001010011011011111000000000000000000000000000000000000000000000000000000000000000000000
101111010111001011011101000000000000000000000000000000000000000000000000000000000000000000
11111010110001010000111100000000000000000000000000000000000000000000000000000000000000000000
100110110011101100110011000000000000000000000000000000000000000000000000000000000000000000000
1111111111110010000000000111001100000000000000000000000000000000000000000000000000000000000000000000
1111111101000011101001011110010000000000000000000000000000000000000000000000000000000000000000000000
1111111111000101000000010010101101000000000000000000000000000000000000000000000000000000000000000000
1111111110100011110101011000100110000000000000000000000000000000000000000000000000000000000000000000
100111010101111011101001000000000000000000000000000000000000000000000000000000000000000000000
11110000001000111100110000000000000000000000000000000000000000000000000000000000000000000000
111001100000011011000011000000000000000000000000000000000000000000000000000000000000000000
11111100101100011011111000000000000000000000000000000000000000000000000000000000000000000000
11110110100101011101100100000000000000000000000000000000000000000000000000000000000000000000
100110011111010110001000000000000000000000000000000000000000000000000000000000000000000000
11000001000001110011110000000000000000000000000000000000000000000000000000000000000000000000
11000111111000111010000100000000000000000000000000000000000000000000000000000000000000000000
1111111111011110100111111111001100000000000000000000000000000000000000000000000000000000000000000000
100001110011001001101010000000000000000000000000000000000000000000000000000000000000000000000
101001010100011010001001000000000000000000000000000000000000000000000000000000000000000000000
100001111000100000101011000000000000000000000000000000000000000000000000000000000000000000000
1001111000101101001011110000000000000000000000000000000000000000000000000000000000000000000
101001001100000111100100000000000000000000000000000000000000000000000000000000000000000000000
1110011101010001011111110000000000000000000000000000000000000000000000000000000000000000000
1111111101000011010110011110011000000000000000000000000000000000000000000000000000000000000000000000
1111111110101010011011011000010000000000000000000000000000000000000000000000000000000000000000000000
1111111111101100111100010010101010000000000000000000000000000000000000000000000000000000000000000000
1111010001100001011100000000000000000000000000000000000000000000000000000000000000000000
110100010010001111110010000000000000000000000000000000000000000000000000000000000000000000000
110100011001110100011010000000000000000000000000000000000000000000000000000000000000000000
110001010100001000111010000000000000000000000000000000000000000000000000000000000000000000000
101101000011100111110010000000000000000000000000000000000000000000000000000000000000000000000
100111011010000000111000000000000000000000000000000000000000000000000000000000000000000000000
100111011001010000101110000000000000000000000000000000000000000000000000000000000000000000000
101111001111110100010100000000000000000000000000000000000000000000000000000000000000000000000
110000001101110000100110000000000000000000000000000000000000000000000000000000000000000000000
100011010111000000011001000000000000000000000000000000000000000000000000000000000000000000000
10001111001101001011110000000000000000000000000000000000000000000000000000000000000000
1111111110011010011000000100011000000000000000000000000000000000000000000000000000000000000000000000
1111111110011001010100010100000010000000000000000000000000000000000000000000000000000000000000000000
1111111101010100110100101001101100000000000000000000000000000000000000000000000000000000000000000000
100001110111000000110011000000000000000000000000000000000000000000000000000000000000000000000
110011100100000101000111000000000000000000000000000000000000000000000000000000000000000000000
11010011010011000010110100000000000000000000000000000000000000000000000000000000000000000000
101110001110010101011110000000000000000000000000000000000000000000000000000000000000000000000
1111111110010011100010111101111100000000000000000000000000000000000000000000000000000000000000000000
101111001101100110101000000000000000000000000000000000000000000000000000000000000000000000
101100101100010001101101000000000000000000000000000000000000000000000000000000000000000000000
1110101100010101100101000000000000000000000000000000000000000000000000000000000000000000000
1100110110010111110111000000000000000000000000000000000000000000000000000000000000000000000
11001010010011011000001100000000000000000000000000000000000000000000000000000000000000000
1111111111000101101101101011100101000000000000000000000000000000000000000000000000000000000000000000
1111111101010110111001001110101000000000000000000000000000000000000000000000000000000000000000000000
10100010111000100010111100000000000000000000000000000000000000000000000000000000000000000000
1111111101110010011000101011111000000000000000000000000000000000000000000000000000000000000000000000
1000110101111011111111100000000000000000000000000000000000000000000000000000000000000000000
1111111110000100110011000110011010000000000000000000000000000000000000000000000000000000000000000000
101101011011011000100010000000000000000000000000000000000000000000000000000000000000000000000
10000001010110000011111000000000000000000000000000000000000000000000000000000000000000000000
1111111101111011011101000100111100000000000000000000000000000000000000000000000000000000000000000000
101111000100101110100101000000000000000000000000000000000000000000000000000000000000000000000
100111110101010110111011000000000000000000000000000000000000000000000000000000000000000000000
1111111101101110000110011110101100000000000000000000000000000000000000000000000000000000000000000000
11100111110000100111111000000000000000000000000000000000000000000000000000000000000000000000
1111111101111110010001011100111100000000000000000000000000000000000000000000000000000000000000000000
1111111101110110111001100111101000000000000000000000000000000000000000000000000000000000000000000000
101001110001110011011100000000000000000000000000000000000000000000000000000000000000000000000
1000001110111000111011010000000000000000000000000000000000000000000000000000000000000000000
100011111010010000011010000000000000000000000000000000000000000000000000000000000000000000000
1111111110010010010000010111011010000000000000000000000000000000000000000000000000000000000000000000
11000000000110111111100100000000000000000000000000000000000000000000000000000000000000000000
11001101111100011010100000000000000000000000000000000000000000000000000000000000000000000000
100000101010101100001101000000000000000000000000000000000000000000000000000000000000000000000
1111111100100000010010010000000000000000000000000000000000000000000000000000000000000000000
110110001001011111010111000000000000000000000000000000000000000000000000000000000000000000
100111001010111011001000000000000000000000000000000000000000000000000000000000000000000000000
1000010001111111100001000000000000000000000000000000000000000000000000000000000000000000000
100100111000110101110101000000000000000000000000000000000000000000000000000000000000000000000
1111111101100100101010000011011000000000000000000000000000000000000000000000000000000000000000000000
101011011110001011010000000000000000000000000000000000000000000000000000000000000000000000000
1111111111110101010110010110001111010000000000000000000000000000000000000000000000000000000000000000
110111001010001000110101000000000000000000000000000000000000000000000000000000000000000000000
110010000011010101110111000000000000000000000000000000000000000000000000000000000000000000000
1111111110110110000000100011101010000000000000000000000000000000000000000000000000000000000000000000
1111111111101101000101001100001111100000000000000000000000000000000000000000000000000000000000000000
101000000010100010001001000000000000000000000000000000000000000000000000000000000000000000000
10101000001010101000100100000000000000000000000000000000000000000000000000000000000000000000
100011100001111010000110000000000000000000000000000000000000000000000000000000000000000000000
1111111100111011111010101010110100000000000000000000000000000000000000000000000000000000000000000000
1111111100100111011111111101010100000000000000000000000000000000000000000000000000000000000000000000
1111111101000111011110111000101000000000000000000000000000000000000000000000000000000000000000000000
1111111110100100100010010010000100000000000000000000000000000000000000000000000000000000000000000000
11001001100110101101100000000000000000000000000000000000000000000000000000000000000000000000
1111111111111001001100000100011111110000000000000000000000000000000000000000000000000000000000000000
1111111110000101001101011110001100000000000000000000000000000000000000000000000000000000000000000000
1111111101111011000100011111000000000000000000000000000000000000000000000000000000000000000000000000
10001001100101101000010000000000000000000000000000000000000000000000000000000000000000000000
10101110011111010100010000000000000000000000000000000000000000000000000000000000000000000000
110100001001100010000111000000000000000000000000000000000000000000000000000000000000000000000
1111111101000001010000010110000100000000000000000000000000000000000000000000000000000000000000000000
1111111111111100110011100100101110001000000000000000000000000000000000000000000000000000000000000000
11110001101011001001111100000000000000000000000000000000000000000000000000000000000000000
1111111101110110010010110101011000000000000000000000000000000000000000000000000000000000000000000000
1101010101010000000100110000000000000000000000000000000000000000000000000000000000000000
100000000010011111010000000000000000000000000000000000000000000000000000000000000000000000000
100000111001101100011010000000000000000000000000000000000000000000000000000000000000000000000
1100001010011111010010100000000000000000000000000000000000000000000000000000000000000000000
10010001011111110001100100000000000000000000000000000000000000000000000000000000000000000000
110110011000000000000001000000000000000000000000000000000000000000000000000000000000000000000
11111001101001010011011000000000000000000000000000000000000000000000000000000000000000000000
1111111110010101110100101001001010000000000000000000000000000000000000000000000000000000000000000000
11110101000000011011010000000000000000000000000000000000000000000000000000000000000000
1111111111111100010110000001101101110100000000000000000000000000000000000000000000000000000000000000
100100011111001011000001000000000000000000000000000000000000000000000000000000000000000000000
11011011001110111000000100000000000000000000000000000000000000000000000000000000000000
1111111111001011111101111100111100000000000000000000000000000000000000000000000000000000000000000000
10001010101101111000110100000000000000000000000000000000000000000000000000000000000000000000
10101110111000001101111000000000000000000000000000000000000000000000000000000000000000000
101000101101110110100010000000000000000000000000000000000000000000000000000000000000000000000
111101111001100111011111000000000000000000000000000000000000000000000000000000000000000000
1111111101001000101000011000001000000000000000000000000000000000000000000000000000000000000000000000
1000101101110001111001110000000000000000000000000000000000000000000000000000000000000000000
11111011010111101011000100000000000000000000000000000000000000000000000000000000000000000000
1111111110110110110100100101110000000000000000000000000000000000000000000000000000000000000000000000
1111111111001011101111110011001101000000000000000000000000000000000000000000000000000000000000000000
1111111111001100101101100001010000000000000000000000000000000000000000000000000000000000000000000000
1001100000101011111100000000000000000000000000000000000000000000000000000000000000000000000
1111111101001110010011011011001000000000000000000000000000000000000000000000000000000000000000000000
101000111110010110010110000000000000000000000000000000000000000000000000000000000000000000000
1111111110111110011010100011111010000000000000000000000000000000000000000000000000000000000000000000
1111111110000100001011110001110010000000000000000000000000000000000000000000000000000000000000000000
1111111110000101000111010110000000000000000000000000000000000000000000000000000000000000000000000000
10001010010001011100101000000000000000000000000000000000000000000000000000000000000000000000
10001110101011001000001100000000000000000000000000000000000000000000000000000000000000000000
101111010000010110101001000000000000000000000000000000000000000000000000000000000000000000000
110111011110010001111101000000000000000000000000000000000000000000000000000000000000000000000
11111011010111010101101100000000000000000000000000000000000000000000000000000000000000000000
100111110010111001001101000000000000000000000000000000000000000000000000000000000000000000000
11010101110011000001100000000000000000000000000000000000000000000000000000000000000000000000
101010101101011110100010000000000000000000000000000000000000000000000000000000000000000000000
100101000001101101111010000000000000000000000000000000000000000000000000000000000000000000000
110011000000100000100101000000000000000000000000000000000000000000000000000000000000000000000
101101111100111010110010000000000000000000000000000000000000000000000000000000000000000000
1111111111110110001101001101101110000000000000000000000000000000000000000000000000000000000000000000
1110101011100101001111110000000000000000000000000000000000000000000000000000000000000000000
100111000100101000110011000000000000000000000000000000000000000000000000000000000000000000
11111110001010011001001100000000000000000000000000000000000000000000000000000000000000000000
100001010001011110000011000000000000000000000000000000000000000000000000000000000000000000000
100000011010101001101110000000000000000000000000000000000000000000000000000000000000000000
10101001000110111000011000000000000000000000000000000000000000000000000000000000000000000000
110110111000100000101001000000000000000000000000000000000000000000000000000000000000000000000
1111111101110100110101011110111000000000000000000000000000000000000000000000000000000000000000000000
10000000111010101111001000000000000000000000000000000000000000000000000000000000000000000000
110010101100110101010110000000000000000000000000000000000000000000000000000000000000000000000
10001011111111100011011000000000000000000000000000000000000000000000000000000000000000000000
1111111110101110101000110111011100000000000000000000000000000000000000000000000000000000000000000000
1101101001000101100001110000000000000000000000000000000000000000000000000000000000000000000
110001011001101100010001000000000000000000000000000000000000000000000000000000000000000000000
1111111111010111001101000010011010000000000000000000000000000000000000000000000000000000000000000000
1011101011000110101010010000000000000000000000000000000000000000000000000000000000000000000
100000101111101001011001000000000000000000000000000000000000000000000000000000000000000000000
1111111101001100010001100110000000000000000000000000000000000000000000000000000000000000000000000000
101011000000001100101011000000000000000000000000000000000000000000000000000000000000000000
1111111110000000001010011101000110000000000000000000000000000000000000000000000000000000000000000000
1000000100000011010101100000000000000000000000000000000000000000000000000000000000000000000
110100001000100011010011000000000000000000000000000000000000000000000000000000000000000000000
1111111111100010011001000011011111000000000000000000000000000000000000000000000000000000000000000000
1111111101101011011011100001101000000000000000000000000000000000000000000000000000000000000000000000
11100001101101111111010100000000000000000000000000000000000000000000000000000000000000000000
101011001101110111001100000000000000000000000000000000000000000000000000000000000000000000000
1111111111010001111010000100101010000000000000000000000000000000000000000000000000000000000000000000
10011011010100110010110100000000000000000000000000000000000000000000000000000000000000000000
100001101001000001001111000000000000000000000000000000000000000000000000000000000000000000000
1111111110110000100110110001000000000000000000000000000000000000000000000000000000000000000000000000
10110101011000101001011000000000000000000000000000000000000000000000000000000000000000000000
100111110000111111010100000000000000000000000000000000000000000000000000000000000000000000000
101000111000000000001000000000000000000000000000000000000000000000000000000000000000000000000
11100100000100110100010000000000000000000000000000000000000000000000000000000000000000000000
1111111111101011110111110101111010100000000000000000000000000000000000000000000000000000000000000000
1111111101100110110001101110111100000000000000000000000000000000000000000000000000000000000000000000
1111111110011000110100100111011010000000000000000000000000000000000000000000000000000000000000000000
1011011100001100100011110000000000000000000000000000000000000000000000000000000000000000000
101101011001010010100101000000000000000000000000000000000000000000000000000000000000000000
110110001000110010100111000000000000000000000000000000000000000000000000000000000000000000
10110110001110111110110000000000000000000000000000000000000000000000000000000000000000000000
1111111110010011000011000010110010000000000000000000000000000000000000000000000000000000000000000000
1111111101100101100000001011101000000000000000000000000000000000000000000000000000000000000000000000
1111111100101010000100001110011000000000000000000000000000000000000000000000000000000000000000000000
111101010010010101111110000000000000000000000000000000000000000000000000000000000000000000
101111000110000010011110000000000000000000000000000000000000000000000000000000000000000000
1111111101010010010001100111010000000000000000000000000000000000000000000000000000000000000000000000
1100100110000101111101000000000000000000000000000000000000000000000000000000000000000000000
1000101100011000001110110000000000000000000000000000000000000000000000000000000000000000000
10110011101111111011010000000000000000000000000000000000000000000000000000000000000000000000
101011111010101001101011000000000000000000000000000000000000000000000000000000000000000000000
101111101100001011011001000000000000000000000000000000000000000000000000000000000000000000000
1111111101110101011010110000010000000000000000000000000000000000000000000000000000000000000000000000
1111111101011110111010010100001100000000000000000000000000000000000000000000000000000000000000000000
1111111111111010001110110011011101011000000000000000000000000000000000000000000000000000000000000000
1111111100111011010101111000111100000000000000000000000000000000000000000000000000000000000000000000
100100011001110100010011000000000000000000000000000000000000000000000000000000000000000000000
1111111101011000101110111100101100000000000000000000000000000000000000000000000000000000000000000000
1010100111100000111100110000000000000000000000000000000000000000000000000000000000000000000
110110011110101010001011000000000000000000000000000000000000000000000000000000000000000000000
1111111111100011100000010110100011000000000000000000000000000000000000000000000000000000000000000000
1001011011000000010010100000000000000000000000000000000000000000000000000000000000000000000
1111111110001101101011100011010110000000000000000000000000000000000000000000000000000000000000000000
1111111100101110011101101101011000000000000000000000000000000000000000000000000000000000000000000000
111001111101111110010111000000000000000000000000000000000000000000000000000000000000000000
1111111100110010100000011000001100000000000000000000000000000000000000000000000000000000000000000000
10100010100010001101000000000000000000000000000000000000000000000000000000000000000000000
1111111101100111101111010101011100000000000000000000000000000000000000000000000000000000000000000000
1110100110001101011011010000000000000000000000000000000000000000000000000000000000000000000
100101000101100111011001000000000000000000000000000000000000000000000000000000000000000000000
1111111110000011100101001001111110000000000000000000000000000000000000000000000000000000000000000000
11001100011101111010101000000000000000000000000000000000000000000000000000000000000000000000
100000110110110111011010000000000000000000000000000000000000000000000000000000000000000000000
1110100101010011010101000000000000000000000000000000000000000000000000000000000000000000000
1111111101001010010101111110111100000000000000000000000000000000000000000000000000000000000000000000
100010111001101101100101000000000000000000000000000000000000000000000000000000000000000000000
110110001011001000100110000000000000000000000000000000000000000000000000000000000000000000000
11010000011100001101011100000000000000000000000000000000000000000000000000000000000000000000
100100010100011011010000000000000000000000000000000000000000000000000000000000000000000000000
1111111101000100100011000111100100000000000000000000000000000000000000000000000000000000000000000000
1000000111011010011010010000000000000000000000000000000000000000000000000000000000000000
100110011001000011010010000000000000000000000000000000000000000000000000000000000000000000000
1111101111111110111100110000000000000000000000000000000000000000000000000000000000000000000
100111000010111101000001000000000000000000000000000000000000000000000000000000000000000000000
1111111110100001000100111111110000000000000000000000000000000000000000000000000000000000000000000000
1111111111001110110011101000101011000000000000000000000000000000000000000000000000000000000000000000
1111111100111110011000001110101000000000000000000000000000000000000000000000000000000000000000000000
1000101101010010110101100000000000000000000000000000000000000000000000000000000000000000000
10111100101100001010011000000000000000000000000000000000000000000000000000000000000000000000
1111111101100000100010110010100100000000000000000000000000000000000000000000000000000000000000000000
1000011101001010110110100000000000000000000000000000000000000000000000000000000000000000
101110101010111101000001000000000000000000000000000000000000000000000000000000000000000000000
110110101001110111101110000000000000000000000000000000000000000000000000000000000000000000000
1111111110010001101101110011101110000000000000000000000000000000000000000000000000000000000000000000
110011111100000111010111000000000000000000000000000000000000000000000000000000000000000000000
1111111111010001001010101001110010000000000000000000000000000000000000000000000000000000000000000000
1111111111100100001000010000111111000000000000000000000000000000000000000000000000000000000000000000
101111111000011001111000000000000000000000000000000000000000000000000000000000000000000000000
10011100010001110010000100000000000000000000000000000000000000000000000000000000000000000000
1111111111010011000011010010110101000000000000000000000000000000000000000000000000000000000000000000
11110100011011010011000100000000000000000000000000000000000000000000000000000000000000000000
100001111011101001100111000000000000000000000000000000000000000000000000000000000000000000000
1111111101010010110101000000110100000000000000000000000000000000000000000000000000000000000000000000
1111111110010011010111011110011100000000000000000000000000000000000000000000000000000000000000000000
1111111111110100101000010111101100110000000000000000000000000000000000000000000000000000000000000000
1111111111001000000010110111001011000000000000000000000000000000000000000000000000000000000000000000
1111111111101010111010001011110001000000000000000000000000000000000000000000000000000000000000000000
100010011010000111001111000000000000000000000000000000000000000000000000000000000000000000000
1101001010110100010101010000000000000000000000000000000000000000000000000000000000000000000
101001011000111100110101000000000000000000000000000000000000000000000000000000000000000000
1011001111100100110111110000000000000000000000000000000000000000000000000000000000000000000
10011010011001010000110100000000000000000000000000000000000000000000000000000000000000000000
1010011101110001000100010000000000000000000000000000000000000000000000000000000000000000000
101000000100101101100100000000000000000000000000000000000000000000000000000000000000000000000
10111110000111110011011000000000000000000000000000000000000000000000000000000000000000000000
1100111000011001111000100000000000000000000000000000000000000000000000000000000000000000000
111010100110000101000111000000000000000000000000000000000000000000000000000000000000000
100001010111001110000011000000000000000000000000000000000000000000000000000000000000000000000
1111111110110101111001101100101110000000000000000000000000000000000000000000000000000000000000000000
101100001011001110110011000000000000000000000000000000000000000000000000000000000000000000000
1111111110110001100101010000001110000000000000000000000000000000000000000000000000000000000000000000
11010101011110010100111000000000000000000000000000000000000000000000000000000000000000000000
11011110000100111001001000000000000000000000000000000000000000000000000000000000000000000000
1111111101001011110011010010010100000000000000000000000000000000000000000000000000000000000000000000
1111111101010111010110010111000000000000000000000000000000000000000000000000000000000000000000000000
11111000010011100010111100000000000000000000000000000000000000000000000000000000000000000
110001110000100111001101000000000000000000000000000000000000000000000000000000000000000000000
1111111111001000110111011111100001000000000000000000000000000000000000000000000000000000000000000000
10000100000000010000110000000000000000000000000000000000000000000000000000000000000000000000
101111011010000100011101000000000000000000000000000000000000000000000000000000000000000000000
11110000111001110110111100000000000000000000000000000000000000000000000000000000000000000000
1111111101000000111101110100111100000000000000000000000000000000000000000000000000000000000000000000
1111111110001010110011101010101100000000000000000000000000000000000000000000000000000000000000000000
100000001100011000100111000000000000000000000000000000000000000000000000000000000000000000000
110001101000110000000000000000000000000000000000000000000000000000000000000000000000000000000
110101110100110100110100000000000000000000000000000000000000000000000000000000000000000000000
110010001010111001111100000000000000000000000000000000000000000000000000000000000000000000000
11011001010110101010011100000000000000000000000000000000000000000000000000000000000000000000
11100111100110010110100100000000000000000000000000000000000000000000000000000000000000000000
1111111101011110010001001001110100000000000000000000000000000000000000000000000000000000000000000000
1111111111110101001001000110011110110000000000000000000000000000000000000000000000000000000000000000
1111111101011111001011001000010000000000000000000000000000000000000000000000000000000000000000000000
11111010010011011011000000000000000000000000000000000000000000000000000000000000000000000
101010001101000101011000000000000000000000000000000000000000000000000000000000000000000000
10010001101010010100001000000000000000000000000000000000000000000000000000000000000000000000
1111111111001111110001010001111010000000000000000000000000000000000000000000000000000000000000000000
1111111100101110111110001000011100000000000000000000000000000000000000000000000000000000000000000000
11101101001100010000000000000000000000000000000000000000000000000000000000000000000000000000
1111111101110001001111000010010100000000000000000000000000000000000000000000000000000000000000000000
1111111110011111101010001101111100000000000000000000000000000000000000000000000000000000000000000000
1111111111010111101110111100011110000000000000000000000000000000000000000000000000000000000000000000
111011010110111001111011000000000000000000000000000000000000000000000000000000000000000000
10111001100101010011100100000000000000000000000000000000000000000000000000000000000000000
1110101001111011101000010000000000000000000000000000000000000000000000000000000000000000000
1100010011111011001011100000000000000000000000000000000000000000000000000000000000000000000
1111111101000000011001010101001100000000000000000000000000000000000000000000000000000000000000000000
100111011001000000011001000000000000000000000000000000000000000000000000000000000000000000000
11010011100000110001001000000000000000000000000000000000000000000000000000000000000000000000
1111111101100000001110100001101000000000000000000000000000000000000000000000000000000000000000000000
110111011100110101110000000000000000000000000000000000000000000000000000000000000000000000000
100110000100100111001010000000000000000000000000000000000000000000000000000000000000000000000
10111100011001110001000100000000000000000000000000000000000000000000000000000000000000000000
1110101110111100101110100000000000000000000000000000000000000000000000000000000000000000000
10101101000100000001001100000000000000000000000000000000000000000000000000000000000000000000
1000100010111001101101000000000000000000000000000000000000000000000000000000000000000000000
1111111110111010111010011101101110000000000000000000000000000000000000000000000000000000000000000000
1111111101000001100001111100100100000000000000000000000000000000000000000000000000000000000000000000
1111111110011001111110100100000100000000000000000000000000000000000000000000000000000000000000000000
11000010000101100111001100000000000000000000000000000000000000000000000000000000000000000000
1000101001001011000001000000000000000000000000000000000000000000000000000000000000000000000
110111000010110011100001000000000000000000000000000000000000000000000000000000000000000000000
101110000010111010100111000000000000000000000000000000000000000000000000000000000000000000000
1111111110100000001101000000010000000000000000000000000000000000000000000000000000000000000000000000
110010101101110010110001000000000000000000000000000000000000000000000000000000000000000000000
11101001011011111101110000000000000000000000000000000000000000000000000000000000000000000000
1111011001000101010110100000000000000000000000000000000000000000000000000000000000000000000
1101011101000110011101000000000000000000000000000000000000000000000000000000000000000000
1101111011000011111010010000000000000000000000000000000000000000000000000000000000000000000
1101111001111001110000010000000000000000000000000000000000000000000000000000000000000000000
1111111101011100111010111111111100000000000000000000000000000000000000000000000000000000000000000000
1111111101001110011011011010100100000000000000000000000000000000000000000000000000000000000000000000
1111111110011010001110101011000110000000000000000000000000000000000000000000000000000000000000000000
101110101110111111001100000000000000000000000000000000000000000000000000000000000000000000000
1111111110010100111101001000101000000000000000000000000000000000000000000000000000000000000000000000
10100000100101001101100100000000000000000000000000000000000000000000000000000000000000000000
1111111100100101000010110100100000000000000000000000000000000000000000000000000000000000000000000000
110011001100011010100110000000000000000000000000000000000000000000000000000000000000000000000
11000110001111100100100000000000000000000000000000000000000000000000000000000000000000000000
10110011101111011110001000000000000000000000000000000000000000000000000000000000000000000000
1111111111100010011111001010001011000000000000000000000000000000000000000000000000000000000000000000
11100100010001111101000000000000000000000000000000000000000000000000000000000000000000000000
11000001100010001101001000000000000000000000000000000000000000000000000000000000000000000000
110110101001000001001101000000000000000000000000000000000000000000000000000000000000000000000
11011111110011000111101000000000000000000000000000000000000000000000000000000000000000000000
1111111101111110011100110111001000000000000000000000000000000000000000000000000000000000000000000000
1111111110000010000110100101110110000000000000000000000000000000000000000000000000000000000000000000
1101110101000011110111010000000000000000000000000000000000000000000000000000000000000000000
11010110011111110101100000000000000000000000000000000000000000000000000000000000000000000000
100010001010000001100011000000000000000000000000000000000000000000000000000000000000000000000
1111111111110010111010111101010000110000000000000000000000000000000000000000000000000000000000000000
1111111100111101101101011101000000000000000000000000000000000000000000000000000000000000000000000000
1111111100101111110100000111010100000000000000000000000000000000000000000000000000000000000000000000
11011011111111001101010000000000000000000000000000000000000000000000000000000000000000000000
1111111111101110011001111110101000000000000000000000000000000000000000000000000000000000000000000000
10100000101010110000110000000000000000000000000000000000000000000000000000000000000000000000
1111111101010101010010011001110100000000000000000000000000000000000000000000000000000000000000000000
1111111111010011010001010100101000000000000000000000000000000000000000000000000000000000000000000000
110100000110010101110001000000000000000000000000000000000000000000000000000000000000000000000
1111111101101000111110010010100000000000000000000000000000000000000000000000000000000000000000000000
1001111110011111001101000000000000000000000000000000000000000000000000000000000000000000000
110110111110010001010011000000000000000000000000000000000000000000000000000000000000000000000
11110110100000000100011000000000000000000000000000000000000000000000000000000000000000000000
1111111111000011100010000110000011000000000000000000000000000000000000000000000000000000000000000000
1111111110110011011000010001111010000000000000000000000000000000000000000000000000000000000000000000
1111111110101110000011001011010010000000000000000000000000000000000000000000000000000000000000000000
11011000010110010001101000000000000000000000000000000000000000000000000000000000000000000000
1111111111001111001011000010011000000000000000000000000000000000000000000000000000000000000000000000
11101000111100001011011000000000000000000000000000000000000000000000000000000000000000000000
1100110101000101111110100000000000000000000000000000000000000000000000000000000000000000000
1111111111111110110111001111011100111010000000000000000000000000000000000000000000000000000000000000
110001111100110100011110000000000000000000000000000000000000000000000000000000000000000000
1111111111111000010001011101010111000000000000000000000000000000000000000000000000000000000000000000
101110000100111001000001000000000000000000000000000000000000000000000000000000000000000000000
111100100100110011001000000000000000000000000000000000000000000000000000000000000000000000
1111111110001011100100010000101110000000000000000000000000000000000000000000000000000000000000000000
10001000000100110100111100000000000000000000000000000000000000000000000000000000000000000000
100110111101011011011000000000000000000000000000000000000000000000000000000000000000000000000
1111111101000010001101001100011000000000000000000000000000000000000000000000000000000000000000000000
100011011101011001101101000000000000000000000000000000000000000000000000000000000000000000
1111111101110001100010011100111000000000000000000000000000000000000000000000000000000000000000000000
1111111101011111101000010000100000000000000000000000000000000000000000000000000000000000000000000000
101001110110101111100100000000000000000000000000000000000000000000000000000000000000000000000
111011100001111011011000000000000000000000000000000000000000000000000000000000000000000000
1111111111010001101100000111010111000000000000000000000000000000000000000000000000000000000000000000
1111100011001011011001110000000000000000000000000000000000000000000000000000000000000000000
100011101110111001000010000000000000000000000000000000000000000000000000000000000000000000000
1001100001111101101110110000000000000000000000000000000000000000000000000000000000000000000
100110001010001111011111000000000000000000000000000000000000000000000000000000000000000000
101000100111110000000001000000000000000000000000000000000000000000000000000000000000000000000
100011010011010110101011000000000000000000000000000000000000000000000000000000000000000000000
110110111110010010011011000000000000000000000000000000000000000000000000000000000000000000000
1100000010101010101011100000000000000000000000000000000000000000000000000000000000000000000
1111111101100000100000101010010000000000000000000000000000000000000000000000000000000000000000000000
1111111111011100001110000000001000000000000000000000000000000000000000000000000000000000000000000000
11001101001000001110001100000000000000000000000000000000000000000000000000000000000000000000
10011010100100001011000000000000000000000000000000000000000000000000000000000000000000000000
1111111111110001010000101101000001110000000000000000000000000000000000000000000000000000000000000000
1111111101010110100010001110010100000000000000000000000000000000000000000000000000000000000000000000
1000000101011000101100100000000000000000000000000000000000000000000000000000000000000000000
101111000011101101001101000000000000000000000000000000000000000000000000000000000000000000000
10101010110110111011010000000000000000000000000000000000000000000000000000000000000000000
11010110111111010001100100000000000000000000000000000000000000000000000000000000000000000
11110110010010010010001100000000000000000000000000000000000000000000000000000000000000000000
100101111101100111100001000000000000000000000000000000000000000000000000000000000000000000000
11010110011110101101101100000000000000000000000000000000000000000000000000000000000000000
1111111111011100000100101001111000000000000000000000000000000000000000000000000000000000000000000000
101101100001011011111010000000000000000000000000000000000000000000000000000000000000000000
110000101011101110010101000000000000000000000000000000000000000000000000000000000000000000000
11000010101011101100110100000000000000000000000000000000000000000000000000000000000000000000
11101010000011111010010000000000000000000000000000000000000000000000000000000000000000000
101101101010100001110001000000000000000000000000000000000000000000000000000000000000000000000
11110011100011011111001100000000000000000000000000000000000000000000000000000000000000000000
110011001000100001100010000000000000000000000000000000000000000000000000000000000000000000000
11111010110010011001011000000000000000000000000000000000000000000000000000000000000000000
1111111101110001000000111011100100000000000000000000000000000000000000000000000000000000000000000000
10000110000100110110000000000000000000000000000000000000000000000000000000000000000000
111110110110101101011010000000000000000000000000000000000000000000000000000000000000000000
100001100101100110110111000000000000000000000000000000000000000000000000000000000000000000000
100001010011000110101010000000000000000000000000000000000000000000000000000000000000000000000
11011100000001011100100000000000000000000000000000000000000000000000000000000000000000000000
110110011111100100001101000000000000000000000000000000000000000000000000000000000000000000000
110110000001000100010011000000000000000000000000000000000000000000000000000000000000000000000
1111111101111111010010001100010100000000000000000000000000000000000000000000000000000000000000000000
101110101101110110110110000000000000000000000000000000000000000000000000000000000000000000000
110010111101010010101111000000000000000000000000000000000000000000000000000000000000000000000
11000001011000110110111000000000000000000000000000000000000000000000000000000000000000000000
1111111110000000110000011111111010000000000000000000000000000000000000000000000000000000000000000000
110110010101001100110110000000000000000000000000000000000000000000000000000000000000000000000
1111111101000011000001001000110100000000000000000000000000000000000000000000000000000000000000000000
100111011000011011101011000000000000000000000000000000000000000000000000000000000000000000000
1000010111010000101000010000000000000000000000000000000000000000000000000000000000000000000
1111111111110000001101110100000000110000000000000000000000000000000000000000000000000000000000000000
1111111110001100010011100000111110000000000000000000000000000000000000000000000000000000000000000000
1111111101111010100011000001011000000000000000000000000000000000000000000000000000000000000000000000
11101000001101001001011000000000000000000000000000000000000000000000000000000000000000000000
110101101001101011001000000000000000000000000000000000000000000000000000000000000000000000000
10100010001101010101110000000000000000000000000000000000000000000000000000000000000000000000
100101011010001100000011000000000000000000000000000000000000000000000000000000000000000000000
101111110000110101000001000000000000000000000000000000000000000000000000000000000000000000000
10011010001011111111111100000000000000000000000000000000000000000000000000000000000000000000
1011101011110000101110100000000000000000000000000000000000000000000000000000000000000000000
1111111101100011011011011000101000000000000000000000000000000000000000000000000000000000000000000000
1111111101110001100110010111010000000000000000000000000000000000000000000000000000000000000000000000
110101010001000011101111000000000000000000000000000000000000000000000000000000000000000000000
101100010100110111011110000000000000000000000000000000000000000000000000000000000000000000000
11100110011001111100110000000000000000000000000000000000000000000000000000000000000000000000
1111111111010111111010010100010101000000000000000000000000000000000000000000000000000000000000000000
111100001101111111001000000000000000000000000000000000000000000000000000000000000000000000
1100000001110101100010110000000000000000000000000000000000000000000000000000000000000000
1010001011101111101111000000000000000000000000000000000000000000000000000000000000000000000
101100101111000001111100000000000000000000000000000000000000000000000000000000000000000000000
100000001100001100011100000000000000000000000000000000000000000000000000000000000000000000000
100010011010010010000000000000000000000000000000000000000000000000000000000000000000000000000
1111111111001110001101100011001000000000000000000000000000000000000000000000000000000000000000000000
10000111011101100001111100000000000000000000000000000000000000000000000000000000000000000000
111111001000110100111100000000000000000000000000000000000000000000000000000000000000000000
111100010110001101101100000000000000000000000000000000000000000000000000000000000000000000
1011010110110100001111100000000000000000000000000000000000000000000000000000000000000000000
110011000101100001100010000000000000000000000000000000000000000000000000000000000000000000000
100001011010111001100110000000000000000000000000000000000000000000000000000000000000000000000
11100001000011110010010000000000000000000000000000000000000000000000000000000000000000000000
101010111100010111001111000000000000000000000000000000000000000000000000000000000000000000
1110100010110000100010010000000000000000000000000000000000000000000000000000000000000000
101000010011101100010011000000000000000000000000000000000000000000000000000000000000000000000
101000101100111001111010000000000000000000000000000000000000000000000000000000000000000000000
1111111101110001010011101010010100000000000000000000000000000000000000000000000000000000000000000000
110110001010001111000001000000000000000000000000000000000000000000000000000000000000000000000
1111111111010011011101101000110000000000000000000000000000000000000000000000000000000000000000000000
100100110100101000100101000000000000000000000000000000000000000000000000000000000000000000000
1111101010011001110110110000000000000000000000000000000000000000000000000000000000000000000
101011100110101010000111000000000000000000000000000000000000000000000000000000000000000000
10101111111101001011001100000000000000000000000000000000000000000000000000000000000000000000
1111111110110101110000011101111110000000000000000000000000000000000000000000000000000000000000000000
100011011111001110000111000000000000000000000000000000000000000000000000000000000000000000000
1111111111011111000011000101110101000000000000000000000000000000000000000000000000000000000000000000
10010000011111010101100100000000000000000000000000000000000000000000000000000000000000000000
1111111100100111000010100110100000000000000000000000000000000000000000000000000000000000000000000000
11001001111100111100001000000000000000000000000000000000000000000000000000000000000000000000
1111111100111000101001101111101100000000000000000000000000000000000000000000000000000000000000000000
111110100110101001110111000000000000000000000000000000000000000000000000000000000000000000
1111111111010111000110111001001000000000000000000000000000000000000000000000000000000000000000000000
110011000010111000110000000000000000000000000000000000000000000000000000000000000000000000000
1111111101010001101100101010110000000000000000000000000000000000000000000000000000000000000000000000
101010010111010100100011000000000000000000000000000000000000000000000000000000000000000000000
110101011000110011101011000000000000000000000000000000000000000000000000000000000000000000
1111111111011111101010011001000111000000000000000000000000000000000000000000000000000000000000000000
11100111011110110000110000000000000000000000000000000000000000000000000000000000000000000000
1111111101111100011111010000000000000000000000000000000000000000000000000000000000000000
100011011000101001100010000000000000000000000000000000000000000000000000000000000000000000000
1001011111100001001110000000000000000000000000000000000000000000000000000000000000000000000
10010011100110000100001100000000000000000000000000000000000000000000000000000000000000000000
11101100010101110100000100000000000000000000000000000000000000000000000000000000000000000
1111111111010101101101010010000010000000000000000000000000000000000000000000000000000000000000000000
101011111100010110000010000000000000000000000000000000000000000000000000000000000000000000
110100001100000101001001000000000000000000000000000000000000000000000000000000000000000000000
1110101110110000011001100000000000000000000000000000000000000000000000000000000000000000000
11100011010011010100100100000000000000000000000000000000000000000000000000000000000000000000
111001111100110000010000000000000000000000000000000000000000000000000000000000000000000000
1111111100101110100000010100001000000000000000000000000000000000000000000000000000000000000000000000
1111111110001101010001100011101110000000000000000000000000000000000000000000000000000000000000000000
1111111100111011001111001110100000000000000000000000000000000000000000000000000000000000000000000000
1111111111100000010110000111111011100000000000000000000000000000000000000000000000000000000000000000
110101111000101001110011000000000000000000000000000000000000000000000000000000000000000000000
1111111100101101101110000001010000000000000000000000000000000000000000000000000000000000000000000000
1111111110000111011010100011011010000000000000000000000000000000000000000000000000000000000000000000
110111001110010101011000000000000000000000000000000000000000000000000000000000000000000000000
11111101110110111010101000000000000000000000000000000000000000000000000000000000000000000000
101001011000100111110001000000000000000000000000000000000000000000000000000000000000000000000
11011001110111110110001100000000000000000000000000000000000000000000000000000000000000000000
11110010101000000110100000000000000000000000000000000000000000000000000000000000000000000000
10011010000101100010100000000000000000000000000000000000000000000000000000000000000000000000
111110101110000011101000000000000000000000000000000000000000000000000000000000000000000000
101001011001001011110101000000000000000000000000000000000000000000000000000000000000000000000
101000010100000110101010000000000000000000000000000000000000000000000000000000000000000000000
110010011101110100110010000000000000000000000000000000000000000000000000000000000000000000000
1111111110101101001011010000000000000000000000000000000000000000000000000000000000000000000
1111111110001001101010001101001100000000000000000000000000000000000000000000000000000000000000000000
1111111111011001100000011110011001000000000000000000000000000000000000000000000000000000000000000000
101010001111000100110000000000000000000000000000000000000000000000000000000000000000000000000
11111000000100000010100100000000000000000000000000000000000000000000000000000000000000000000
1111111111011010011011010111111111000000000000000000000000000000000000000000000000000000000000000000
110101101110100010100100000000000000000000000000000000000000000000000000000000000000000000000
1111111101010001010110000110110000000000000000000000000000000000000000000000000000000000000000000000
1111111111010000011101001100110101000000000000000000000000000000000000000000000000000000000000000000
11011101110001111001010000000000000000000000000000000000000000000000000000000000000000000000
110010000110111011001001000000000000000000000000000000000000000000000000000000000000000000
11111111000000010001111100000000000000000000000000000000000000000000000000000000000000000000
100011011010101111101001000000000000000000000000000000000000000000000000000000000000000000
110100101100101100101011000000000000000000000000000000000000000000000000000000000000000000
10111001010000110011000100000000000000000000000000000000000000000000000000000000000000000000
101110101101011010011110000000000000000000000000000000000000000000000000000000000000000000000
1111111111111101011010000001011111001100000000000000000000000000000000000000000000000000000000000000
110111101110001110010000000000000000000000000000000000000000000000000000000000000000000000
11101111111000100111000000000000000000000000000000000000000000000000000000000000000000000000
1111111101110100101011000111111100000000000000000000000000000000000000000000000000000000000000000000
11110101001001110001010100000000000000000000000000000000000000000000000000000000000000000
10011100000101111010011000000000000000000000000000000000000000000000000000000000000000000
101011001010101011100011000000000000000000000000000000000000000000000000000000000000000000
10100100000100110110011000000000000000000000000000000000000000000000000000000000000000000000
1101010101111010101010110000000000000000000000000000000000000000000000000000000000000000000
1111111101000101101111001100011100000000000000000000000000000000000000000000000000000000000000000000
101111000011110101100111000000000000000000000000000000000000000000000000000000000000000000000
1111111111001011011010000000000011000000000000000000000000000000000000000000000000000000000000000000
1111111101100001111010011000001000000000000000000000000000000000000000000000000000000000000000000000
10101010101000101100110100000000000000000000000000000000000000000000000000000000000000000000
11101110101011000001000100000000000000000000000000000000000000000000000000000000000000000000
11011000101100110010110100000000000000000000000000000000000000000000000000000000000000000000
101010110011011001001110000000000000000000000000000000000000000000000000000000000000000000
10110001000010000100111000000000000000000000000000000000000000000000000000000000000000000000
1111111110101101000100000100101100000000000000000000000000000000000000000000000000000000000000000000
11101111000111010100000100000000000000000000000000000000000000000000000000000000000000000000
10101111010111100010100000000000000000000000000000000000000000000000000000000000000000000000
101010101010111100111010000000000000000000000000000000000000000000000000000000000000000000000
101110111100100010100101000000000000000000000000000000000000000000000000000000000000000000000
101010010100001000001000000000000000000000000000000000000000000000000000000000000000000000000
100101001110100010111110000000000000000000000000000000000000000000000000000000000000000000000
1111111100111000000011100100001100000000000000000000000000000000000000000000000000000000000000000000
1101100000000011000010100000000000000000000000000000000000000000000000000000000000000000000
101011101101101110110111000000000000000000000000000000000000000000000000000000000000000000000
101100010110000100101011000000000000000000000000000000000000000000000000000000000000000000000
1111111111100110111111100110000100000000000000000000000000000000000000000000000000000000000000000000
1111111111001010101010100111010110000000000000000000000000000000000000000000000000000000000000000000
1011000111000001010000000000000000000000000000000000000000000000000000000000000000000000000
100100100111000110010010000000000000000000000000000000000000000000000000000000000000000000000
1111111100111001010101111110110100000000000000000000000000000000000000000000000000000000000000000000
11101011110001000001001100000000000000000000000000000000000000000000000000000000000000000000
100110100001011100101010000000000000000000000000000000000000000000000000000000000000000000000
1111111100111011111101100001010000000000000000000000000000000000000000000000000000000000000000000000
1101101011010000111110100000000000000000000000000000000000000000000000000000000000000000000
100101001000000101001110000000000000000000000000000000000000000000000000000000000000000000000
10101110100101011000110100000000000000000000000000000000000000000000000000000000000000000000
11000101001000111010001000000000000000000000000000000000000000000000000000000000000000000
1111111110010011001100111000010100000000000000000000000000000000000000000000000000000000000000000000
1110101110100011011110100000000000000000000000000000000000000000000000000000000000000000000
110100011101000101010010000000000000000000000000000000000000000000000000000000000000000000000
111100011111100010000111000000000000000000000000000000000000000000000000000000000000000000
1101000000010111110110010000000000000000000000000000000000000000000000000000000000000000000
1111111101111101110001010110110000000000000000000000000000000000000000000000000000000000000000000000
111001000111111010111010000000000000000000000000000000000000000000000000000000000000000000
101101011001100011101110000000000000000000000000000000000000000000000000000000000000000000000
100110101110000001010010000000000000000000000000000000000000000000000000000000000000000000000
1111111111111110111011001101111100101110000000000000000000000000000000000000000000000000000000000000
11001110110101111010110000000000000000000000000000000000000000000000000000000000000000000000
101110001011011111100101000000000000000000000000000000000000000000000000000000000000000000000
1111111111110010010001110001111111110000000000000000000000000000000000000000000000000000000000000000
101101100110000001110000000000000000000000000000000000000000000000000000000000000000000000000
1100011101011010101011110000000000000000000000000000000000000000000000000000000000000000000
10111100010000101100010000000000000000000000000000000000000000000000000000000000000000000000
111001001100111000111011000000000000000000000000000000000000000000000000000000000000000000
1111111101011010110010010010100100000000000000000000000000000000000000000000000000000000000000000000
11101101110110011101101100000000000000000000000000000000000000000000000000000000000000000000
100110001100000111001011000000000000000000000000000000000000000000000000000000000000000000000
110000110101100010100111000000000000000000000000000000000000000000000000000000000000000000000
100111001101110001111111000000000000000000000000000000000000000000000000000000000000000000000
1111111101010110110110000001000100000000000000000000000000000000000000000000000000000000000000000000
11000101010100001100000100000000000000000000000000000000000000000000000000000000000000000000
1000000100011100011010010000000000000000000000000000000000000000000000000000000000000000000
100110011000101001000101000000000000000000000000000000000000000000000000000000000000000000000
100000000010110110010100000000000000000000000000000000000000000000000000000000000000000000000
110110000001100111011000000000000000000000000000000000000000000000000000000000000000000000000
1100110100110110001010100000000000000000000000000000000000000000000000000000000000000000000
101000010100011100010011000000000000000000000000000000000000000000000000000000000000000000000
1111111111100101100010000010010111000000000000000000000000000000000000000000000000000000000000000000
1111111100110100011010101100010000000000000000000000000000000000000000000000000000000000000000000000
101100011101110111001000000000000000000000000000000000000000000000000000000000000000000000000
100000101110110010100011000000000000000000000000000000000000000000000000000000000000000000
101111001000010010111101000000000000000000000000000000000000000000000000000000000000000000000
1111111111011100110010010100000110000000000000000000000000000000000000000000000000000000000000000000
1111111110011101010110011100101110000000000000000000000000000000000000000000000000000000000000000000
1111111101100000111000110000010100000000000000000000000000000000000000000000000000000000000000000000
1000000001101001110000010000000000000000000000000000000000000000000000000000000000000000000
1111111101011010101001011111010000000000000000000000000000000000000000000000000000000000000000000000
1111111111000110000001010111100001000000000000000000000000000000000000000000000000000000000000000000
1111111110110000011101001010001100000000000000000000000000000000000000000000000000000000000000000000
100101010010110001100111000000000000000000000000000000000000000000000000000000000000000000000
1111111101101100001010111110000100000000000000000000000000000000000000000000000000000000000000000000
11000100100101111011011000000000000000000000000000000000000000000000000000000000000000000000
1111111100111011101111010011001000000000000000000000000000000000000000000000000000000000000000000000
1111111101111110001000000000010100000000000000000000000000000000000000000000000000000000000000000000
11010110011010001010010000000000000000000000000000000000000000000000000000000000000000000000
100011101111011000110101000000000000000000000000000000000000000000000000000000000000000000
11001111110111101111000100000000000000000000000000000000000000000000000000000000000000000000
1111000110011001111101010000000000000000000000000000000000000000000000000000000000000000000
100001100101101110110010000000000000000000000000000000000000000000000000000000000000000000000
1101000000100101110000110000000000000000000000000000000000000000000000000000000000000000000
11011110110011011101110000000000000000000000000000000000000000000000000000000000000000000000
101100000000000000010011000000000000000000000000000000000000000000000000000000000000000000000
1111000001101110111010100000000000000000000000000000000000000000000000000000000000000000000
1111111101100100100011100010000100000000000000000000000000000000000000000000000000000000000000000000
1111111110101001101101001000110110000000000000000000000000000000000000000000000000000000000000000000
110101100001010000101010000000000000000000000000000000000000000000000000000000000000000000000
1011111011010000010010000000000000000000000000000000000000000000000000000000000000000000000
101101000001101011000101000000000000000000000000000000000000000000000000000000000000000000000
10001100100010110100001000000000000000000000000000000000000000000000000000000000000000000000
1111111111000111000001011111100001000000000000000000000000000000000000000000000000000000000000000000
100101110000001100001100000000000000000000000000000000000000000000000000000000000000000000000
1111111110100011110101111000110110000000000000000000000000000000000000000000000000000000000000000000
110000100111000010111000000000000000000000000000000000000000000000000000000000000000000000000
11010100110001101110100000000000000000000000000000000000000000000000000000000000000000000000
1111111111101111100001010110101001000000000000000000000000000000000000000000000000000000000000000000
1111111110010110111110001110001100000000000000000000000000000000000000000000000000000000000000000000
101010000011001001100001000000000000000000000000000000000000000000000000000000000000000000
11111010111111111001100000000000000000000000000000000000000000000000000000000000000000000
10011101010010000110101100000000000000000000000000000000000000000000000000000000000000000000
110000011110011100011100000000000000000000000000000000000000000000000000000000000000000000000
1111111101000000000000111000110000000000000000000000000000000000000000000000000000000000000000000000
1111111111110010101101110010001100000000000000000000000000000000000000000000000000000000000000000000
1111010100110000100010100000000000000000000000000000000000000000000000000000000000000000000
100011110000010101111010000000000000000000000000000000000000000000000000000000000000000000000
101111101010101001111100000000000000000000000000000000000000000000000000000000000000000000000
110111000110011110100110000000000000000000000000000000000000000000000000000000000000000000000
1111111110001010100101100100111010000000000000000000000000000000000000000000000000000000000000000000
1111111101110100011010101100111000000000000000000000000000000000000000000000000000000000000000000000
110110110000110011101111000000000000000000000000000000000000000000000000000000000000000000000
1011111001100101010010000000000000000000000000000000000000000000000000000000000000000000000
1111111110111010100110111100100110000000000000000000000000000000000000000000000000000000000000000000
110010110010000111011101000000000000000000000000000000000000000000000000000000000000000000
10111111000110100100011000000000000000000000000000000000000000000000000000000000000000000
101111101100001010101111000000000000000000000000000000000000000000000000000000000000000000000
1111111110011101000001011001100100000000000000000000000000000000000000000000000000000000000000000000
110011100100010100111000000000000000000000000000000000000000000000000000000000000000000000000
1111111111011110101111011010000010000000000000000000000000000000000000000000000000000000000000000000
1111111110000011101001100011111000000000000000000000000000000000000000000000000000000000000000000000
101000001111001010001111000000000000000000000000000000000000000000000000000000000000000000000
10011010011111001001001000000000000000000000000000000000000000000000000000000000000000000000
11100101011000111110111100000000000000000000000000000000000000000000000000000000000000000000
1111111110101101101000110010101000000000000000000000000000000000000000000000000000000000000000000000
1100010011010000000010010000000000000000000000000000000000000000000000000000000000000000000
1111111101101110100110010111000100000000000000000000000000000000000000000000000000000000000000000000
1000000010000101101000010000000000000000000000000000000000000000000000000000000000000000000
10100010110001010100100100000000000000000000000000000000000000000000000000000000000000000000
10011100101100101100000100000000000000000000000000000000000000000000000000000000000000000
