101010100001100101101100000000000000000000000000000000000000000000000000000000000000000000000
110010101101101010011101000000000000000000000000000000000000000000000000000000000000000000000
11011011010111101001100000000000000000000000000000000000000000000000000000000000000000000000
110011100011010111100010000000000000000000000000000000000000000000000000000000000000000000000
10100110101001110101001000000000000000000000000000000000000000000000000000000000000000000000
1011100010111000001001110000000000000000000000000000000000000000000000000000000000000000
1111111110000111101111100011110110000000000000000000000000000000000000000000000000000000000000000000
1111111111100111000001110011101001000000000000000000000000000000000000000000000000000000000000000000
11000100001011111001101000000000000000000000000000000000000000000000000000000000000000000000
1111111101010101101011000000010100000000000000000000000000000000000000000000000000000000000000000000
1111111110000100000000110110101100000000000000000000000000000000000000000000000000000000000000000000
110011000110101001011001000000000000000000000000000000000000000000000000000000000000000000000
1111111101110111000011101010000000000000000000000000000000000000000000000000000000000000000000000000
1111111101101001100010110011011000000000000000000000000000000000000000000000000000000000000000000000
1000110010110000001010000000000000000000000000000000000000000000000000000000000000000000000
1111111100111000001001110010011000000000000000000000000000000000000000000000000000000000000000000000
1100100100101000011100110000000000000000000000000000000000000000000000000000000000000000000
1111111101011111001001010101011000000000000000000000000000000000000000000000000000000000000000000000
1111111111010101110011010001000101000000000000000000000000000000000000000000000000000000000000000000
1111111110110111010010111010010110000000000000000000000000000000000000000000000000000000000000000000
1111111101010110111111110001101000000000000000000000000000000000000000000000000000000000000000000000
1111111101100100010000111010011000000000000000000000000000000000000000000000000000000000000000000000
101000100110110100011101000000000000000000000000000000000000000000000000000000000000000000000
1110000101110001110101000000000000000000000000000000000000000000000000000000000000000000000
1111111111101011101101100110011011100000000000000000000000000000000000000000000000000000000000000000
1111111101101101111101001001110000000000000000000000000000000000000000000000000000000000000000000000
1111111101011011011010100101001100000000000000000000000000000000000000000000000000000000000000000000
110001010101000111100011000000000000000000000000000000000000000000000000000000000000000000000
11011111111100000110000100000000000000000000000000000000000000000000000000000000000000000
1111111111110110011000010010000100100000000000000000000000000000000000000000000000000000000000000000
1111111110111000011011000000000000000000000000000000000000000000000000000000000000000000000
101100001011100000010011000000000000000000000000000000000000000000000000000000000000000000000
10001100100010001111100100000000000000000000000000000000000000000000000000000000000000000000
11011111001010101010100100000000000000000000000000000000000000000000000000000000000000000000
101100011101000111000000000000000000000000000000000000000000000000000000000000000000000000000
100000011110111000000010000000000000000000000000000000000000000000000000000000000000000000000
1111111100011000111111111110101100000000000000000000000000000000000000000000000000000000000000000000
100001100000011000001001000000000000000000000000000000000000000000000000000000000000000000000
110010111011010001011111000000000000000000000000000000000000000000000000000000000000000000000
100111100100101110111111000000000000000000000000000000000000000000000000000000000000000000000
11100100011111010110110000000000000000000000000000000000000000000000000000000000000000000000
1111111110010011101001010001000110000000000000000000000000000000000000000000000000000000000000000000
1111111101101000111110100100110000000000000000000000000000000000000000000000000000000000000000000000
1011010111110000010100000000000000000000000000000000000000000000000000000000000000000000000
110100001101010110110100000000000000000000000000000000000000000000000000000000000000000000000
1111111101101001110101111010001000000000000000000000000000000000000000000000000000000000000000000000
10110000100010101110110000000000000000000000000000000000000000000000000000000000000000000000
1101110100011000010111000000000000000000000000000000000000000000000000000000000000000000000
1111111111101000000011111101001011100000000000000000000000000000000000000000000000000000000000000000
100001001001101010000111000000000000000000000000000000000000000000000000000000000000000000000
11000010110100100001110100000000000000000000000000000000000000000000000000000000000000000
1111111110010100011001111001011010000000000000000000000000000000000000000000000000000000000000000000
100110101001011100110010000000000000000000000000000000000000000000000000000000000000000000000
1100011010000100100111110000000000000000000000000000000000000000000000000000000000000000
11110100100010011111110100000000000000000000000000000000000000000000000000000000000000000000
100111100011100011110110000000000000000000000000000000000000000000000000000000000000000000000
11101001110000110000111100000000000000000000000000000000000000000000000000000000000000000000
1111111101111011100110100111011000000000000000000000000000000000000000000000000000000000000000000000
11000000111011101110010000000000000000000000000000000000000000000000000000000000000000000000
100100101110000001101011000000000000000000000000000000000000000000000000000000000000000000000
10001000110110011001100000000000000000000000000000000000000000000000000000000000000000000000
100110101001111001010110000000000000000000000000000000000000000000000000000000000000000000000
101011000010000001001110000000000000000000000000000000000000000000000000000000000000000000000
10111111011110111111100100000000000000000000000000000000000000000000000000000000000000000000
1111111111101000011110100010010101000000000000000000000000000000000000000000000000000000000000000000
1111111100011010000111011100010100000000000000000000000000000000000000000000000000000000000000000000
1111111110010110010110011001011110000000000000000000000000000000000000000000000000000000000000000000
1111111111101001001110101000100000100000000000000000000000000000000000000000000000000000000000000000
1111111100011011100111001001100000000000000000000000000000000000000000000000000000000000000000000000
1111111101111011010011100111000000000000000000000000000000000000000000000000000000000000000000000000
101101001001000010000111000000000000000000000000000000000000000000000000000000000000000000000
1111111111001001101111001000111011000000000000000000000000000000000000000000000000000000000000000000
110011110001111001110101000000000000000000000000000000000000000000000000000000000000000000000
10000101011110010101101000000000000000000000000000000000000000000000000000000000000000000000
1111111110100010110011001111101110000000000000000000000000000000000000000000000000000000000000000000
11101010000100100110001000000000000000000000000000000000000000000000000000000000000000000000
1101011101111000100011000000000000000000000000000000000000000000000000000000000000000000000
1111111100101011000111101010100100000000000000000000000000000000000000000000000000000000000000000000
101100000001100001001101000000000000000000000000000000000000000000000000000000000000000000
11110100110100101101001100000000000000000000000000000000000000000000000000000000000000000000
10010111100111111011100000000000000000000000000000000000000000000000000000000000000000000000
100000001001000100100001000000000000000000000000000000000000000000000000000000000000000000000
110010100000000001001100000000000000000000000000000000000000000000000000000000000000000000000
101100100100101001010110000000000000000000000000000000000000000000000000000000000000000000000
1111111111100000000110011010110001100000000000000000000000000000000000000000000000000000000000000000
1111111100110100110111000011011100000000000000000000000000000000000000000000000000000000000000000000
11011000001100000100001000000000000000000000000000000000000000000000000000000000000000000000
1111111101100001110000011000101100000000000000000000000000000000000000000000000000000000000000000000
10011111000001110011000100000000000000000000000000000000000000000000000000000000000000000000
11100000111100110000100000000000000000000000000000000000000000000000000000000000000000000000
1111111101011001010110110111000000000000000000000000000000000000000000000000000000000000000000000000
11011001000011101000000100000000000000000000000000000000000000000000000000000000000000000000
1111111101100000110011110111000100000000000000000000000000000000000000000000000000000000000000000000
10011011101000100101110000000000000000000000000000000000000000000000000000000000000000000000
1111111101011000011111011011110000000000000000000000000000000000000000000000000000000000000000000000
101101001010000110100000000000000000000000000000000000000000000000000000000000000000000000000
111100100100001001011001000000000000000000000000000000000000000000000000000000000000000000
100100111000111001000011000000000000000000000000000000000000000000000000000000000000000000000
111011100101010101101111000000000000000000000000000000000000000000000000000000000000000000
1001101010100010111111010000000000000000000000000000000000000000000000000000000000000000000
110010110100011001010011000000000000000000000000000000000000000000000000000000000000000000
110011011011111110100110000000000000000000000000000000000000000000000000000000000000000000000
1111111110100100101101011001011110000000000000000000000000000000000000000000000000000000000000000000
111111011101101001010101000000000000000000000000000000000000000000000000000000000000000000
11111011110000010111000100000000000000000000000000000000000000000000000000000000000000000
100010001000100010110111000000000000000000000000000000000000000000000000000000000000000000000
11000011110111111100010000000000000000000000000000000000000000000000000000000000000000000000
1111111101110010100011111111010000000000000000000000000000000000000000000000000000000000000000000000
100001010101110111010001000000000000000000000000000000000000000000000000000000000000000000000
1111111101101000101001111101000100000000000000000000000000000000000000000000000000000000000000000000
1111111110110010101001111100001100000000000000000000000000000000000000000000000000000000000000000000
110010000001000001011001000000000000000000000000000000000000000000000000000000000000000000000
101001000011000110110001000000000000000000000000000000000000000000000000000000000000000000000
101011011111111111011100000000000000000000000000000000000000000000000000000000000000000000000
10111010110011101101010100000000000000000000000000000000000000000000000000000000000000000
101110111011111011111000000000000000000000000000000000000000000000000000000000000000000000000
1111111110001111001000111111100000000000000000000000000000000000000000000000000000000000000000000000
1111111111010101001100010110100011000000000000000000000000000000000000000000000000000000000000000000
100100100010100111011000000000000000000000000000000000000000000000000000000000000000000000
100001100110100111100001000000000000000000000000000000000000000000000000000000000000000000000
1111111100010010001001110110000000000000000000000000000000000000000000000000000000000000000000000000
1111111110111000010110001001010100000000000000000000000000000000000000000000000000000000000000000000
1111111100101110111011000010110000000000000000000000000000000000000000000000000000000000000000000000
1111111111010001111110011110011101000000000000000000000000000000000000000000000000000000000000000000
11111001110011000000001100000000000000000000000000000000000000000000000000000000000000000000
1111111110011101100101111110010100000000000000000000000000000000000000000000000000000000000000000000
1111111110001111110111100000111010000000000000000000000000000000000000000000000000000000000000000000
100010101011011111110011000000000000000000000000000000000000000000000000000000000000000000000
11100100000111010000101100000000000000000000000000000000000000000000000000000000000000000000
1001001000010000001000110000000000000000000000000000000000000000000000000000000000000000000
11100011000000010011000000000000000000000000000000000000000000000000000000000000000000000000
110000001101100000100111000000000000000000000000000000000000000000000000000000000000000000000
11001110011000011101001000000000000000000000000000000000000000000000000000000000000000000000
11001101010001000011000000000000000000000000000000000000000000000000000000000000000000000000
10111011011011110100100000000000000000000000000000000000000000000000000000000000000000000000
1111111101001110100010000110100100000000000000000000000000000000000000000000000000000000000000000000
1111111110110100101000100110001010000000000000000000000000000000000000000000000000000000000000000000
1111111110100010110111000101101010000000000000000000000000000000000000000000000000000000000000000000
101001110101001111111011000000000000000000000000000000000000000000000000000000000000000
1111111110101100111110011101100110000000000000000000000000000000000000000000000000000000000000000000
10100100110001101000100100000000000000000000000000000000000000000000000000000000000000000000
1111111101111111100000100110011000000000000000000000000000000000000000000000000000000000000000000000
1111111100110011001011100110000000000000000000000000000000000000000000000000000000000000000000000000
1111111101111100101001101101011100000000000000000000000000000000000000000000000000000000000000000000
110010001001001011100001000000000000000000000000000000000000000000000000000000000000000000000
1111111110110000110110001001100100000000000000000000000000000000000000000000000000000000000000000000
110011010000101100100111000000000000000000000000000000000000000000000000000000000000000000000
1111111110011101101111010001010010000000000000000000000000000000000000000000000000000000000000000000
1111111101001110001100101100001100000000000000000000000000000000000000000000000000000000000000000000
100100100111100110110101000000000000000000000000000000000000000000000000000000000000000000000
1111111110001001100101111110111010000000000000000000000000000000000000000000000000000000000000000000
1111111101111001011101100110100000000000000000000000000000000000000000000000000000000000000000000000
1111100110000010011011100000000000000000000000000000000000000000000000000000000000000000000
1101011101011011000111000000000000000000000000000000000000000000000000000000000000000000000
1111111111111000101101000011000101110000000000000000000000000000000000000000000000000000000000000000
1111111100011100000110111100110000000000000000000000000000000000000000000000000000000000000000000000
1111111110010000110011100001101100000000000000000000000000000000000000000000000000000000000000000000
11110010111011000010011100000000000000000000000000000000000000000000000000000000000000000000
100000000011110000101101000000000000000000000000000000000000000000000000000000000000000000000
10100101111110100010111000000000000000000000000000000000000000000000000000000000000000000
1011110111101100010011010000000000000000000000000000000000000000000000000000000000000000000
1111111101001110000011011100011100000000000000000000000000000000000000000000000000000000000000000000
1001110000111111000100100000000000000000000000000000000000000000000000000000000000000000000
100100100101110111110101000000000000000000000000000000000000000000000000000000000000000000000
1110111000010011000000110000000000000000000000000000000000000000000000000000000000000000000
1111111101101100011110111001101000000000000000000000000000000000000000000000000000000000000000000000
11110011110001111111111000000000000000000000000000000000000000000000000000000000000000000
101010110110101001000010000000000000000000000000000000000000000000000000000000000000000000000
1111011001010010100001110000000000000000000000000000000000000000000000000000000000000000000
100001101101101110011010000000000000000000000000000000000000000000000000000000000000000000000
1111111111111111011100001010111111001100000000000000000000000000000000000000000000000000000000000000
1111111101111101101101011011000100000000000000000000000000000000000000000000000000000000000000000000
1111111100110100010111100100000100000000000000000000000000000000000000000000000000000000000000000000
1011111010110110111111100000000000000000000000000000000000000000000000000000000000000000
100100001000001010010100000000000000000000000000000000000000000000000000000000000000000000000
1010111000000101011000010000000000000000000000000000000000000000000000000000000000000000000
100111011111011010010010000000000000000000000000000000000000000000000000000000000000000000000
101010011111111011100001000000000000000000000000000000000000000000000000000000000000000000000
1111111111010011101010100110000111000000000000000000000000000000000000000000000000000000000000000000
110100001010001010111111000000000000000000000000000000000000000000000000000000000000000000000
1111111111101111011100001010100100100000000000000000000000000000000000000000000000000000000000000000
1110001000000100110001110000000000000000000000000000000000000000000000000000000000000000000
11110001110111111101000100000000000000000000000000000000000000000000000000000000000000000000
1111111111001100011101100001101111000000000000000000000000000000000000000000000000000000000000000000
10111100000100100001111000000000000000000000000000000000000000000000000000000000000000000000
1010101100101010011110010000000000000000000000000000000000000000000000000000000000000000000
10110111010010001011101100000000000000000000000000000000000000000000000000000000000000000000
1010000101000010101101100000000000000000000000000000000000000000000000000000000000000000000
1111111110100011111010111110100110000000000000000000000000000000000000000000000000000000000000000000
1011111001010101100010000000000000000000000000000000000000000000000000000000000000000000000
11010110111110010011110100000000000000000000000000000000000000000000000000000000000000000000
101010110110101000110001000000000000000000000000000000000000000000000000000000000000000000000
1111111100100100111010100101010000000000000000000000000000000000000000000000000000000000000000000000
10111001011111011111101100000000000000000000000000000000000000000000000000000000000000000000
101100100010000010100110000000000000000000000000000000000000000000000000000000000000000000000
101101111110001000110010000000000000000000000000000000000000000000000000000000000000000000000
11001110000001100000101100000000000000000000000000000000000000000000000000000000000000000000
1111111101100010110001001100011000000000000000000000000000000000000000000000000000000000000000000000
1111111101001100111111011110111000000000000000000000000000000000000000000000000000000000000000000000
110000110011000001000111000000000000000000000000000000000000000000000000000000000000000000000
1111111111111110011000010000101111101110000000000000000000000000000000000000000000000000000000000000
10001010110000001100000000000000000000000000000000000000000000000000000000000000000000000000
1111111111110100011011111010011100000000000000000000000000000000000000000000000000000000000000000000
1111111100100011001011011100101100000000000000000000000000000000000000000000000000000000000000000000
100011010011000110000110000000000000000000000000000000000000000000000000000000000000000000
11010111110001101111000100000000000000000000000000000000000000000000000000000000000000000000
1111111110100101011000110100111000000000000000000000000000000000000000000000000000000000000000000000
101101111011100000101010000000000000000000000000000000000000000000000000000000000000000000000
100100101000010110000001000000000000000000000000000000000000000000000000000000000000000000000
100010000001100011011010000000000000000000000000000000000000000000000000000000000000000000000
10100011010100001101000000000000000000000000000000000000000000000000000000000000000000000
1111111101011110101111101001001100000000000000000000000000000000000000000000000000000000000000000000
1101111110001011011010110000000000000000000000000000000000000000000000000000000000000000000
101010110110000110001010000000000000000000000000000000000000000000000000000000000000000000000
1101000101101000010100100000000000000000000000000000000000000000000000000000000000000000000
11110101110111011100110000000000000000000000000000000000000000000000000000000000000000000000
1111111110110111001110010000010010000000000000000000000000000000000000000000000000000000000000000000
1101011110100011101111100000000000000000000000000000000000000000000000000000000000000000000
101011010000001001001101000000000000000000000000000000000000000000000000000000000000000000000
1111111111000001001011101010110100000000000000000000000000000000000000000000000000000000000000000000
11110111110001000011010100000000000000000000000000000000000000000000000000000000000000000000
1111111101111000100110111000111100000000000000000000000000000000000000000000000000000000000000000000
1111111100100001000101100001001000000000000000000000000000000000000000000000000000000000000000000000
1100010101010111100110100000000000000000000000000000000000000000000000000000000000000000000
101011011011100100011000000000000000000000000000000000000000000000000000000000000000000000000
1111111100101101111011110100111000000000000000000000000000000000000000000000000000000000000000000000
11100001000110100001011000000000000000000000000000000000000000000000000000000000000000000000
1111111100011110010011110001101100000000000000000000000000000000000000000000000000000000000000000000
1111111110110110110101110010010000000000000000000000000000000000000000000000000000000000000000000000
1111111101000100010010111011000100000000000000000000000000000000000000000000000000000000000000000000
110011010001110000011110000000000000000000000000000000000000000000000000000000000000000000000
100111011000111100000001000000000000000000000000000000000000000000000000000000000000000000000
1111111110010110011000011110110110000000000000000000000000000000000000000000000000000000000000000000
1001011110001100000100110000000000000000000000000000000000000000000000000000000000000000
100000000010001010110001000000000000000000000000000000000000000000000000000000000000000000000
11111111001011011011011100000000000000000000000000000000000000000000000000000000000000000000
100110110000101000010011000000000000000000000000000000000000000000000000000000000000000000000
11001111010001100110101100000000000000000000000000000000000000000000000000000000000000000000
1111111110000001000110011101011010000000000000000000000000000000000000000000000000000000000000000000
11111000000001110011011000000000000000000000000000000000000000000000000000000000000000000
1111111101111001001100110111001100000000000000000000000000000000000000000000000000000000000000000000
11011000001001101111100100000000000000000000000000000000000000000000000000000000000000000000
100100010100001000101011000000000000000000000000000000000000000000000000000000000000000000000
1111111111001101111110111000111100000000000000000000000000000000000000000000000000000000000000000000
1111111100011111010011011011100100000000000000000000000000000000000000000000000000000000000000000000
1111111101011110101101101010101000000000000000000000000000000000000000000000000000000000000000000000
100101100001000101001110000000000000000000000000000000000000000000000000000000000000000000
1111111101101001100001101100110000000000000000000000000000000000000000000000000000000000000000000000
11010011111000011000011100000000000000000000000000000000000000000000000000000000000000000000
11001001001000001111001000000000000000000000000000000000000000000000000000000000000000000000
11111010101010101001111000000000000000000000000000000000000000000000000000000000000000000000
100101011010011101010011000000000000000000000000000000000000000000000000000000000000000000000
11110010000101101011101100000000000000000000000000000000000000000000000000000000000000000000
11111101000001001011000100000000000000000000000000000000000000000000000000000000000000000000
100001110101111010010111000000000000000000000000000000000000000000000000000000000000000000000
1101000001101110010000100000000000000000000000000000000000000000000000000000000000000000000
110010011011100111101100000000000000000000000000000000000000000000000000000000000000000000000
1111111111111010111010100010101100000000000000000000000000000000000000000000000000000000000000000000
1111111110111100010101010011110000000000000000000000000000000000000000000000000000000000000000000000
11000001100010001100111000000000000000000000000000000000000000000000000000000000000000000000
1111111110110101110110011000110110000000000000000000000000000000000000000000000000000000000000000000
11110001110111011110000100000000000000000000000000000000000000000000000000000000000000000
100011011001101110001100000000000000000000000000000000000000000000000000000000000000000000000
100110011101000101010011000000000000000000000000000000000000000000000000000000000000000000000
110001110110110000010010000000000000000000000000000000000000000000000000000000000000000000000
100111010110100110010000000000000000000000000000000000000000000000000000000000000000000000000
1111111111110111110111011101011101100000000000000000000000000000000000000000000000000000000000000000
11010001011101111110011100000000000000000000000000000000000000000000000000000000000000000000
100111001101111011101101000000000000000000000000000000000000000000000000000000000000000000000
11001010111110101010110000000000000000000000000000000000000000000000000000000000000000000000
10001100110010000110001000000000000000000000000000000000000000000000000000000000000000000000
1001011011011111001000100000000000000000000000000000000000000000000000000000000000000000000
100110111101010010010101000000000000000000000000000000000000000000000000000000000000000000000
1111111110110110010100100001101010000000000000000000000000000000000000000000000000000000000000000000
101001110011011001101110000000000000000000000000000000000000000000000000000000000000000000000
110100000100010101000001000000000000000000000000000000000000000000000000000000000000000000000
1111111111010000110100101000111000000000000000000000000000000000000000000000000000000000000000000000
11101000010100011011011100000000000000000000000000000000000000000000000000000000000000000000
10011101101010110001000000000000000000000000000000000000000000000000000000000000000000000000
1111111110010000110111001110010000000000000000000000000000000000000000000000000000000000000000000000
100000001110010111001101000000000000000000000000000000000000000000000000000000000000000000000
100101011001000010001110000000000000000000000000000000000000000000000000000000000000000000000
100011010100000010000110000000000000000000000000000000000000000000000000000000000000000000000
10100100101000001110110100000000000000000000000000000000000000000000000000000000000000000000
101000010000000111000110000000000000000000000000000000000000000000000000000000000000000000
1111111101100101100110111010001100000000000000000000000000000000000000000000000000000000000000000000
11000100110101011110111100000000000000000000000000000000000000000000000000000000000000000000
1111111110001110111011111001101000000000000000000000000000000000000000000000000000000000000000000000
1111111100011100100011110101010000000000000000000000000000000000000000000000000000000000000000000000
10000100101101110000100100000000000000000000000000000000000000000000000000000000000000000000
1000000101100110001011000000000000000000000000000000000000000000000000000000000000000000000
1111111101100111110011001000111000000000000000000000000000000000000000000000000000000000000000000000
1111111101010001010010011100111100000000000000000000000000000000000000000000000000000000000000000000
1011110010111010010011110000000000000000000000000000000000000000000000000000000000000000000
11010001011110000110000100000000000000000000000000000000000000000000000000000000000000000000
11100001001100111001011000000000000000000000000000000000000000000000000000000000000000000
1111111110101100001011110001110110000000000000000000000000000000000000000000000000000000000000000000
1111111111101100101101010011101000000000000000000000000000000000000000000000000000000000000000000000
1111111111000101010011000111000101000000000000000000000000000000000000000000000000000000000000000000
10011100011111011001000100000000000000000000000000000000000000000000000000000000000000000000
1111111101011000111101110100101100000000000000000000000000000000000000000000000000000000000000000000
1111111110011100101011101001100100000000000000000000000000000000000000000000000000000000000000000000
1111111111111011101010010011100111110000000000000000000000000000000000000000000000000000000000000000
1111111110001001010100010101010100000000000000000000000000000000000000000000000000000000000000000000
101110101001101000111100000000000000000000000000000000000000000000000000000000000000000000000
1111111101101111010010001111001000000000000000000000000000000000000000000000000000000000000000000000
1100111010110100111011110000000000000000000000000000000000000000000000000000000000000000000
1111111110111100101010011000101100000000000000000000000000000000000000000000000000000000000000000000
10110110111010110100000000000000000000000000000000000000000000000000000000000000000000000000
1111111110001111110011011010100110000000000000000000000000000000000000000000000000000000000000000000
1111111101110001100100100010010000000000000000000000000000000000000000000000000000000000000000000000
1111111111111101011001100000011101110000000000000000000000000000000000000000000000000000000000000000
1111111100010110101110110111011000000000000000000000000000000000000000000000000000000000000000000000
10001100001111100001000100000000000000000000000000000000000000000000000000000000000000000000
10011100000100111001101000000000000000000000000000000000000000000000000000000000000000000000
1010101110010011100110000000000000000000000000000000000000000000000000000000000000000000000
100011000010100000011010000000000000000000000000000000000000000000000000000000000000000000000
110000111101000001101010000000000000000000000000000000000000000000000000000000000000000000000
100110000011101110010011000000000000000000000000000000000000000000000000000000000000000000000
1111111110111011111010000001000000000000000000000000000000000000000000000000000000000000000000000000
1111111101110101010000011110100000000000000000000000000000000000000000000000000000000000000000000000
1111111101010110111111001101110100000000000000000000000000000000000000000000000000000000000000000000
110001001111011111100010000000000000000000000000000000000000000000000000000000000000000000000
10011001111111000100000000000000000000000000000000000000000000000000000000000000000000000000
1000101001011101000001110000000000000000000000000000000000000000000000000000000000000000000
11011011000011110101001000000000000000000000000000000000000000000000000000000000000000000000
1101001101111001101101100000000000000000000000000000000000000000000000000000000000000000000
1010001111001101000101100000000000000000000000000000000000000000000000000000000000000000000
11011000111101111001111100000000000000000000000000000000000000000000000000000000000000000000
101110100110001001101000000000000000000000000000000000000000000000000000000000000000000000
1111111110110110101100101001000000000000000000000000000000000000000000000000000000000000000000000000
10101011100010110101110100000000000000000000000000000000000000000000000000000000000000000
1111111101111111101010100100000100000000000000000000000000000000000000000000000000000000000000000000
1111111100010100001101001010010000000000000000000000000000000000000000000000000000000000000000000000
10000111101111001011101000000000000000000000000000000000000000000000000000000000000000000
101000111111011011101100000000000000000000000000000000000000000000000000000000000000000000000
10011100100010011001000100000000000000000000000000000000000000000000000000000000000000000000
11111011010101101100110000000000000000000000000000000000000000000000000000000000000000000000
111011101110110101000011000000000000000000000000000000000000000000000000000000000000000000
1111111111110010011000000011011101000000000000000000000000000000000000000000000000000000000000000000
100010001010001010110111000000000000000000000000000000000000000000000000000000000000000000000
110010011011101111000110000000000000000000000000000000000000000000000000000000000000000000000
11011100010111100111011000000000000000000000000000000000000000000000000000000000000000000
100000110000100100101011000000000000000000000000000000000000000000000000000000000000000000000
10111000000000010111101100000000000000000000000000000000000000000000000000000000000000000000
1110010011001111011011100000000000000000000000000000000000000000000000000000000000000000000
11000110001111111100000100000000000000000000000000000000000000000000000000000000000000000000
11110111011011010001010100000000000000000000000000000000000000000000000000000000000000000000
1111111100100101000100001000001100000000000000000000000000000000000000000000000000000000000000000000
1111111100010100000001110010111000000000000000000000000000000000000000000000000000000000000000000000
1111111100110000000110101000000000000000000000000000000000000000000000000000000000000000000000000000
11101110111100010010110000000000000000000000000000000000000000000000000000000000000000000000
1111111101010010100100001010110100000000000000000000000000000000000000000000000000000000000000000000
1111111110010101101100101000001010000000000000000000000000000000000000000000000000000000000000000000
1111111101111101100001011000011000000000000000000000000000000000000000000000000000000000000000000000
1100010010011010101111110000000000000000000000000000000000000000000000000000000000000000000
10111001000101010101111000000000000000000000000000000000000000000000000000000000000000000000
100100000010110111011010000000000000000000000000000000000000000000000000000000000000000000000
1110000101010000010110100000000000000000000000000000000000000000000000000000000000000000000
1111111101001010001100001000001100000000000000000000000000000000000000000000000000000000000000000000
1111111110110000111011101010011000000000000000000000000000000000000000000000000000000000000000000000
101001010001110110100011000000000000000000000000000000000000000000000000000000000000000000000
1001100100100000011100100000000000000000000000000000000000000000000000000000000000000000000
101010111111011011000000000000000000000000000000000000000000000000000000000000000000000000000
10011111000011010111011100000000000000000000000000000000000000000000000000000000000000000000
1111111100101010100010110000100100000000000000000000000000000000000000000000000000000000000000000000
1111111100101010010101100100110000000000000000000000000000000000000000000000000000000000000000000000
1001111000111100101001010000000000000000000000000000000000000000000000000000000000000000000
1111111110011101101110111001111000000000000000000000000000000000000000000000000000000000000000000000
101110010110000001110111000000000000000000000000000000000000000000000000000000000000000000000
1111111101110110101010111011100100000000000000000000000000000000000000000000000000000000000000000000
100100100111110100101000000000000000000000000000000000000000000000000000000000000000000000000
101001010101011111011111000000000000000000000000000000000000000000000000000000000000000000000
1111111111011101000010101010101010000000000000000000000000000000000000000000000000000000000000000000
11110001110101100010011100000000000000000000000000000000000000000000000000000000000000000
100100100011011001001001000000000000000000000000000000000000000000000000000000000000000000
101110000111000110111110000000000000000000000000000000000000000000000000000000000000000000000
1000101100011001101001010000000000000000000000000000000000000000000000000000000000000000000
1111111100010001101010110000010100000000000000000000000000000000000000000000000000000000000000000000
100000101111101111001100000000000000000000000000000000000000000000000000000000000000000000000
11100010011100000011111100000000000000000000000000000000000000000000000000000000000000000000
10111110001110010000010000000000000000000000000000000000000000000000000000000000000000000000
110001100001011010000010000000000000000000000000000000000000000000000000000000000000000000000
10001010011001001001011100000000000000000000000000000000000000000000000000000000000000000000
1111111111101010100111110110111100100000000000000000000000000000000000000000000000000000000000000000
1111111110100110110010101000110000000000000000000000000000000000000000000000000000000000000000000000
101100100011111110111011000000000000000000000000000000000000000000000000000000000000000000000
11100110100010100011110100000000000000000000000000000000000000000000000000000000000000000000
101100101011111010000000000000000000000000000000000000000000000000000000000000000000000000000
1111011001110100011110110000000000000000000000000000000000000000000000000000000000000000000
1111111110011000101000000010110010000000000000000000000000000000000000000000000000000000000000000000
1111111111000110001111001111111011000000000000000000000000000000000000000000000000000000000000000000
10001010101001000010111100000000000000000000000000000000000000000000000000000000000000000
101100001100100001011011000000000000000000000000000000000000000000000000000000000000000000000
100100001001111011110010000000000000000000000000000000000000000000000000000000000000000000000
11000001001110011101101000000000000000000000000000000000000000000000000000000000000000000000
110100000011010110000100000000000000000000000000000000000000000000000000000000000000000000000
10110000110111001111011000000000000000000000000000000000000000000000000000000000000000000000
1111111110100000011010001011101000000000000000000000000000000000000000000000000000000000000000000000
11110000110010100010000000000000000000000000000000000000000000000000000000000000000000000000
1111111100011110001101111110000000000000000000000000000000000000000000000000000000000000000000000000
101101001000100101101011000000000000000000000000000000000000000000000000000000000000000000000
1111111101110111110010001010111000000000000000000000000000000000000000000000000000000000000000000000
11110001011000000000111100000000000000000000000000000000000000000000000000000000000000000000
1011001010000101001010000000000000000000000000000000000000000000000000000000000000000000000
1001000001011101010110010000000000000000000000000000000000000000000000000000000000000000000
1111111111001100010001001101010101000000000000000000000000000000000000000000000000000000000000000000
1111111111001010000110010011111101000000000000000000000000000000000000000000000000000000000000000000
10110100001111111011010000000000000000000000000000000000000000000000000000000000000000000000
101110110111100000101100000000000000000000000000000000000000000000000000000000000000000000000
1111111110110111011100110010010010000000000000000000000000000000000000000000000000000000000000000000
1111111110101100010010110011010000000000000000000000000000000000000000000000000000000000000000000000
1111111101100100010000000111110000000000000000000000000000000000000000000000000000000000000000000000
11001100000100100001000100000000000000000000000000000000000000000000000000000000000000000000
1111110110010110100101000000000000000000000000000000000000000000000000000000000000000000000
1111111100010110110011001010010100000000000000000000000000000000000000000000000000000000000000000000
10100101010011100011000000000000000000000000000000000000000000000000000000000000000000000000
1111111110001100111110000010001010000000000000000000000000000000000000000000000000000000000000000000
110100001000111110111110000000000000000000000000000000000000000000000000000000000000000000000
10101000011101011101111000000000000000000000000000000000000000000000000000000000000000000000
11111110111001010110011100000000000000000000000000000000000000000000000000000000000000000000
100111100000100100000100000000000000000000000000000000000000000000000000000000000000000000000
10111111001111111010111000000000000000000000000000000000000000000000000000000000000000000
1111111110000110000110110101100010000000000000000000000000000000000000000000000000000000000000000000
1111111110011100001101000111001010000000000000000000000000000000000000000000000000000000000000000000
110001100100011000100001000000000000000000000000000000000000000000000000000000000000000000000
110111110101100110100010000000000000000000000000000000000000000000000000000000000000000000
1111111101100111101110111111011100000000000000000000000000000000000000000000000000000000000000000000
100000111011000011111111000000000000000000000000000000000000000000000000000000000000000000000
101111001111101001111100000000000000000000000000000000000000000000000000000000000000000000
101111111001111001001100000000000000000000000000000000000000000000000000000000000000000000
1111111101010001110110011011101000000000000000000000000000000000000000000000000000000000000000000000
11100000110000000111100100000000000000000000000000000000000000000000000000000000000000000000
100000000110000100100110000000000000000000000000000000000000000000000000000000000000000000000
1100011101000000001110000000000000000000000000000000000000000000000000000000000000000000000
100100011010110111100110000000000000000000000000000000000000000000000000000000000000000000000
1100110011001000001101010000000000000000000000000000000000000000000000000000000000000000000
111111010111010110111100000000000000000000000000000000000000000000000000000000000000000000
10100111111100001000101000000000000000000000000000000000000000000000000000000000000000000000
110010000101010000101100000000000000000000000000000000000000000000000000000000000000000000
110011110000100001101100000000000000000000000000000000000000000000000000000000000000000000000
10101000001011110011100000000000000000000000000000000000000000000000000000000000000000000000
11100010110100000011000100000000000000000000000000000000000000000000000000000000000000000000
11110101010110011010100000000000000000000000000000000000000000000000000000000000000000000000
11110111101001001000111100000000000000000000000000000000000000000000000000000000000000000000
110000010011010110110000000000000000000000000000000000000000000000000000000000000000000000000
1111111111101100000110101010101010100000000000000000000000000000000000000000000000000000000000000000
10000010000110100111111100000000000000000000000000000000000000000000000000000000000000000000
101100011000010110100111000000000000000000000000000000000000000000000000000000000000000000000
1110100000111111111011000000000000000000000000000000000000000000000000000000000000000000000
1111111101011011001010101000011100000000000000000000000000000000000000000000000000000000000000000000
101110101010001110110010000000000000000000000000000000000000000000000000000000000000000000000
10111110011010100101101000000000000000000000000000000000000000000000000000000000000000000
1111111101101100001101101011011000000000000000000000000000000000000000000000000000000000000000000000
1111111110011111101010100110000100000000000000000000000000000000000000000000000000000000000000000000
111010000001001100001111000000000000000000000000000000000000000000000000000000000000000000
101101000000101010001100000000000000000000000000000000000000000000000000000000000000000000000
100011111010101001100010000000000000000000000000000000000000000000000000000000000000000000
1111111100100010001100000011101100000000000000000000000000000000000000000000000000000000000000000000
1110000101010111001101110000000000000000000000000000000000000000000000000000000000000000000
10100100100100011001000100000000000000000000000000000000000000000000000000000000000000000
1111111110011110111011101001001000000000000000000000000000000000000000000000000000000000000000000000
101110010001010000001110000000000000000000000000000000000000000000000000000000000000000000000
110011101011110110010000000000000000000000000000000000000000000000000000000000000000000000000
101110100110110100010010000000000000000000000000000000000000000000000000000000000000000000000
100101101000100110010101000000000000000000000000000000000000000000000000000000000000000000000
101111100000101110010101000000000000000000000000000000000000000000000000000000000000000000000
1000100000100001000111010000000000000000000000000000000000000000000000000000000000000000
1111111100011001100110001111100100000000000000000000000000000000000000000000000000000000000000000000
1111111110001101000110110001010110000000000000000000000000000000000000000000000000000000000000000000
1111111110110111101101000110100100000000000000000000000000000000000000000000000000000000000000000000
11110110010000110001011100000000000000000000000000000000000000000000000000000000000000000000
1111111110100010000110001110100110000000000000000000000000000000000000000000000000000000000000000000
101010101000111011011111000000000000000000000000000000000000000000000000000000000000000000000
1111111101001000110001111001010000000000000000000000000000000000000000000000000000000000000000000000
10110101110101111001010000000000000000000000000000000000000000000000000000000000000000000
1010100101011011011110110000000000000000000000000000000000000000000000000000000000000000000
10001011101011101101001000000000000000000000000000000000000000000000000000000000000000000000
11101000010101000001001100000000000000000000000000000000000000000000000000000000000000000000
1111111110100111011010110000010110000000000000000000000000000000000000000000000000000000000000000000
101100111110100001001100000000000000000000000000000000000000000000000000000000000000000000000
100110011010100010000011000000000000000000000000000000000000000000000000000000000000000000000
1111111101111100011111011101010000000000000000000000000000000000000000000000000000000000000000000000
1111111110011011011111000101110110000000000000000000000000000000000000000000000000000000000000000000
10101000100010001010100000000000000000000000000000000000000000000000000000000000000000000000
1111111101010001001010001001111100000000000000000000000000000000000000000000000000000000000000000000
1111111111100001101011111111101100000000000000000000000000000000000000000000000000000000000000000000
111011001110111001110100000000000000000000000000000000000000000000000000000000000000000000
1111111100101110011001101111010100000000000000000000000000000000000000000000000000000000000000000000
1111111111011111000111010010000000000000000000000000000000000000000000000000000000000000000000000000
1111111111110010110111110010110111110000000000000000000000000000000000000000000000000000000000000000
1111111111101010010101110001001111100000000000000000000000000000000000000000000000000000000000000000
101000000111010101110011000000000000000000000000000000000000000000000000000000000000000000000
10010100000111110000110000000000000000000000000000000000000000000000000000000000000000000000
11011001111001111011100000000000000000000000000000000000000000000000000000000000000000000000
1111111100100111110100110011011100000000000000000000000000000000000000000000000000000000000000000000
100111000011011010110010000000000000000000000000000000000000000000000000000000000000000000000
1111111110110001100101010101000100000000000000000000000000000000000000000000000000000000000000000000
1111111111100100100101100110110011100000000000000000000000000000000000000000000000000000000000000000
11010110111100001110011100000000000000000000000000000000000000000000000000000000000000000000
101111110100100111000010000000000000000000000000000000000000000000000000000000000000000000000
1010001001010010000101110000000000000000000000000000000000000000000000000000000000000000000
11010101110110111100100100000000000000000000000000000000000000000000000000000000000000000000
1111111110001101010011100101001000000000000000000000000000000000000000000000000000000000000000000000
1100001111011111101111100000000000000000000000000000000000000000000000000000000000000000000
10010001100111101110110000000000000000000000000000000000000000000000000000000000000000000000
1111111101110000110011111111100000000000000000000000000000000000000000000000000000000000000000000000
1100111000000011111101010000000000000000000000000000000000000000000000000000000000000000000
10011000010011000110011100000000000000000000000000000000000000000000000000000000000000000000
100001111101010111001000000000000000000000000000000000000000000000000000000000000000000000
101100011010111010111010000000000000000000000000000000000000000000000000000000000000000000000
111011001100000000100101000000000000000000000000000000000000000000000000000000000000000000
100110101111110000010101000000000000000000000000000000000000000000000000000000000000000000
1111111100110010111011001011111000000000000000000000000000000000000000000000000000000000000000000000
100000000000000000100100000000000000000000000000000000000000000000000000000000000000000000000
1111111110111110011001111101000100000000000000000000000000000000000000000000000000000000000000000000
1111111101000010011100100010001100000000000000000000000000000000000000000000000000000000000000000000
1111111100110011011101000000000100000000000000000000000000000000000000000000000000000000000000000000
110000100111101000001111000000000000000000000000000000000000000000000000000000000000000000000
1111111111101010011000000100111100000000000000000000000000000000000000000000000000000000000000000000
101110101010010000001001000000000000000000000000000000000000000000000000000000000000000000000
1111111100101011010010001000000100000000000000000000000000000000000000000000000000000000000000000000
10010111111011101101011000000000000000000000000000000000000000000000000000000000000000000000
11100011110001010011010000000000000000000000000000000000000000000000000000000000000000000000
101100001100100010000011000000000000000000000000000000000000000000000000000000000000000000000
11110100100100010100110000000000000000000000000000000000000000000000000000000000000000000000
10111001101001011010011100000000000000000000000000000000000000000000000000000000000000000000
101011110101111110000101000000000000000000000000000000000000000000000000000000000000000000000
1111111101110100101010010101100000000000000000000000000000000000000000000000000000000000000000000000
101001001001000100010110000000000000000000000000000000000000000000000000000000000000000000000
1111100111011110011110100000000000000000000000000000000000000000000000000000000000000000000
111011110000001111111100000000000000000000000000000000000000000000000000000000000000000000
1111111110010110100010101010111010000000000000000000000000000000000000000000000000000000000000000000
1111111110111100011101111101101010000000000000000000000000000000000000000000000000000000000000000000
100110011101001001111000000000000000000000000000000000000000000000000000000000000000000000000
1111111110100010100101011001101100000000000000000000000000000000000000000000000000000000000000000000
100010100100100001100110000000000000000000000000000000000000000000000000000000000000000
1101011001011111100001010000000000000000000000000000000000000000000000000000000000000000000
1111111111001010101100011010000110000000000000000000000000000000000000000000000000000000000000000000
10010011011011111011110100000000000000000000000000000000000000000000000000000000000000000000
10110100000101010101101000000000000000000000000000000000000000000000000000000000000000000
1111111110100010110011011000111110000000000000000000000000000000000000000000000000000000000000000000
11100111011100010100111100000000000000000000000000000000000000000000000000000000000000000000
1111111110000011111001010110000110000000000000000000000000000000000000000000000000000000000000000000
10101000000010011101111100000000000000000000000000000000000000000000000000000000000000000000
101011101011011000001001000000000000000000000000000000000000000000000000000000000000000000000
10111101010011011000000000000000000000000000000000000000000000000000000000000000000000000000
10111101000011011101010100000000000000000000000000000000000000000000000000000000000000000000
1111111111110101000100011001110110000000000000000000000000000000000000000000000000000000000000000000
1111111100100000101100010000011100000000000000000000000000000000000000000000000000000000000000000000
101011101100100011111000000000000000000000000000000000000000000000000000000000000000000000000
1111111101100000101010101110011000000000000000000000000000000000000000000000000000000000000000000000
1111111101011010111101001011100100000000000000000000000000000000000000000000000000000000000000000000
101100111001101101110001000000000000000000000000000000000000000000000000000000000000000000000
100000100110101111010101000000000000000000000000000000000000000000000000000000000000000000
1111111110010100001101101110100100000000000000000000000000000000000000000000000000000000000000000000
1111111101011100000100110110111100000000000000000000000000000000000000000000000000000000000000000000
100001111010000111001101000000000000000000000000000000000000000000000000000000000000000000000
101000011001111110101010000000000000000000000000000000000000000000000000000000000000000000000
11110010001101001101001100000000000000000000000000000000000000000000000000000000000000000000
1111101100100100011101010000000000000000000000000000000000000000000000000000000000000000000
100000101010011011100011000000000000000000000000000000000000000000000000000000000000000000000
1111111110110011100000101010100000000000000000000000000000000000000000000000000000000000000000000000
101011101001101110111100000000000000000000000000000000000000000000000000000000000000000000
1111111110011010000000110100100000000000000000000000000000000000000000000000000000000000000000000000
1111111110110111111001001100000010000000000000000000000000000000000000000000000000000000000000000000
110001100110111110011000000000000000000000000000000000000000000000000000000000000000000000000
11001010011000000110011100000000000000000000000000000000000000000000000000000000000000000000
1101001010000111110001100000000000000000000000000000000000000000000000000000000000000000000
10010110110110110101100000000000000000000000000000000000000000000000000000000000000000000000
10001010001100001110111100000000000000000000000000000000000000000000000000000000000000000000
1111111111101000101100010011100010100000000000000000000000000000000000000000000000000000000000000000
1111111110110101110110100010101100000000000000000000000000000000000000000000000000000000000000000000
10001110100000000001010100000000000000000000000000000000000000000000000000000000000000000000
11001110011101101110100100000000000000000000000000000000000000000000000000000000000000000000
110011101011111110011000000000000000000000000000000000000000000000000000000000000000000000000
1111111111010111000100001101100100000000000000000000000000000000000000000000000000000000000000000000
1111111100100101001001011111010000000000000000000000000000000000000000000000000000000000000000000000
110001100000001001111000000000000000000000000000000000000000000000000000000000000000000000000
1111111101100011011111111110100000000000000000000000000000000000000000000000000000000000000000000000
101010110011101101001111000000000000000000000000000000000000000000000000000000000000000000000
1111111101010110000010111110111000000000000000000000000000000000000000000000000000000000000000000000
11011000001110110110010000000000000000000000000000000000000000000000000000000000000000000000
101100101001110001101101000000000000000000000000000000000000000000000000000000000000000000000
100101011010011011000001000000000000000000000000000000000000000000000000000000000000000000000
1111111101100001001110100101100100000000000000000000000000000000000000000000000000000000000000000000
1110111010000111000010110000000000000000000000000000000000000000000000000000000000000000000
1110011011011111111110100000000000000000000000000000000000000000000000000000000000000000000
111010111000010101101000000000000000000000000000000000000000000000000000000000000000
1111111101101010010000011111000000000000000000000000000000000000000000000000000000000000000000000000
1111111101101011000011101001010000000000000000000000000000000000000000000000000000000000000000000000
1111111100101010010000000011111100000000000000000000000000000000000000000000000000000000000000000000
100110001000101110001000000000000000000000000000000000000000000000000000000000000000000000000
1111111111100100011011101010000010000000000000000000000000000000000000000000000000000000000000000000
11011110000110001110111100000000000000000000000000000000000000000000000000000000000000000000
1111111101001111101000100100101000000000000000000000000000000000000000000000000000000000000000000000
1111111111010110101010100011010100000000000000000000000000000000000000000000000000000000000000000000
1111111111100000000101011011001101000000000000000000000000000000000000000000000000000000000000000000
1010101010100110100000110000000000000000000000000000000000000000000000000000000000000000000
10010111000100111001100100000000000000000000000000000000000000000000000000000000000000000000
1111111101010111111000100101010100000000000000000000000000000000000000000000000000000000000000000000
1111111110010011110110000010000000000000000000000000000000000000000000000000000000000000000000000000
1100111100001000101001000000000000000000000000000000000000000000000000000000000000000000000
110011111111000011101001000000000000000000000000000000000000000000000000000000000000000000
100101011001011110000111000000000000000000000000000000000000000000000000000000000000000000000
1111111110001011101000010000010010000000000000000000000000000000000000000000000000000000000000000000
100100000101110101100101000000000000000000000000000000000000000000000000000000000000000000000
100000101101010110110101000000000000000000000000000000000000000000000000000000000000000000000
11100101101100100000001100000000000000000000000000000000000000000000000000000000000000000000
1010011110110110110101000000000000000000000000000000000000000000000000000000000000000000000
110011100110010110110010000000000000000000000000000000000000000000000000000000000000000000000
101100000010000100011001000000000000000000000000000000000000000000000000000000000000000000000
1111111111101000000000000110101100100000000000000000000000000000000000000000000000000000000000000000
110001000010110111000111000000000000000000000000000000000000000000000000000000000000000000000
11101111010101101110010100000000000000000000000000000000000000000000000000000000000000000
1111111100111000011011100100000000000000000000000000000000000000000000000000000000000000000000000000
10100101001010111110100100000000000000000000000000000000000000000000000000000000000000000000
11000110101010100010000000000000000000000000000000000000000000000000000000000000000000000000
110001000111000011100111000000000000000000000000000000000000000000000000000000000000000000000
111011100111011011001110000000000000000000000000000000000000000000000000000000000000000000
11010110101101100011000100000000000000000000000000000000000000000000000000000000000000000000
1111111110011101000111101110110010000000000000000000000000000000000000000000000000000000000000000000
10111110000101001100111100000000000000000000000000000000000000000000000000000000000000000000
11100100011001100011011000000000000000000000000000000000000000000000000000000000000000000000
1111111110100001011011000000000000000000000000000000000000000000000000000000000000000000000
1111111100101101011000110011001000000000000000000000000000000000000000000000000000000000000000000000
10100110001110111110011000000000000000000000000000000000000000000000000000000000000000000000
101101100101110010100010000000000000000000000000000000000000000000000000000000000000000000000
111000011010111110001000000000000000000000000000000000000000000000000000000000000000000000
101011101011110011101110000000000000000000000000000000000000000000000000000000000000000000000
111111001110001111111010000000000000000000000000000000000000000000000000000000000000000000
10001011011000001010000100000000000000000000000000000000000000000000000000000000000000000000
110000100101101101110000000000000000000000000000000000000000000000000000000000000000000000000
100011101010010010111001000000000000000000000000000000000000000000000000000000000000000000000
100000101000100000110001000000000000000000000000000000000000000000000000000000000000000000000
101010111110000111110001000000000000000000000000000000000000000000000000000000000000000000
1111111111101010011111010100110010100000000000000000000000000000000000000000000000000000000000000000
100101000110000100110011000000000000000000000000000000000000000000000000000000000000000000000
1111111100100100001011000010110100000000000000000000000000000000000000000000000000000000000000000000
1111111110011110000010111001011000000000000000000000000000000000000000000000000000000000000000000000
10001110000111000001011100000000000000000000000000000000000000000000000000000000000000000
10111001000100001010110100000000000000000000000000000000000000000000000000000000000000000000
1111111110000010111101101000111010000000000000000000000000000000000000000000000000000000000000000000
1111111101011010111100111101110000000000000000000000000000000000000000000000000000000000000000000000
101100100010010001111111000000000000000000000000000000000000000000000000000000000000000000000
1111111101101111000101101101101100000000000000000000000000000000000000000000000000000000000000000000
1111111110011010110011110101000010000000000000000000000000000000000000000000000000000000000000000000
10001100001001110100100100000000000000000000000000000000000000000000000000000000000000000000
100010001001100110011101000000000000000000000000000000000000000000000000000000000000000000
1111111100111100000010101010111000000000000000000000000000000000000000000000000000000000000000000000
1111111100011101001110110000000000000000000000000000000000000000000000000000000000000000000
100101010100101000000001000000000000000000000000000000000000000000000000000000000000000000000
10111001100100110111100100000000000000000000000000000000000000000000000000000000000000000000
1111111111100000000101011001010110100000000000000000000000000000000000000000000000000000000000000000
11101011101010001111101000000000000000000000000000000000000000000000000000000000000000000000
101010010101000101010010000000000000000000000000000000000000000000000000000000000000000000000
1111111101100110010111000010111000000000000000000000000000000000000000000000000000000000000000000000
100101010100000001011110000000000000000000000000000000000000000000000000000000000000000
1111111101101110000100100010101000000000000000000000000000000000000000000000000000000000000000000000
101110101110010110011001000000000000000000000000000000000000000000000000000000000000000000000
110001101011100001111011000000000000000000000000000000000000000000000000000000000000000000000
101011010100000011001001000000000000000000000000000000000000000000000000000000000000000000000
101011111011001000011011000000000000000000000000000000000000000000000000000000000000000000000
1111111110110110100100011100100010000000000000000000000000000000000000000000000000000000000000000000
1111111101010101101101011100101000000000000000000000000000000000000000000000000000000000000000000000
1111111100101001101000000010011100000000000000000000000000000000000000000000000000000000000000000000
1111011111111000100000010000000000000000000000000000000000000000000000000000000000000000000
1111111100011010101110101010100000000000000000000000000000000000000000000000000000000000000000000000
101111101110010100011010000000000000000000000000000000000000000000000000000000000000000000000
1111111100111001010100110001010000000000000000000000000000000000000000000000000000000000000000000000
1111111100111011010101101100110100000000000000000000000000000000000000000000000000000000000000000000
110100100110001100010100000000000000000000000000000000000000000000000000000000000000000000
10010011000100101010101100000000000000000000000000000000000000000000000000000000000000000
1111111101001111000110011100010100000000000000000000000000000000000000000000000000000000000000000000
101111101101010101011010000000000000000000000000000000000000000000000000000000000000000000000
10010000011100010010011000000000000000000000000000000000000000000000000000000000000000000
1111111110110001111011100111010000000000000000000000000000000000000000000000000000000000000000000000
1111111100100000110101100001011000000000000000000000000000000000000000000000000000000000000000000000
1111111101000100010011111101011000000000000000000000000000000000000000000000000000000000000000000000
100110010011111110100000000000000000000000000000000000000000000000000000000000000000000000000
1111111100111011000001000110100000000000000000000000000000000000000000000000000000000000000000000000
101001000110010011011011000000000000000000000000000000000000000000000000000000000000000000000
11000001110100011101000000000000000000000000000000000000000000000000000000000000000000000000
1111111111001101101001010010010011000000000000000000000000000000000000000000000000000000000000000000
1010011110001000000001110000000000000000000000000000000000000000000000000000000000000000000
1111111101010110001110011100011100000000000000000000000000000000000000000000000000000000000000000000
10001001000110011110011100000000000000000000000000000000000000000000000000000000000000000
1111111111010110110110001110110001000000000000000000000000000000000000000000000000000000000000000000
101011110001100000001001000000000000000000000000000000000000000000000000000000000000000000000
110100000100001000100101000000000000000000000000000000000000000000000000000000000000000000000
1111111111101011000100011100010011100000000000000000000000000000000000000000000000000000000000000000
1111111110101111001011101110110000000000000000000000000000000000000000000000000000000000000000000000
101011010101111010111001000000000000000000000000000000000000000000000000000000000000000000000
1111111110100100110101101101100100000000000000000000000000000000000000000000000000000000000000000000
101001110111110100101001000000000000000000000000000000000000000000000000000000000000000000000
1111111110100100101110000110110010000000000000000000000000000000000000000000000000000000000000000000
100111000110100001111111000000000000000000000000000000000000000000000000000000000000000000000
1111111111101110001000000001100111000000000000000000000000000000000000000000000000000000000000000000
1100101101010101010100000000000000000000000000000000000000000000000000000000000000000000000
101111101000111111110001000000000000000000000000000000000000000000000000000000000000000000000
11101010110111101010111100000000000000000000000000000000000000000000000000000000000000000000
11010110111001100010111000000000000000000000000000000000000000000000000000000000000000000000
1111111101001110011011011001110000000000000000000000000000000000000000000000000000000000000000000000
1111111100011111010011011000000100000000000000000000000000000000000000000000000000000000000000000000
100000101010100011000000000000000000000000000000000000000000000000000000000000000000000000000
1111111110110100010000110111010010000000000000000000000000000000000000000000000000000000000000000000
11011000110110011101110100000000000000000000000000000000000000000000000000000000000000000000
1000001010111101110110010000000000000000000000000000000000000000000000000000000000000000000
1111111110100101000011111101010000000000000000000000000000000000000000000000000000000000000000000000
11100010110111001010101100000000000000000000000000000000000000000000000000000000000000000000
1000011001011001110001110000000000000000000000000000000000000000000000000000000000000000000
1010010110000100111100010000000000000000000000000000000000000000000000000000000000000000000
1011110101001101011110010000000000000000000000000000000000000000000000000000000000000000000
10110000110111001111111100000000000000000000000000000000000000000000000000000000000000000000
101010010110001010010110000000000000000000000000000000000000000000000000000000000000000000
1111100111110111100010010000000000000000000000000000000000000000000000000000000000000000000
1111111101010011010000111100100000000000000000000000000000000000000000000000000000000000000000000000
1111111100011110011111010111110000000000000000000000000000000000000000000000000000000000000000000000
100000010111111010011110000000000000000000000000000000000000000000000000000000000000000000000
1111111100010110010100110111110100000000000000000000000000000000000000000000000000000000000000000000
101111110100010110101110000000000000000000000000000000000000000000000000000000000000000000000
100000001000110111111011000000000000000000000000000000000000000000000000000000000000000000000
100001110011001010010110000000000000000000000000000000000000000000000000000000000000000000000
10010011100011000100011100000000000000000000000000000000000000000000000000000000000000000000
1111111101111111011000111100100100000000000000000000000000000000000000000000000000000000000000000000
1111000101010110110110000000000000000000000000000000000000000000000000000000000000000000000
100110000100100101101100000000000000000000000000000000000000000000000000000000000000000000000
101000011001100000100001000000000000000000000000000000000000000000000000000000000000000000000
1111111111001110101100111010011000000000000000000000000000000000000000000000000000000000000000000000
11110011101001000100010000000000000000000000000000000000000000000000000000000000000000000000
1110011001001011110010010000000000000000000000000000000000000000000000000000000000000000000
100110110000100010100110000000000000000000000000000000000000000000000000000000000000000000000
1100000100110111111111110000000000000000000000000000000000000000000000000000000000000000000
1111111111000110111001100110101111000000000000000000000000000000000000000000000000000000000000000000
1111111101010100010000011111001000000000000000000000000000000000000000000000000000000000000000000000
10110110111111001001010100000000000000000000000000000000000000000000000000000000000000000000
1111111100111000101100000100101100000000000000000000000000000000000000000000000000000000000000000000
1011101000100011110100110000000000000000000000000000000000000000000000000000000000000000000
11111000000000100100001000000000000000000000000000000000000000000000000000000000000000000000
100001101001010111111000000000000000000000000000000000000000000000000000000000000000000000000
1111111100111100110101111011011100000000000000000000000000000000000000000000000000000000000000000000
110010101010001110000001000000000000000000000000000000000000000000000000000000000000000000000
1111111111001101101011111001001110000000000000000000000000000000000000000000000000000000000000000000
1111111100011010000010010000111100000000000000000000000000000000000000000000000000000000000000000000
1111111100100001001011100010101000000000000000000000000000000000000000000000000000000000000000000000
1111111100111111101011010110000000000000000000000000000000000000000000000000000000000000000000000000
1111111111001100110100010111110001000000000000000000000000000000000000000000000000000000000000000000
100010001001111100010011000000000000000000000000000000000000000000000000000000000000000000
1111111110011101011000111111100010000000000000000000000000000000000000000000000000000000000000000000
100111001010000001010011000000000000000000000000000000000000000000000000000000000000000000000
1111111110101000111110100111000100000000000000000000000000000000000000000000000000000000000000000000
10111111001110001110001100000000000000000000000000000000000000000000000000000000000000000000
1111111111010001011111111101101111000000000000000000000000000000000000000000000000000000000000000000
11100011110110000100110000000000000000000000000000000000000000000000000000000000000000000000
1110110001000001011110010000000000000000000000000000000000000000000000000000000000000000000
11111001000111111010110100000000000000000000000000000000000000000000000000000000000000000000
11011010101000111010000100000000000000000000000000000000000000000000000000000000000000000000
110000101101101001101100000000000000000000000000000000000000000000000000000000000000000000
101001011101100101110100000000000000000000000000000000000000000000000000000000000000000000000
1111111110011110011101000010000010000000000000000000000000000000000000000000000000000000000000000000
11101101001000010011111100000000000000000000000000000000000000000000000000000000000000000000
11011111101100010001000100000000000000000000000000000000000000000000000000000000000000000000
101100010000100010100110000000000000000000000000000000000000000000000000000000000000000000000
10010100111100001011010100000000000000000000000000000000000000000000000000000000000000000
11111010000011100011111000000000000000000000000000000000000000000000000000000000000000000000
11100011100001101101101100000000000000000000000000000000000000000000000000000000000000000000
1111111100110011100010101011001000000000000000000000000000000000000000000000000000000000000000000000
1111111100010100110110111010110100000000000000000000000000000000000000000000000000000000000000000000
11010000110100100110101100000000000000000000000000000000000000000000000000000000000000000000
100011001110100001110101000000000000000000000000000000000000000000000000000000000000000000000
1111111100100001101011110111101000000000000000000000000000000000000000000000000000000000000000000000
1111111111010100110001001011011010000000000000000000000000000000000000000000000000000000000000000000
110010101001000110011101000000000000000000000000000000000000000000000000000000000000000000000
1111111111100111010111000000101101000000000000000000000000000000000000000000000000000000000000000000
101010010011100101100001000000000000000000000000000000000000000000000000000000000000000000000
1111111101101010000001101100010100000000000000000000000000000000000000000000000000000000000000000000
1111111111101011001000010100111111000000000000000000000000000000000000000000000000000000000000000000
1111111110111111101001000100110010000000000000000000000000000000000000000000000000000000000000000000
11110001001101000111100000000000000000000000000000000000000000000000000000000000000000000000
1111111101100011011010100010100000000000000000000000000000000000000000000000000000000000000000000000
1111111101001010011001001110011100000000000000000000000000000000000000000000000000000000000000000000
101001101111101011101000000000000000000000000000000000000000000000000000000000000000000000000
1111111101000001010001010101001100000000000000000000000000000000000000000000000000000000000000000000
110011000011111101101011000000000000000000000000000000000000000000000000000000000000000000000
