1111111101111111100000111000110000000000000000000000000000000000000000000000000000000000000000000000
1111111011110101001011011100101000000000000000000000000000000000000000000000000000000000000000000000
1000000010011011110101000000000000000000000000000000000000000000000000000000000000000000000
1111111111010011000101110010010010000000000000000000000000000000000000000000000000000000000000000000
1111111010010100011000010001111000000000000000000000000000000000000000000000000000000000000000000000
1111111111001011011010010010100101000000000000000000000000000000000000000000000000000000000000000000
1111111110010010011010101100100010000000000000000000000000000000000000000000000000000000000000000000
10011100101001010110111000000000000000000000000000000000000000000000000000000000000000000
1010111101101111001001010000000000000000000000000000000000000000000000000000000000000000000
1111111110111110011110110100011010000000000000000000000000000000000000000000000000000000000000000000
1111111111001000010100101000111001000000000000000000000000000000000000000000000000000000000000000000
1111111101001000001010110000001100000000000000000000000000000000000000000000000000000000000000000000
10111010001011100101101100000000000000000000000000000000000000000000000000000000000000000000
1111111010010111100011101111000000000000000000000000000000000000000000000000000000000000000000000000
1111111101101010010001001001000100000000000000000000000000000000000000000000000000000000000000000000
1111111101101111000100111100100100000000000000000000000000000000000000000000000000000000000000000000
1111111100001001011011111111000000000000000000000000000000000000000000000000000000000000000000000000
1001110011101000101011000000000000000000000000000000000000000000000000000000000000000000000
1111111011011000001010000000010000000000000000000000000000000000000000000000000000000000000000000000
11000010100101001111010100000000000000000000000000000000000000000000000000000000000000000000
1111111010001110010111110111110000000000000000000000000000000000000000000000000000000000000000000000
1111111111101101111010111100010100100000000000000000000000000000000000000000000000000000000000000000
111000110111011010101101000000000000000000000000000000000000000000000000000000000000000000
1111111110010111100100110111101100000000000000000000000000000000000000000000000000000000000000000000
11000111010010001001100100000000000000000000000000000000000000000000000000000000000000000
1111111101100001011110011010111000000000000000000000000000000000000000000000000000000000000000000000
100000100101100001111001000000000000000000000000000000000000000000000000000000000000000000000
1111111101010000110111001110000000000000000000000000000000000000000000000000000000000000000000000000
11100011110000001000010100000000000000000000000000000000000000000000000000000000000000000000
1111111010010101011001011100100000000000000000000000000000000000000000000000000000000000000000000000
1111111011101111010110111111110000000000000000000000000000000000000000000000000000000000000000000000
1111111010010011011100001110001000000000000000000000000000000000000000000000000000000000000000000000
10000110011101111110001100000000000000000000000000000000000000000000000000000000000000000000
11011001000000101011101000000000000000000000000000000000000000000000000000000000000000000000
1111111100110101101111101100011000000000000000000000000000000000000000000000000000000000000000000000
1011001110110100001001110000000000000000000000000000000000000000000000000000000000000000000
1111111111001110010100001001001101000000000000000000000000000000000000000000000000000000000000000000
1111111100000101000011000010000000000000000000000000000000000000000000000000000000000000000000000000
1111111111110010100101001100100001000000000000000000000000000000000000000000000000000000000000000000
1111111110101100011110101010101000000000000000000000000000000000000000000000000000000000000000000000
1111111111100011100111111010111000100000000000000000000000000000000000000000000000000000000000000000
1111111101110011100110100011001100000000000000000000000000000000000000000000000000000000000000000000
1111111101101000100111110101110100000000000000000000000000000000000000000000000000000000000000000000
1111111011011010000000000110110000000000000000000000000000000000000000000000000000000000000000000000
1111111110100101010110111000101110000000000000000000000000000000000000000000000000000000000000000000
10010111011000110010011100000000000000000000000000000000000000000000000000000000000000000000
1111111101110010100001110100000000000000000000000000000000000000000000000000000000000000000000000000
1111111010001010010000100101110000000000000000000000000000000000000000000000000000000000000000000000
10110110101101011010101000000000000000000000000000000000000000000000000000000000000000000000
1111111101110101000010010010011000000000000000000000000000000000000000000000000000000000000000000000
11011010110011011110011000000000000000000000000000000000000000000000000000000000000000000000
1111111011111111011011000011100000000000000000000000000000000000000000000000000000000000000000000000
11011100110011110011000000000000000000000000000000000000000000000000000000000000000000000000
1101011001011111101011110000000000000000000000000000000000000000000000000000000000000000000
100000000000111000110000000000000000000000000000000000000000000000000000000000000000000000000
11011001110011101000100100000000000000000000000000000000000000000000000000000000000000000000
1111111101110111101100101101111000000000000000000000000000000000000000000000000000000000000000000000
111011111100001110011000000000000000000000000000000000000000000000000000000000000000000000
11010100010111010010000100000000000000000000000000000000000000000000000000000000000000000000
110010100111000001010110000000000000000000000000000000000000000000000000000000000000000000
1111111110000001001001001110100000000000000000000000000000000000000000000000000000000000000000000000
1111111010010101110010100000110000000000000000000000000000000000000000000000000000000000000000000000
10110010001011010000000100000000000000000000000000000000000000000000000000000000000000000000
1110011000101010001011000000000000000000000000000000000000000000000000000000000000000000000
1100000001000000010011000000000000000000000000000000000000000000000000000000000000000000000
1111111011000100010011010001110000000000000000000000000000000000000000000000000000000000000000000000
1001101111010011001001100000000000000000000000000000000000000000000000000000000000000000000
10101000010111111001011000000000000000000000000000000000000000000000000000000000000000000000
1111111111111101111011110001101100010100000000000000000000000000000000000000000000000000000000000000
1111111101001010010000011100110100000000000000000000000000000000000000000000000000000000000000000000
11101111010000111000101000000000000000000000000000000000000000000000000000000000000000000000
1110001100101111011110010000000000000000000000000000000000000000000000000000000000000000000
1111111111110010110111010000111000100000000000000000000000000000000000000000000000000000000000000000
1111111100000011100101011010000100000000000000000000000000000000000000000000000000000000000000000000
1111111110011010001010011001010000000000000000000000000000000000000000000000000000000000000000000000
100001010101101101101110000000000000000000000000000000000000000000000000000000000000000000000
1111111110111100011000110110010100000000000000000000000000000000000000000000000000000000000000000000
1111111111010110001010110001010111000000000000000000000000000000000000000000000000000000000000000000
1111111100110111010101111101110100000000000000000000000000000000000000000000000000000000000000000000
11010100000100011111111100000000000000000000000000000000000000000000000000000000000000000000
1111111101010011110101010111011100000000000000000000000000000000000000000000000000000000000000000000
101111101001011101001011000000000000000000000000000000000000000000000000000000000000000000
10111010100010010111100000000000000000000000000000000000000000000000000000000000000000000000
1111111111101111100001000111110001100000000000000000000000000000000000000000000000000000000000000000
1111111111110001010010011000011001100000000000000000000000000000000000000000000000000000000000000000
1111111100101010001110110110101100000000000000000000000000000000000000000000000000000000000000000000
1111111111100011100011110110001111000000000000000000000000000000000000000000000000000000000000000000
1111111110100101101001111010010110000000000000000000000000000000000000000000000000000000000000000000
1111111101001101100101110001000100000000000000000000000000000000000000000000000000000000000000000000
1111111100001001011000111100101100000000000000000000000000000000000000000000000000000000000000000000
1111111101010011100010101010011100000000000000000000000000000000000000000000000000000000000000000000
1111111110111010001110001101110100000000000000000000000000000000000000000000000000000000000000000000
1111111011000010001010011111110000000000000000000000000000000000000000000000000000000000000000000000
1111111101100010101000001110011100000000000000000000000000000000000000000000000000000000000000000000
1111111010100100010110110000111000000000000000000000000000000000000000000000000000000000000000000000
10111010011100010100101100000000000000000000000000000000000000000000000000000000000000000000
10111011001100000110010000000000000000000000000000000000000000000000000000000000000000000000
1111111110100100011000111101100010000000000000000000000000000000000000000000000000000000000000000000
1111111101001010101100100011000000000000000000000000000000000000000000000000000000000000000000000000
1111111110100001011101111010010000000000000000000000000000000000000000000000000000000000000000000000
1111111010001001001010101101101000000000000000000000000000000000000000000000000000000000000000000000
1000000000111001110111010000000000000000000000000000000000000000000000000000000000000000000
10100110111011100101101000000000000000000000000000000000000000000000000000000000000000000000
1111111011101111111010110101111000000000000000000000000000000000000000000000000000000000000000000000
11011001000000110000001000000000000000000000000000000000000000000000000000000000000000000000
1111111111011001100110011001101101000000000000000000000000000000000000000000000000000000000000000000
11011000111111101100000100000000000000000000000000000000000000000000000000000000000000000000
11110111001011011100000100000000000000000000000000000000000000000000000000000000000000000000
100011010100001000001110000000000000000000000000000000000000000000000000000000000000000000000
11101100100011111100110100000000000000000000000000000000000000000000000000000000000000
11110011111000000111100100000000000000000000000000000000000000000000000000000000000000000000
1111111111100011001110011100010001000000000000000000000000000000000000000000000000000000000000000000
1110101000011100001011000000000000000000000000000000000000000000000000000000000000000000
1111111011111000101101011001110000000000000000000000000000000000000000000000000000000000000000000000
1011110111111101100010100000000000000000000000000000000000000000000000000000000000000000000
1111111100010110111101100000110100000000000000000000000000000000000000000000000000000000000000000000
1111111100110001001000001001110100000000000000000000000000000000000000000000000000000000000000000000
1111111101100101101000110000111000000000000000000000000000000000000000000000000000000000000000000000
10010100110101101010010000000000000000000000000000000000000000000000000000000000000000000000
11100000111001111010100100000000000000000000000000000000000000000000000000000000000000000000
1111111011100100010011110010110000000000000000000000000000000000000000000000000000000000000000000000
11000101100000011000110100000000000000000000000000000000000000000000000000000000000000000
10110100101101111000000000000000000000000000000000000000000000000000000000000000000000000000
1111111011010110001001000110010000000000000000000000000000000000000000000000000000000000000000000000
1111111010100010101000010111011000000000000000000000000000000000000000000000000000000000000000000000
1111111101010100011101010111001100000000000000000000000000000000000000000000000000000000000000000000
1111111111001110000010011101001001000000000000000000000000000000000000000000000000000000000000000000
1111111010111110110010111100111000000000000000000000000000000000000000000000000000000000000000000000
10101110011100001010100100000000000000000000000000000000000000000000000000000000000000000000
11100001011100101100010100000000000000000000000000000000000000000000000000000000000000000000
1111111100001010010001101100001100000000000000000000000000000000000000000000000000000000000000000000
1111111110100011000100100101100000000000000000000000000000000000000000000000000000000000000000000000
1111111011111110011001001010001000000000000000000000000000000000000000000000000000000000000000000000
100000000010111001111000000000000000000000000000000000000000000000000000000000000000000000000
1111111110010000100011010000011110000000000000000000000000000000000000000000000000000000000000000000
11110101110100010011100100000000000000000000000000000000000000000000000000000000000000000000
1111111011010111101111100100011000000000000000000000000000000000000000000000000000000000000000000000
1101011101111101101111010000000000000000000000000000000000000000000000000000000000000000000
1111111011001011010100010110001000000000000000000000000000000000000000000000000000000000000000000000
1111111100010100101000110010110100000000000000000000000000000000000000000000000000000000000000000000
1111111010001100110100111110011000000000000000000000000000000000000000000000000000000000000000000000
10101111100000101001001100000000000000000000000000000000000000000000000000000000000000000000
10000000111011101001100000000000000000000000000000000000000000000000000000000000000000000000
1111111111100110101100011110101101000000000000000000000000000000000000000000000000000000000000000000
1111111111001111110011101101001110000000000000000000000000000000000000000000000000000000000000000000
1111111101000000111100110010100000000000000000000000000000000000000000000000000000000000000000000000
1111111110100101001011000001000110000000000000000000000000000000000000000000000000000000000000000000
10111010011100110010001100000000000000000000000000000000000000000000000000000000000000000000
1000111101110100010110010000000000000000000000000000000000000000000000000000000000000000000
1111111010001010111001101010111000000000000000000000000000000000000000000000000000000000000000000000
1111111011000010100110111011001000000000000000000000000000000000000000000000000000000000000000000000
1111111111101110010010011111100101100000000000000000000000000000000000000000000000000000000000000000
111010011000011000011000000000000000000000000000000000000000000000000000000000000000000000
1111111100010110000011011101111000000000000000000000000000000000000000000000000000000000000000000000
1111111110011101111011110111011100000000000000000000000000000000000000000000000000000000000000000000
1111111101010010101110101001100000000000000000000000000000000000000000000000000000000000000000000000
100001001110010000110001000000000000000000000000000000000000000000000000000000000000000000000
1111111101001101110111101001010100000000000000000000000000000000000000000000000000000000000000000000
1000101100100010011111110000000000000000000000000000000000000000000000000000000000000000000
1111111111010001110110010010000011000000000000000000000000000000000000000000000000000000000000000000
1111111100101010000011110001000000000000000000000000000000000000000000000000000000000000000000000000
1111111110111100010001110100011000000000000000000000000000000000000000000000000000000000000000000000
1111111111011011011000111101001000000000000000000000000000000000000000000000000000000000000000000000
1111111100011000111100111000101000000000000000000000000000000000000000000000000000000000000000000000
11001100010000100101010000000000000000000000000000000000000000000000000000000000000000000000
1111111011000001010001000010111000000000000000000000000000000000000000000000000000000000000000000000
1111111100011101111000101000100100000000000000000000000000000000000000000000000000000000000000000000
1111111100001100100101111010011100000000000000000000000000000000000000000000000000000000000000000000
1111111111011010110111111001010010000000000000000000000000000000000000000000000000000000000000000000
100001000110001010100110000000000000000000000000000000000000000000000000000000000000000000000
1111111110011111001000000100010110000000000000000000000000000000000000000000000000000000000000000000
1111000000000111001001010000000000000000000000000000000000000000000000000000000000000000000
1111111011001111111111101111100000000000000000000000000000000000000000000000000000000000000000000000
11101001010000010100011100000000000000000000000000000000000000000000000000000000000000000000
1111111010001111001011110111011000000000000000000000000000000000000000000000000000000000000000000000
1111111111001011100011000011100000000000000000000000000000000000000000000000000000000000000000000000
10100010111000010110010100000000000000000000000000000000000000000000000000000000000000000000
11011100111011000110110100000000000000000000000000000000000000000000000000000000000000000000
1111111100111111000011111111010000000000000000000000000000000000000000000000000000000000000000000000
1111111011010100101100010100001000000000000000000000000000000000000000000000000000000000000000000000
1010000111000111000111000000000000000000000000000000000000000000000000000000000000000000000
1111111010010111110010011100011000000000000000000000000000000000000000000000000000000000000000000000
1111111011001011001011111010110000000000000000000000000000000000000000000000000000000000000000000000
101101100010111010110111000000000000000000000000000000000000000000000000000000000000000000
1111111110001100110001000011010000000000000000000000000000000000000000000000000000000000000000000000
10110110000101111100111000000000000000000000000000000000000000000000000000000000000000000000
10001100111010100001111000000000000000000000000000000000000000000000000000000000000000000000
11000111110000101100011100000000000000000000000000000000000000000000000000000000000000000000
1111111100100101101010111110000000000000000000000000000000000000000000000000000000000000000000000000
1111111110001100001000101001011110000000000000000000000000000000000000000000000000000000000000000000
1111111110010101000000000010010010000000000000000000000000000000000000000000000000000000000000000000
1111111110110101000001000001001110000000000000000000000000000000000000000000000000000000000000000000
1111111011101100000011001111101000000000000000000000000000000000000000000000000000000000000000000000
1111111111100100100000100111010100100000000000000000000000000000000000000000000000000000000000000000
100011110000011100001110000000000000000000000000000000000000000000000000000000000000000000000
1111111100010011001011101111110000000000000000000000000000000000000000000000000000000000000000000000
1111111010011011000100010010101000000000000000000000000000000000000000000000000000000000000000000000
1100101001101010110011100000000000000000000000000000000000000000000000000000000000000000000
11001100011101101110011000000000000000000000000000000000000000000000000000000000000000000000
1111111100000000001000111011101100000000000000000000000000000000000000000000000000000000000000000000
100111101010000110000111000000000000000000000000000000000000000000000000000000000000000000
100011001011110000111111000000000000000000000000000000000000000000000000000000000000000000
1111111010100111101101010100010000000000000000000000000000000000000000000000000000000000000000000000
11110000111010011001010100000000000000000000000000000000000000000000000000000000000000
1111111111000010111010111110101100000000000000000000000000000000000000000000000000000000000000000000
1111111110100110000011111010000010000000000000000000000000000000000000000000000000000000000000000000
1111111100100100011100000111100100000000000000000000000000000000000000000000000000000000000000000000
1001001111100011101110000000000000000000000000000000000000000000000000000000000000000000000
1111111100011110010101000011001000000000000000000000000000000000000000000000000000000000000000000000
1111111111101001000111001101111111100000000000000000000000000000000000000000000000000000000000000000
1100011100000001111000010000000000000000000000000000000000000000000000000000000000000000000
1111111010011011010011101111100000000000000000000000000000000000000000000000000000000000000000000000
1111111100101110011101101000100000000000000000000000000000000000000000000000000000000000000000000000
1111111100011010010010110010000100000000000000000000000000000000000000000000000000000000000000000000
10000010010000010000110100000000000000000000000000000000000000000000000000000000000000000000
1111111011101101000000111101000000000000000000000000000000000000000000000000000000000000000000000000
11000101000011110001101100000000000000000000000000000000000000000000000000000000000000000
10001010001111001110010000000000000000000000000000000000000000000000000000000000000000000000
100001100111101001110101000000000000000000000000000000000000000000000000000000000000000000000
1100011000010010010000000000000000000000000000000000000000000000000000000000000000000000000
1111111111001010101111111110100111000000000000000000000000000000000000000000000000000000000000000000
1111111111100000000010100101011000100000000000000000000000000000000000000000000000000000000000000000
1111111100011010111101011010110000000000000000000000000000000000000000000000000000000000000000000000
11111101010011101100011100000000000000000000000000000000000000000000000000000000000000000000
101111000110000001010110000000000000000000000000000000000000000000000000000000000000000000
1111111100110001011000011000010100000000000000000000000000000000000000000000000000000000000000000000
1111111010101101110010000001010000000000000000000000000000000000000000000000000000000000000000000000
1101000111111001001111110000000000000000000000000000000000000000000000000000000000000000000
1111111010010010100001001110001000000000000000000000000000000000000000000000000000000000000000000000
1111111111100011011111011010101101000000000000000000000000000000000000000000000000000000000000000000
1001110101101011101100000000000000000000000000000000000000000000000000000000000000000000000
1111011111111110110101000000000000000000000000000000000000000000000000000000000000000000000
1000000100110001110111010000000000000000000000000000000000000000000000000000000000000000000
11100101011010000000011100000000000000000000000000000000000000000000000000000000000000000
11101111010101111111111100000000000000000000000000000000000000000000000000000000000000000000
1101001011001110101000000000000000000000000000000000000000000000000000000000000000000000000
1111111110000010110101100010101010000000000000000000000000000000000000000000000000000000000000000000
1111111111101100001110001111000001000000000000000000000000000000000000000000000000000000000000000000
1111111011001101010011101011100000000000000000000000000000000000000000000000000000000000000000000000
1111111100001010000101000001001000000000000000000000000000000000000000000000000000000000000000000000
1111111011010110100001100111101000000000000000000000000000000000000000000000000000000000000000000000
1111111011111101110110100001010000000000000000000000000000000000000000000000000000000000000000000000
1111111010010010001001111010010000000000000000000000000000000000000000000000000000000000000000000000
11011010110010010101011000000000000000000000000000000000000000000000000000000000000000000
1111111101000100111001010001101000000000000000000000000000000000000000000000000000000000000000000000
1111111101001001111111111011001000000000000000000000000000000000000000000000000000000000000000000000
1111111011100001100101010100101000000000000000000000000000000000000000000000000000000000000000000000
1111111101110100011010011111110000000000000000000000000000000000000000000000000000000000000000000000
10110100000001001101101100000000000000000000000000000000000000000000000000000000000000000
11000011110001001101111100000000000000000000000000000000000000000000000000000000000000000000
1111111110111110011010111100010100000000000000000000000000000000000000000000000000000000000000000000
1000011100011111111110100000000000000000000000000000000000000000000000000000000000000000000
1111111100001000100001111000010100000000000000000000000000000000000000000000000000000000000000000000
1111111101101010010010001111000100000000000000000000000000000000000000000000000000000000000000000000
11000011001110110111100100000000000000000000000000000000000000000000000000000000000000000000
11001011000100101000111000000000000000000000000000000000000000000000000000000000000000000000
1111111101001000110110010110100100000000000000000000000000000000000000000000000000000000000000000000
0
1111111111000111001111100011101101000000000000000000000000000000000000000000000000000000000000000000
11101000010010111101011000000000000000000000000000000000000000000000000000000000000000000000
11100110111011000001001000000000000000000000000000000000000000000000000000000000000000000000
1111111101000101111111110111101100000000000000000000000000000000000000000000000000000000000000000000
1111111101111101100101110011010000000000000000000000000000000000000000000000000000000000000000000000
100111100001110111100011000000000000000000000000000000000000000000000000000000000000000000
101110111010011101100010000000000000000000000000000000000000000000000000000000000000000000
1111111010101011001001101010011000000000000000000000000000000000000000000000000000000000000000000000
10100000110010001011001000000000000000000000000000000000000000000000000000000000000000000000
10100101110000101100101000000000000000000000000000000000000000000000000000000000000000000000
10000000011101110000100100000000000000000000000000000000000000000000000000000000000000000000
100011111101001100100111000000000000000000000000000000000000000000000000000000000000000000
10001011011001000111101100000000000000000000000000000000000000000000000000000000000000000000
100010010010010001111010000000000000000000000000000000000000000000000000000000000000000000000
1111111011101101110111110011111000000000000000000000000000000000000000000000000000000000000000000000
1111111110111000101010000000001100000000000000000000000000000000000000000000000000000000000000000000
1111111111000110001110101110111111000000000000000000000000000000000000000000000000000000000000000000
10000110100111110011101100000000000000000000000000000000000000000000000000000000000000000000
10010011100101101001110000000000000000000000000000000000000000000000000000000000000000000000
1111111011000010001011111000011000000000000000000000000000000000000000000000000000000000000000000000
1111111011010111101011110101011000000000000000000000000000000000000000000000000000000000000000000000
10101110101011001111100000000000000000000000000000000000000000000000000000000000000000000000
11000011100001111011100100000000000000000000000000000000000000000000000000000000000000000000
1111111010010011010011111010000000000000000000000000000000000000000000000000000000000000000000000000
1111111111110010101110010011100100010000000000000000000000000000000000000000000000000000000000000000
10100110101001000000100100000000000000000000000000000000000000000000000000000000000000000000
1111111110011100010100000010010110000000000000000000000000000000000000000000000000000000000000000000
1111111011001100010011111111101000000000000000000000000000000000000000000000000000000000000000000000
11100101010111011110100000000000000000000000000000000000000000000000000000000000000000000000
11101011111100110110110100000000000000000000000000000000000000000000000000000000000000000000
10110001010011111010101100000000000000000000000000000000000000000000000000000000000000000000
1111111011001101010110000100101000000000000000000000000000000000000000000000000000000000000000000000
1111111100010001101001100001111000000000000000000000000000000000000000000000000000000000000000000000
1111111100001000100110011111000000000000000000000000000000000000000000000000000000000000000000000000
1111111010011100010011000100111000000000000000000000000000000000000000000000000000000000000000000000
10101010010011101100111000000000000000000000000000000000000000000000000000000000000000000000
1111111101100011011111010110010100000000000000000000000000000000000000000000000000000000000000000000
1100011011110011010110110000000000000000000000000000000000000000000000000000000000000000000
10100011101000111000110000000000000000000000000000000000000000000000000000000000000000000000
1111111111011111110000100010111101000000000000000000000000000000000000000000000000000000000000000000
1111111011000011100001111110011000000000000000000000000000000000000000000000000000000000000000000000
1111111010101101010010110010110000000000000000000000000000000000000000000000000000000000000000000000
10010101100001000011010000000000000000000000000000000000000000000000000000000000000000000000
10101111011100111100101100000000000000000000000000000000000000000000000000000000000000000000
1111111110011110100011010000100110000000000000000000000000000000000000000000000000000000000000000000
1111111101001000010100101100110100000000000000000000000000000000000000000000000000000000000000000000
1111111100001111001001011000110000000000000000000000000000000000000000000000000000000000000000000000
1111111110110001010101101000100010000000000000000000000000000000000000000000000000000000000000000000
1001101100101110011110110000000000000000000000000000000000000000000000000000000000000000000
1100011100001111100101000000000000000000000000000000000000000000000000000000000000000000000
1111111010101010011100111011001000000000000000000000000000000000000000000000000000000000000000000000
10001001001001101101010000000000000000000000000000000000000000000000000000000000000000000000
10100111010111101000010100000000000000000000000000000000000000000000000000000000000000000000
10110111100011010101110100000000000000000000000000000000000000000000000000000000000000000000
10011011111010101010011000000000000000000000000000000000000000000000000000000000000000000000
1111111111001101011001011111010001000000000000000000000000000000000000000000000000000000000000000000
1111111011110110101011111110010000000000000000000000000000000000000000000000000000000000000000000000
100001011110110001000110000000000000000000000000000000000000000000000000000000000000000000000
11101110001111010010100100000000000000000000000000000000000000000000000000000000000000000000
1111111111011000010011011001000110000000000000000000000000000000000000000000000000000000000000000000
11110111011111100011100000000000000000000000000000000000000000000000000000000000000000000
1111111111101111110111001011111100000000000000000000000000000000000000000000000000000000000000000000
1111111101111100110001011011111100000000000000000000000000000000000000000000000000000000000000000000
1111111010011000001000001101000000000000000000000000000000000000000000000000000000000000000000000000
1111111011100011111110110100011000000000000000000000000000000000000000000000000000000000000000000000
10111000000111010110001000000000000000000000000000000000000000000000000000000000000000000000
1100001111001111011101110000000000000000000000000000000000000000000000000000000000000000000
1111111111001100010000111001111111000000000000000000000000000000000000000000000000000000000000000000
111011000001111111011101000000000000000000000000000000000000000000000000000000000000000000
10110011110010100011111100000000000000000000000000000000000000000000000000000000000000000000
1111111010111111111101011011000000000000000000000000000000000000000000000000000000000000000000000000
1111111100000111100000011111000100000000000000000000000000000000000000000000000000000000000000000000
100001100100011101011111000000000000000000000000000000000000000000000000000000000000000000
1111111010101100001111111011110000000000000000000000000000000000000000000000000000000000000000000000
1111111010100110001011011101011000000000000000000000000000000000000000000000000000000000000000000000
11011010110101000010110100000000000000000000000000000000000000000000000000000000000000000000
1111111101010000101111111011001000000000000000000000000000000000000000000000000000000000000000000000
10001110111111011100101000000000000000000000000000000000000000000000000000000000000000000000
11011101100111011100111000000000000000000000000000000000000000000000000000000000000000000000
1111111101000011001011110001101000000000000000000000000000000000000000000000000000000000000000000000
1111111101110101010111111010101000000000000000000000000000000000000000000000000000000000000000000000
1111111111000011000001101101110101000000000000000000000000000000000000000000000000000000000000000000
1111111011010000101101011100100000000000000000000000000000000000000000000000000000000000000000000000
1111111111000011010001010110101011000000000000000000000000000000000000000000000000000000000000000000
1111111111000000101110111101010110000000000000000000000000000000000000000000000000000000000000000000
1111111101111001000011101110111000000000000000000000000000000000000000000000000000000000000000000000
1111111011100011011110111001110000000000000000000000000000000000000000000000000000000000000000000000
1111111111011001011010010110101100000000000000000000000000000000000000000000000000000000000000000000
10100011111111110010110000000000000000000000000000000000000000000000000000000000000000000000
1111111010111011010010101011011000000000000000000000000000000000000000000000000000000000000000000000
11100110011001100111000000000000000000000000000000000000000000000000000000000000000000000000
1111111111101011000000010001000101000000000000000000000000000000000000000000000000000000000000000000
11001010111100001111000000000000000000000000000000000000000000000000000000000000000000000000
1111111111011101111010111100001101000000000000000000000000000000000000000000000000000000000000000000
1111111011111111001100010011011000000000000000000000000000000000000000000000000000000000000000000000
1000110100101110011000100000000000000000000000000000000000000000000000000000000000000000000
1111111101011010110010111101110000000000000000000000000000000000000000000000000000000000000000000000
10110100010010011110010100000000000000000000000000000000000000000000000000000000000000000000
1111111100000010111101000010110100000000000000000000000000000000000000000000000000000000000000000000
11100111001011111111010000000000000000000000000000000000000000000000000000000000000000000000
1101011110111101010111010000000000000000000000000000000000000000000000000000000000000000000
1111111011010111101010100100011000000000000000000000000000000000000000000000000000000000000000000000
1111111010101111110110110110010000000000000000000000000000000000000000000000000000000000000000000000
1111111111011000100000110100111001000000000000000000000000000000000000000000000000000000000000000000
1111111110100001111000100010001000000000000000000000000000000000000000000000000000000000000000000000
100001110101001110100110000000000000000000000000000000000000000000000000000000000000000000
1111111011111100010011101010111000000000000000000000000000000000000000000000000000000000000000000000
11001011101101000100111000000000000000000000000000000000000000000000000000000000000000000000
100011110011111011100101000000000000000000000000000000000000000000000000000000000000000000000
1010010011011001100111100000000000000000000000000000000000000000000000000000000000000000000
110001110111010111101110000000000000000000000000000000000000000000000000000000000000000000
1111111111100010000110101010110100000000000000000000000000000000000000000000000000000000000000000000
1111111010100000111000100010110000000000000000000000000000000000000000000000000000000000000000000000
1111111111110101100101010001010111000000000000000000000000000000000000000000000000000000000000000000
1111111110111010001001100010010110000000000000000000000000000000000000000000000000000000000000000000
1111111101001101000011110100000000000000000000000000000000000000000000000000000000000000000000000000
1111111111000010011101100101011000000000000000000000000000000000000000000000000000000000000000000000
1111111100101100011010101101110100000000000000000000000000000000000000000000000000000000000000000000
10100101001010100101111100000000000000000000000000000000000000000000000000000000000000000000
1111111111110100001110101110111101110000000000000000000000000000000000000000000000000000000000000000
1000000111011001111000100000000000000000000000000000000000000000000000000000000000000000000
100111000110100100010110000000000000000000000000000000000000000000000000000000000000000000
1111111100011110010110101110010000000000000000000000000000000000000000000000000000000000000000000000
1111111011101100110001001011101000000000000000000000000000000000000000000000000000000000000000000000
101010010010001100100100000000000000000000000000000000000000000000000000000000000000000
1111111101000011011011001001000000000000000000000000000000000000000000000000000000000000000000000000
1111111011100111110010011110111000000000000000000000000000000000000000000000000000000000000000000000
1111111111100010100010111011101111100000000000000000000000000000000000000000000000000000000000000000
10001011100000111110001100000000000000000000000000000000000000000000000000000000000000000000
10010101011101000111100100000000000000000000000000000000000000000000000000000000000000000000
1111111111111101110101101110101000010000000000000000000000000000000000000000000000000000000000000000
1111111101111100100111001101101000000000000000000000000000000000000000000000000000000000000000000000
1111111101011000010101001100010000000000000000000000000000000000000000000000000000000000000000000000
1111001100010111101101110000000000000000000000000000000000000000000000000000000000000000000
1111111010111000000001100011110000000000000000000000000000000000000000000000000000000000000000000000
1111111011111110101110000101011000000000000000000000000000000000000000000000000000000000000000000000
1001111001011100101000100000000000000000000000000000000000000000000000000000000000000000000
1111111010111110111111010010001000000000000000000000000000000000000000000000000000000000000000000000
1111111111111001100011011010101011010000000000000000000000000000000000000000000000000000000000000000
10000110010001001001001100000000000000000000000000000000000000000000000000000000000000000000
1111111111101111000000000111111110100000000000000000000000000000000000000000000000000000000000000000
111001011001110001010001000000000000000000000000000000000000000000000000000000000000000000
1111111010111101011011001010010000000000000000000000000000000000000000000000000000000000000000000000
1111111111000000011100010111110000000000000000000000000000000000000000000000000000000000000000000000
11001110100111010000100100000000000000000000000000000000000000000000000000000000000000000000
1111111101101101011111000111100000000000000000000000000000000000000000000000000000000000000000000000
1110101101101010000111110000000000000000000000000000000000000000000000000000000000000000000
1111111011011010110010101010111000000000000000000000000000000000000000000000000000000000000000000000
1111111101101101001011000000101100000000000000000000000000000000000000000000000000000000000000000000
1100010010110101001000010000000000000000000000000000000000000000000000000000000000000000000
100101001001010110100101000000000000000000000000000000000000000000000000000000000000000000
1111111011010001111110010010011000000000000000000000000000000000000000000000000000000000000000000000
1101011101111110001101100000000000000000000000000000000000000000000000000000000000000000000
1111111110010001000101100011001010000000000000000000000000000000000000000000000000000000000000000000
1111111101010110111000110100011100000000000000000000000000000000000000000000000000000000000000000000
1111111100011111000001000110011100000000000000000000000000000000000000000000000000000000000000000000
1111111110000100111110101110001100000000000000000000000000000000000000000000000000000000000000000000
1111111111110001100000110111100101110000000000000000000000000000000000000000000000000000000000000000
1111100010100011111000000000000000000000000000000000000000000000000000000000000000000
101000100100111001111011000000000000000000000000000000000000000000000000000000000000000
1111111010010001110111010100011000000000000000000000000000000000000000000000000000000000000000000000
1111111101001001001101000011010100000000000000000000000000000000000000000000000000000000000000000000
100000110011011101010101000000000000000000000000000000000000000000000000000000000000000000000
1011000001000101100010000000000000000000000000000000000000000000000000000000000000000000000
1111111110011110101000101110110010000000000000000000000000000000000000000000000000000000000000000000
11100001011111101001000100000000000000000000000000000000000000000000000000000000000000000000
10010100010010011010000000000000000000000000000000000000000000000000000000000000000000000000
1111111110100100001011010110110000000000000000000000000000000000000000000000000000000000000000000000
100001010011111010001111000000000000000000000000000000000000000000000000000000000000000000000
10000101001011101110001000000000000000000000000000000000000000000000000000000000000000000000
100010010011010111111001000000000000000000000000000000000000000000000000000000000000000000000
11011100110101100010010100000000000000000000000000000000000000000000000000000000000000000
100001101001001001000000000000000000000000000000000000000000000000000000000000000000000000000
1111111010001101000111010110001000000000000000000000000000000000000000000000000000000000000000000000
11010000001110010001110100000000000000000000000000000000000000000000000000000000000000000000
100000001001000110111100000000000000000000000000000000000000000000000000000000000000000000000
1100000101011001000010100000000000000000000000000000000000000000000000000000000000000000000
1111111100011100110000011001111000000000000000000000000000000000000000000000000000000000000000000000
1111111101110110111000111011101000000000000000000000000000000000000000000000000000000000000000000000
100011010111010010101111000000000000000000000000000000000000000000000000000000000000000000000
10000111100011011000110100000000000000000000000000000000000000000000000000000000000000000000
1111111010110001010110010100100000000000000000000000000000000000000000000000000000000000000000000000
1111111111010100001101101011111011000000000000000000000000000000000000000000000000000000000000000000
1111111011100000001100001111000000000000000000000000000000000000000000000000000000000000000000000000
100011011100100111011100000000000000000000000000000000000000000000000000000000000000000000000
11000000110000101110110100000000000000000000000000000000000000000000000000000000000000000000
1111111110111010101100010010011000000000000000000000000000000000000000000000000000000000000000000000
11000001111111001001000000000000000000000000000000000000000000000000000000000000000000000000
11110110111100111011010000000000000000000000000000000000000000000000000000000000000000000
1111111110110111111000001000101100000000000000000000000000000000000000000000000000000000000000000000
1111111111111110111010001110010000110110000000000000000000000000000000000000000000000000000000000000
100010111111110101010110000000000000000000000000000000000000000000000000000000000000000000000
1111111111001000110010010001100000000000000000000000000000000000000000000000000000000000000000000000
1111111110001100001000100101110110000000000000000000000000000000000000000000000000000000000000000000
1111111110011010001001111010101100000000000000000000000000000000000000000000000000000000000000000000
11111101110000000100011100000000000000000000000000000000000000000000000000000000000000000000
100011100100010100011100000000000000000000000000000000000000000000000000000000000000000000000
110100101101011110011101000000000000000000000000000000000000000000000000000000000000000
1111111101100010101000000100000100000000000000000000000000000000000000000000000000000000000000000000
10100111101110110000111100000000000000000000000000000000000000000000000000000000000000000000
1111111010010001101100110001010000000000000000000000000000000000000000000000000000000000000000000000
111010111001000100101111000000000000000000000000000000000000000000000000000000000000000
11111000101010011010001100000000000000000000000000000000000000000000000000000000000000000
1111111101001110101110000001110100000000000000000000000000000000000000000000000000000000000000000000
1111111111000111101010100011000010000000000000000000000000000000000000000000000000000000000000000000
1111111101011100010110100011011100000000000000000000000000000000000000000000000000000000000000000000
11001110001001100000010100000000000000000000000000000000000000000000000000000000000000000000
101001111111011101001101000000000000000000000000000000000000000000000000000000000000000
1111111111000000001101110101110000000000000000000000000000000000000000000000000000000000000000000000
1111111100100101100010011000011000000000000000000000000000000000000000000000000000000000000000000000
1111111101100110110100110011100000000000000000000000000000000000000000000000000000000000000000000000
10011000001000100001001100000000000000000000000000000000000000000000000000000000000000000
1111111110001000010100101010100110000000000000000000000000000000000000000000000000000000000000000000
1111111010111100101001011101100000000000000000000000000000000000000000000000000000000000000000000000
1011101100010101100000010000000000000000000000000000000000000000000000000000000000000000
1111111011001100101000010101110000000000000000000000000000000000000000000000000000000000000000000000
1111111100010111010110111101111000000000000000000000000000000000000000000000000000000000000000000000
1100111001010000000111100000000000000000000000000000000000000000000000000000000000000000000
1111111100111100100111100001000100000000000000000000000000000000000000000000000000000000000000000000
1111111010100100011111001111010000000000000000000000000000000000000000000000000000000000000000000000
1111111111100100010011011111011011000000000000000000000000000000000000000000000000000000000000000000
1111111011001110010011011111110000000000000000000000000000000000000000000000000000000000000000000000
1111111110001100011001100000000100000000000000000000000000000000000000000000000000000000000000000000
1111111101000001100111000101000100000000000000000000000000000000000000000000000000000000000000000000
1111111110000111000001001011111000000000000000000000000000000000000000000000000000000000000000000000
1111111110101001011001100100100000000000000000000000000000000000000000000000000000000000000000000000
1111111010011000000101001001110000000000000000000000000000000000000000000000000000000000000000000000
1101110110000011101110110000000000000000000000000000000000000000000000000000000000000000
1100000001010100010100110000000000000000000000000000000000000000000000000000000000000000000
11010011110100010011010000000000000000000000000000000000000000000000000000000000000000000000
1110101110000000011100010000000000000000000000000000000000000000000000000000000000000000000
1001101101001110001001000000000000000000000000000000000000000000000000000000000000000000000
1111111100111011100101101001000100000000000000000000000000000000000000000000000000000000000000000000
1111111100100100111111100110101000000000000000000000000000000000000000000000000000000000000000000000
10011000110110101110010000000000000000000000000000000000000000000000000000000000000000000000
11000010100110010010010000000000000000000000000000000000000000000000000000000000000000000000
1111111111000100010010001010001010000000000000000000000000000000000000000000000000000000000000000000
1111111111100100011011110010000000000000000000000000000000000000000000000000000000000000000000000000
1101010110000110011011010000000000000000000000000000000000000000000000000000000000000000000
11011110010000101011101100000000000000000000000000000000000000000000000000000000000000000
101001001000101011110101000000000000000000000000000000000000000000000000000000000000000000
1111111011101101110100100010011000000000000000000000000000000000000000000000000000000000000000000000
1111111010101101000010010011101000000000000000000000000000000000000000000000000000000000000000000000
1111111100111111101101111000000000000000000000000000000000000000000000000000000000000000000000000000
1111111100010001000011000101011000000000000000000000000000000000000000000000000000000000000000000000
100010110100011111100101000000000000000000000000000000000000000000000000000000000000000000
1111111100011001010011111110011100000000000000000000000000000000000000000000000000000000000000000000
10101110001101111000100000000000000000000000000000000000000000000000000000000000000000000000
1111111111110010011000010011001001100000000000000000000000000000000000000000000000000000000000000000
1111111011101011100001100000101000000000000000000000000000000000000000000000000000000000000000000000
1111111010011101001101101010111000000000000000000000000000000000000000000000000000000000000000000000
1110100101000110111101010000000000000000000000000000000000000000000000000000000000000000000
11111010101011111111011000000000000000000000000000000000000000000000000000000000000000000000
1111111100101010000101110111100000000000000000000000000000000000000000000000000000000000000000000000
10000101101011101101110000000000000000000000000000000000000000000000000000000000000000000000
11101101011000000111111000000000000000000000000000000000000000000000000000000000000000000
1111111101001011111010000000001000000000000000000000000000000000000000000000000000000000000000000000
11001100011101001100000100000000000000000000000000000000000000000000000000000000000000000000
1111111111101000011011001110100100100000000000000000000000000000000000000000000000000000000000000000
1111111100010110111110000101110100000000000000000000000000000000000000000000000000000000000000000000
1010011011000101001011100000000000000000000000000000000000000000000000000000000000000000000
1111111011111000010010011010100000000000000000000000000000000000000000000000000000000000000000000000
1111111111101110010111010001011100100000000000000000000000000000000000000000000000000000000000000000
1111111101100000000001110001101000000000000000000000000000000000000000000000000000000000000000000000
1010101011000001101000100000000000000000000000000000000000000000000000000000000000000000
1111111011011011001101011001011000000000000000000000000000000000000000000000000000000000000000000000
1111111010111000001110110111001000000000000000000000000000000000000000000000000000000000000000000000
1111111111000100100000000010010111000000000000000000000000000000000000000000000000000000000000000000
1111111110110100111010110111110000000000000000000000000000000000000000000000000000000000000000000000
10100111100101111101010000000000000000000000000000000000000000000000000000000000000000000000
100000000110011110111001000000000000000000000000000000000000000000000000000000000000000000
101011100110000100110101000000000000000000000000000000000000000000000000000000000000000000
11101110111111111100110100000000000000000000000000000000000000000000000000000000000000000
1100101000000011101001110000000000000000000000000000000000000000000000000000000000000000000
10001100100100101110110000000000000000000000000000000000000000000000000000000000000000000000
1001110011010011001010000000000000000000000000000000000000000000000000000000000000000000000
1111111111110010011110110110101110110000000000000000000000000000000000000000000000000000000000000000
10011000000101111110000000000000000000000000000000000000000000000000000000000000000000000000
1011010000011110011100100000000000000000000000000000000000000000000000000000000000000000000
1010001011000100111100100000000000000000000000000000000000000000000000000000000000000000000
1111111011000110101000010111011000000000000000000000000000000000000000000000000000000000000000000000
10111110110000010010101000000000000000000000000000000000000000000000000000000000000000000000
1010010101111110001110000000000000000000000000000000000000000000000000000000000000000000000
101100000100110100000101000000000000000000000000000000000000000000000000000000000000000000
1111111111100101101100010100000111100000000000000000000000000000000000000000000000000000000000000000
10111000000101110110010100000000000000000000000000000000000000000000000000000000000000000000
1111111110011100011011111100000010000000000000000000000000000000000000000000000000000000000000000000
1111111010001001100101001010111000000000000000000000000000000000000000000000000000000000000000000000
1111111011010010001000010100011000000000000000000000000000000000000000000000000000000000000000000000
1111111011110000011010010110101000000000000000000000000000000000000000000000000000000000000000000000
1111111101001011001110001000111000000000000000000000000000000000000000000000000000000000000000000000
1111111110110100001000000011110100000000000000000000000000000000000000000000000000000000000000000000
1111111010100100111110100010100000000000000000000000000000000000000000000000000000000000000000000000
10101101110101111001000000000000000000000000000000000000000000000000000000000000000000000000
10001110000110100100110100000000000000000000000000000000000000000000000000000000000000000000
1111111011110110001011010001000000000000000000000000000000000000000000000000000000000000000000000000
1111111011001101111010100011111000000000000000000000000000000000000000000000000000000000000000000000
100100010101000001101000000000000000000000000000000000000000000000000000000000000000000000
1111111110001000000100011100110010000000000000000000000000000000000000000000000000000000000000000000
1111111101111010010001101010100100000000000000000000000000000000000000000000000000000000000000000000
1111111100000011111010100001010100000000000000000000000000000000000000000000000000000000000000000000
1111111011000111110101111110110000000000000000000000000000000000000000000000000000000000000000000000
10110010010100101100111100000000000000000000000000000000000000000000000000000000000000000000
1111111101001111110000100000100100000000000000000000000000000000000000000000000000000000000000000000
1111111101111111100010000101111100000000000000000000000000000000000000000000000000000000000000000000
1111111100011110110001100001100000000000000000000000000000000000000000000000000000000000000000000000
1111111111101010100011101100111010000000000000000000000000000000000000000000000000000000000000000000
1111111110000011010001101001001000000000000000000000000000000000000000000000000000000000000000000000
1111111110101010001100011010010010000000000000000000000000000000000000000000000000000000000000000000
1111111100011110000100110010001000000000000000000000000000000000000000000000000000000000000000000000
1111111010001100000110101101011000000000000000000000000000000000000000000000000000000000000000000000
10001100000101011000110100000000000000000000000000000000000000000000000000000000000000000000
111110000101101011101110000000000000000000000000000000000000000000000000000000000000000000
1111111100100010100111110110110000000000000000000000000000000000000000000000000000000000000000000000
1111111101101000101000011110011100000000000000000000000000000000000000000000000000000000000000000000
111001101111111110000001000000000000000000000000000000000000000000000000000000000000000000
100010111001000000000001000000000000000000000000000000000000000000000000000000000000000000000
100001011000101110011101000000000000000000000000000000000000000000000000000000000000000000000
1111111101010011100011100101000100000000000000000000000000000000000000000000000000000000000000000000
1111111011110101000000000011101000000000000000000000000000000000000000000000000000000000000000000000
1111111011001010100001101110100000000000000000000000000000000000000000000000000000000000000000000000
1101001100110100010101010000000000000000000000000000000000000000000000000000000000000000000
11100111101100011110100100000000000000000000000000000000000000000000000000000000000000000000
1111111010111000000111010011010000000000000000000000000000000000000000000000000000000000000000000000
1111111101010101110010010100011000000000000000000000000000000000000000000000000000000000000000000000
1111111101011001001001100111100100000000000000000000000000000000000000000000000000000000000000000000
11001101011101011010110000000000000000000000000000000000000000000000000000000000000000000000
111111011111001010000101000000000000000000000000000000000000000000000000000000000000000000
0
11001100100111000111010100000000000000000000000000000000000000000000000000000000000000000000
10101100011000000011001000000000000000000000000000000000000000000000000000000000000000000000
1000110000011000011100110000000000000000000000000000000000000000000000000000000000000000000
11111101010010010100101000000000000000000000000000000000000000000000000000000000000000000
11100010100101001001000000000000000000000000000000000000000000000000000000000000000000000000
1001010010111011100010000000000000000000000000000000000000000000000000000000000000000000000
10011001111110000100101000000000000000000000000000000000000000000000000000000000000000000000
101101000110111110010010000000000000000000000000000000000000000000000000000000000000000000
1111111100100001001011001100110000000000000000000000000000000000000000000000000000000000000000000000
1111111111010011011001101110101110000000000000000000000000000000000000000000000000000000000000000000
11011001111011010101110100000000000000000000000000000000000000000000000000000000000000000000
1111111010101110111100110101100000000000000000000000000000000000000000000000000000000000000000000000
1111111101111111011110001101010000000000000000000000000000000000000000000000000000000000000000000000
101110100011010111011111000000000000000000000000000000000000000000000000000000000000000000
11000110000010110111011100000000000000000000000000000000000000000000000000000000000000000000
11110010011000001100101000000000000000000000000000000000000000000000000000000000000000000000
11001010001011110100111000000000000000000000000000000000000000000000000000000000000000000000
1111111110001001101101011000101100000000000000000000000000000000000000000000000000000000000000000000
1111111100011110110100111010000100000000000000000000000000000000000000000000000000000000000000000000
1111111110001100110000111000011100000000000000000000000000000000000000000000000000000000000000000000
1111111110011010100100011111000000000000000000000000000000000000000000000000000000000000000000000000
100011111101001110111000000000000000000000000000000000000000000000000000000000000000000000
100000010011100111011011000000000000000000000000000000000000000000000000000000000000000000000
1100101000010010010001010000000000000000000000000000000000000000000000000000000000000000000
100011111011000101101000000000000000000000000000000000000000000000000000000000000000
1011101111101010111011010000000000000000000000000000000000000000000000000000000000000000000
1111111010000111111000111100111000000000000000000000000000000000000000000000000000000000000000000000
100010110110100010110010000000000000000000000000000000000000000000000000000000000000000000000
1111111100100001000011111110001000000000000000000000000000000000000000000000000000000000000000000000
1100000010001111101110110000000000000000000000000000000000000000000000000000000000000000000
10101110010011101010000000000000000000000000000000000000000000000000000000000000000000000000
1111111101110011011110100000001100000000000000000000000000000000000000000000000000000000000000000000
1111111011000110001111010110101000000000000000000000000000000000000000000000000000000000000000000000
101101100110101001100001000000000000000000000000000000000000000000000000000000000000000000
1111111101000000111010101001010000000000000000000000000000000000000000000000000000000000000000000000
1111111101111110000101010110001000000000000000000000000000000000000000000000000000000000000000000000
1111111100100010000001011101110000000000000000000000000000000000000000000000000000000000000000000000
11000001010110110110100000000000000000000000000000000000000000000000000000000000000000000000
10100101111100000100100100000000000000000000000000000000000000000000000000000000000000000000
11111011001001000100101100000000000000000000000000000000000000000000000000000000000000000000
1111111111100000100101011101111011100000000000000000000000000000000000000000000000000000000000000000
1111111100100111010000011101111100000000000000000000000000000000000000000000000000000000000000000000
1111111111000100111011111001011111000000000000000000000000000000000000000000000000000000000000000000
1111111011000000100111111100011000000000000000000000000000000000000000000000000000000000000000000000
1111111010111101001111101011011000000000000000000000000000000000000000000000000000000000000000000000
1111111010010011101010011011001000000000000000000000000000000000000000000000000000000000000000000000
1111111111100011010110001100111100100000000000000000000000000000000000000000000000000000000000000000
1111111010111011110010001111001000000000000000000000000000000000000000000000000000000000000000000000
1111111100011101111111010101110000000000000000000000000000000000000000000000000000000000000000000000
100000111110110100000010000000000000000000000000000000000000000000000000000000000000000000000
10000100000100110011111100000000000000000000000000000000000000000000000000000000000000000000
1111111100111100110011110111101100000000000000000000000000000000000000000000000000000000000000000000
11011000100110010010100000000000000000000000000000000000000000000000000000000000000000000000
1111111010001101110101000001010000000000000000000000000000000000000000000000000000000000000000000000
101100110101000110111110000000000000000000000000000000000000000000000000000000000000000000
1111111011011110100001000111111000000000000000000000000000000000000000000000000000000000000000000000
1111111011110101101100101010101000000000000000000000000000000000000000000000000000000000000000000000
1111111100010000100001111100011100000000000000000000000000000000000000000000000000000000000000000000
100011111010011111001010000000000000000000000000000000000000000000000000000000000000000000000
1111111100010101101011000010010000000000000000000000000000000000000000000000000000000000000000000000
10100100010100111110101000000000000000000000000000000000000000000000000000000000000000000
11001001010001100001110000000000000000000000000000000000000000000000000000000000000000000000
111110110001000110000111000000000000000000000000000000000000000000000000000000000000000000
1111111101010100001000000101000000000000000000000000000000000000000000000000000000000000000000000000
1111111100011011111111011001110100000000000000000000000000000000000000000000000000000000000000000000
1111111111011101000011100010100010000000000000000000000000000000000000000000000000000000000000000000
11101101001100000100110000000000000000000000000000000000000000000000000000000000000000000000
1111111111101101110011100000100101000000000000000000000000000000000000000000000000000000000000000000
110101011010011111001111000000000000000000000000000000000000000000000000000000000000000000
100001010011011101011001000000000000000000000000000000000000000000000000000000000000000000000
1111111110100011110110000000101000000000000000000000000000000000000000000000000000000000000000000000
1111111011000100000110011111110000000000000000000000000000000000000000000000000000000000000000000000
100010100101001001011010000000000000000000000000000000000000000000000000000000000000000000000
1111111011111100101111110101000000000000000000000000000000000000000000000000000000000000000000000000
1111100000101001111000100000000000000000000000000000000000000000000000000000000000000000000
1111111100111011010001101000011000000000000000000000000000000000000000000000000000000000000000000000
1111111010110000010111100101101000000000000000000000000000000000000000000000000000000000000000000000
1111111011011010000010010110000000000000000000000000000000000000000000000000000000000000000000000000
1111111110010101111001100101000000000000000000000000000000000000000000000000000000000000000000000000
1111111010110100011111101101010000000000000000000000000000000000000000000000000000000000000000000000
101010110100111001001111000000000000000000000000000000000000000000000000000000000000000000
1111111011010000101000011100011000000000000000000000000000000000000000000000000000000000000000000000
1111111010101100011111011011101000000000000000000000000000000000000000000000000000000000000000000000
100011000110001100110011000000000000000000000000000000000000000000000000000000000000000000000
1111111010111010000001000100010000000000000000000000000000000000000000000000000000000000000000000000
1010011010111111011001110000000000000000000000000000000000000000000000000000000000000000000
11011000001010101101111000000000000000000000000000000000000000000000000000000000000000000000
1111111111110001111010011111001010000000000000000000000000000000000000000000000000000000000000000000
1111111010011101010111011001100000000000000000000000000000000000000000000000000000000000000000000000
11000101100010001011111100000000000000000000000000000000000000000000000000000000000000000000
111001000111000110001111000000000000000000000000000000000000000000000000000000000000000000
1111111111100111111001011001100010100000000000000000000000000000000000000000000000000000000000000000
1111111011110010000101110111101000000000000000000000000000000000000000000000000000000000000000000000
11010111001111111000011000000000000000000000000000000000000000000000000000000000000000000000
110010111101111000101010000000000000000000000000000000000000000000000000000000000000000000
1111111110111011100110001011010100000000000000000000000000000000000000000000000000000000000000000000
1111111100111111011010000001011100000000000000000000000000000000000000000000000000000000000000000000
1111111010001101011010100000000000000000000000000000000000000000000000000000000000000000000000000000
110101001000000100000001000000000000000000000000000000000000000000000000000000000000000000
1111111101000100001110011010111100000000000000000000000000000000000000000000000000000000000000000000
1111111011010111111001001011000000000000000000000000000000000000000000000000000000000000000000000000
100010101000101000100010000000000000000000000000000000000000000000000000000000000000000000000
10110011100101101001001100000000000000000000000000000000000000000000000000000000000000000
1111111101001101011111111110111000000000000000000000000000000000000000000000000000000000000000000000
100000101100000100110111000000000000000000000000000000000000000000000000000000000000000000000
1111111011100100110011101001100000000000000000000000000000000000000000000000000000000000000000000000
1010101010101111110111010000000000000000000000000000000000000000000000000000000000000000000
10110111101100111000010000000000000000000000000000000000000000000000000000000000000000000000
1111111100101001111010001100000100000000000000000000000000000000000000000000000000000000000000000000
1100101010111111000001100000000000000000000000000000000000000000000000000000000000000000000
11100010101100001101100000000000000000000000000000000000000000000000000000000000000000000000
101011011111011000111111000000000000000000000000000000000000000000000000000000000000000
1001001101011000000110000000000000000000000000000000000000000000000000000000000000000000000
1001010110001101000010110000000000000000000000000000000000000000000000000000000000000000000
1111111111101010101100111110111101000000000000000000000000000000000000000000000000000000000000000000
1110111010000101011111010000000000000000000000000000000000000000000000000000000000000000000
10100011111000001101001100000000000000000000000000000000000000000000000000000000000000000000
100001010110000010100101000000000000000000000000000000000000000000000000000000000000000000000
1111111011001011110100111011011000000000000000000000000000000000000000000000000000000000000000000000
1111111010100110111101010100111000000000000000000000000000000000000000000000000000000000000000000000
11100100100100110001100100000000000000000000000000000000000000000000000000000000000000000000
10001100100000110111110000000000000000000000000000000000000000000000000000000000000000000
1111111101101000000000001010101000000000000000000000000000000000000000000000000000000000000000000000
1111111110011111101111011111001110000000000000000000000000000000000000000000000000000000000000000000
1111111101100011100011011101101100000000000000000000000000000000000000000000000000000000000000000000
1111111111100100000100110000010111100000000000000000000000000000000000000000000000000000000000000000
1111111110101010100110011100000110000000000000000000000000000000000000000000000000000000000000000000
1111111011010111010011100111111000000000000000000000000000000000000000000000000000000000000000000000
1011011100011000001101110000000000000000000000000000000000000000000000000000000000000000000
1111111011101001110111111111010000000000000000000000000000000000000000000000000000000000000000000000
10100111001010110110110000000000000000000000000000000000000000000000000000000000000000000000
11000011101101111000101100000000000000000000000000000000000000000000000000000000000000000000
10101001011000001011001100000000000000000000000000000000000000000000000000000000000000000000
11000111111011111000011000000000000000000000000000000000000000000000000000000000000000000000
1111111100010010001001010101100000000000000000000000000000000000000000000000000000000000000000000000
1111111101111001000100111101110000000000000000000000000000000000000000000000000000000000000000000000
1110110100010000110111110000000000000000000000000000000000000000000000000000000000000000000
1111111011011100011010001000000000000000000000000000000000000000000000000000000000000000000000000000
1101001111010010111011100000000000000000000000000000000000000000000000000000000000000000000
1111100000101001110010010000000000000000000000000000000000000000000000000000000000000000000
11010001011011001101010000000000000000000000000000000000000000000000000000000000000000000000
100111110000011000011111000000000000000000000000000000000000000000000000000000000000000000
1111111010010001101010010001001000000000000000000000000000000000000000000000000000000000000000000000
1111111101011010011011001011111100000000000000000000000000000000000000000000000000000000000000000000
1111111110011101000010000000101010000000000000000000000000000000000000000000000000000000000000000000
1111111101010010111001010011101000000000000000000000000000000000000000000000000000000000000000000000
1111111011001011010101001000110000000000000000000000000000000000000000000000000000000000000000000000
101001111001101110000011000000000000000000000000000000000000000000000000000000000000000000
10111110110000001001111000000000000000000000000000000000000000000000000000000000000000000000
100001000101101111010010000000000000000000000000000000000000000000000000000000000000000000000
10111001101100011000110000000000000000000000000000000000000000000000000000000000000000000
1111111110000100001010001010001010000000000000000000000000000000000000000000000000000000000000000000
1111111101000111110000111100011100000000000000000000000000000000000000000000000000000000000000000000
1111111111111011100111111111011110001000000000000000000000000000000000000000000000000000000000000000
100000000110001000000110000000000000000000000000000000000000000000000000000000000000000000000
1111111110011110001011000000110110000000000000000000000000000000000000000000000000000000000000000000
1111111010011010001111011001010000000000000000000000000000000000000000000000000000000000000000000000
1111111010010010101001110111100000000000000000000000000000000000000000000000000000000000000000000000
1111111110001001001010001110000110000000000000000000000000000000000000000000000000000000000000000000
1111111111110101101101100000010111100000000000000000000000000000000000000000000000000000000000000000
100011110100111100010101000000000000000000000000000000000000000000000000000000000000000000000
1111111101010001100000100001101000000000000000000000000000000000000000000000000000000000000000000000
1111111101110110000111010111011000000000000000000000000000000000000000000000000000000000000000000000
100000000011011110110100000000000000000000000000000000000000000000000000000000000000000000000
1111111011100000001000010000100000000000000000000000000000000000000000000000000000000000000000000000
10010001010101110101010100000000000000000000000000000000000000000000000000000000000000000000
1111111110000110110110000110010010000000000000000000000000000000000000000000000000000000000000000000
1111111110000111010000110011111010000000000000000000000000000000000000000000000000000000000000000000
1111111101000011110010000110011100000000000000000000000000000000000000000000000000000000000000000000
1111111010011010100111101111000000000000000000000000000000000000000000000000000000000000000000000000
1111111100000000011100111000000000000000000000000000000000000000000000000000000000000000000000000000
1111111010110110101111111100111000000000000000000000000000000000000000000000000000000000000000000000
1111111011101111110010101100100000000000000000000000000000000000000000000000000000000000000000000000
11111101001011100000010000000000000000000000000000000000000000000000000000000000000000
1111111100101110011010000100001000000000000000000000000000000000000000000000000000000000000000000000
110111001001010110000001000000000000000000000000000000000000000000000000000000000000000
10110100011001101000001000000000000000000000000000000000000000000000000000000000000000000000
10001101011110011110100100000000000000000000000000000000000000000000000000000000000000000000
1111111111010010001111001111000111000000000000000000000000000000000000000000000000000000000000000000
11000111011011000000111100000000000000000000000000000000000000000000000000000000000000000000
1111111100111111011001000111101000000000000000000000000000000000000000000000000000000000000000000000
1111111111010001101000000011001011000000000000000000000000000000000000000000000000000000000000000000
1111111111001000101100101000011001000000000000000000000000000000000000000000000000000000000000000000
10010011000000001100001000000000000000000000000000000000000000000000000000000000000000000000
1111111101010011010110101110011100000000000000000000000000000000000000000000000000000000000000000000
1111111100111010101110111001010000000000000000000000000000000000000000000000000000000000000000000000
1111111101100101110000010001111100000000000000000000000000000000000000000000000000000000000000000000
1111111011000100001000010110111000000000000000000000000000000000000000000000000000000000000000000000
110000000101011000001110000000000000000000000000000000000000000000000000000000000000000000
1111111111001000110000001101111010000000000000000000000000000000000000000000000000000000000000000000
1111111011010111000011000000010000000000000000000000000000000000000000000000000000000000000000000000
1111111010000111101110000110010000000000000000000000000000000000000000000000000000000000000000000000
10001010010110100100000100000000000000000000000000000000000000000000000000000000000000000
10011111000111011100111100000000000000000000000000000000000000000000000000000000000000000000
1111111110001000100100111001100000000000000000000000000000000000000000000000000000000000000000000000
1110111011011111100110100000000000000000000000000000000000000000000000000000000000000000000
1111100010111101010011110000000000000000000000000000000000000000000000000000000000000000000
