1111111100010010
1111111011110001
1111111111101001
1111111010001010
1111111101001111
10100000
110
11001010
11011111
1111111110000111
1111111111010111
10101010
11111110
11001
1001000
1111111101011010
1111111110111010
1111111010001111
1111111111111000
10000010
1111111010100000
1111111110101110
10010011
1111111101000111
1111111100011011
10111011
1111111110111011
1110
1111111011011000
1111111010100011
1100
1111111101011101
1111111011110101
1111111011101110
1111111010001001
1111111110111100
11000011
1111111101010011
1111111011010101
1111111010110000
1111111101010000
1111111110000110
11110100
110101
1111111101110101
11011111
1111111100110010
1111111110011100
1111111101100110
1111111111010111
11111010
11001011
10100011
1111111110101010
11011111
10000
10011100
10111000
1111111111111101
1111111100111101
10001101
1111111111110000
1111111010000000
1111111110101100
11010110
1111111011000100
1111111010110011
1111111010100101
1111111110010100
100000
1111111110100101
11000101
101101
110111
1111111100100110
1111111010010101
10111010
10010111
1111111010010001
1111111011111100
1111111101100000
11111101
1111111111011110
1001011
1111111010000010
1111111010000100
1111111100110010
10111010
101110
111101
10101100
1111111111001101
1111111111001101
1111111110100100
1111111111111111
10101
1111111110011010
1111111110011111
0
10001001
1111111010100010
111
1111111011001101
1111111100011001
1111111101010100
1001111
1111111100100000
1111111001110110
1111111111111111
11010101
1111111011010011
1111111011101010
1111111110110100
1000111
1001000
1111111011100111
1111111101000100
11101101
11011100
1111111110100101
1111111011100111
11000101
1111111100011011
1111111110110110
1111111110110111
1000100
1111111111000001
1111111100100000
110111
1111111110000010
1111111100111010
1111111111001010
1111111101001001
1111111001110010
1111111111001110
1111111110010001
1111111101111001
1111111100011111
11101011
1101001
1111111101001011
1111111010011111
1111111110101001
1111111011010111
11101011
1111111011000110
1111111111100001
1111111010000011
1111111101000000
100000110
1111111111010110
1111111001111010
1111111111001101
1111111100011100
10100
11100101
1111111010010010
1111111010101100
1111111100101101
1101010
1001110
1111111100100000
1111111100111110
110110
1111111011100000
1111111111001000
10011100
1111111101101000
10010010
1111111100000100
1111111110100110
1111111100000000
1111111010101001
1001000
1001001
1111111001111111
11110011
1010010
1111111010111110
110000
1111111110100000
1111111
11110101
1111111100010110
1111111111110010
1111111100000011
1111111111011001
1111111100100101
10000011
1111111011110010
1111111101110110
1111111111000110
1111111010100101
1111
1111111100001101
10110011
11110100
1111111010000000
10100011
1111111011010001
1111111111100000
1111111101001010
1111111011001111
1111111001111110
11101100
1111011
1111111100101111
1111111100110010
1111111101011001
1111111100110011
11110110
1111111101011101
1111111010011010
1111111110101111
1111111010111011
1111111110001001
1111111010100000
1101101
1111111101100101
1111111110001010
1111111100010110
1111111001110010
1000010
11110111
0
10110010
1111111100100110
1111111010111100
1110010
1111111101001111
10110100
1111111010000000
1111111110011010
1111111101010000
1111111110101100
1111111010010101
1111111110001010
1111111010110010
11011
1001101
1111111101110111
1111111100000101
100111
11000100
10010
11100001
11000011
11101000
1111111101111001
10
1111111011000101
1000111
1111111111000000
1001100
11110
1111111011010000
10111110
101101
10101
1111111111100011
1111111110110110
1111111111001101
11000111
10010000
1111001
10011100
1111111010111010
1111111011101101
1111111011000001
1100110
1111111111110100
1111100
10001
1111111101011001
11010101
10000110
1011101
11001
10011100
1110011
1111000
1101100
1111111010000000
1111111100100100
1111111100011100
1111011
10001001
1111111111101110
1111111011101111
1111111101011011
1111111110101011
1111111101100010
1111111010101010
100110
1111111110001010
11111
1110000
10101100
10110100
10100100
1111111101011000
11111
1111111110000110
101110
110100
1111111101110101
101101
10010
11011100
11111100
10001110
11000100
1111111010010000
100000111
1111111001111110
1111111111101010
1111111110010011
1111111101110011
11001110
1111111011111000
1111111110011101
11100111
1111111110001011
1111111010011101
1111111101111010
1111111010111001
1111111101100100
11100101
1111111001111011
1111111111100110
10110000
1111111011010101
1111111011001101
10100110
1111111101111001
10000101
1111111010110000
1111111101100111
1111111101101110
1111111100110110
1111111101010000
11011
1111111111101010
10001
1111111101010011
1111111100111110
1111111111001000
1111111111101000
1100001
1101101
1111111011010100
1111111010011111
10100000
1111111100011001
1111111011110111
1111111100101110
1111111011111110
11001
1111111110011111
1111111010001111
1111111111100010
1001101
1111
1111111110001100
1111111101001111
1111111101101000
1011100
11110101
110110
1100101
1111111100100000
1111111010011000
1011010
1111111011110100
1111111010011110
1111111110011000
1101110
1111111110010101
10100111
1111111101110001
1111111010101110
10001000
1111111010100100
1111111110011001
1111111101000101
0
1111111111100111
1111111010011101
1101110
11001000
1111111010100000
1111111010011101
1111111111111111
1111111101011110
10100100
10010010
1111111010110110
10111
1111111010011100
1111111111101110
1111111001111010
1111111001110100
1111111101010010
1111111011011011
1111111001110001
1111111010100011
1111111110100101
100011
11101010
1111111001110001
1011100
1111111100010011
1111111110110101
101100
1111111111010011
11001000
1000110
1110
1111111110010011
1111111011000010
1111111100110101
1111111101100001
1111111101101100
1111111001111000
1000101
11010001
1111111101001100
111101
1111111110011000
1111111100001000
1111111100111000
1111111010001100
1111111111010000
1111
1111111010101001
1111111011001111
10001010
1111111100010010
1111111011100101
1011111
1111111011010110
1111111101110101
10100001
11101000
1111111101001010
1111111010101001
10001111
1000101
1111111001111100
1111111011111000
1011
11000010
1111111111000101
1111111110011011
1111111111000010
1111111100111001
1111111111110111
1111111010011000
1111111010001000
11101010
1111111100010101
1111111010011111
1111111111000001
1111111111111111
1111111001110001
1111111011010000
1111111111100110
1111111110100111
1111111110100001
1111111101000011
1111111010011110
1111111101111111
1111111110110001
1111111010110011
1101100
1111111110010110
1111111100111111
1111111011100001
10010110
1111111010100110
1111111100000001
1111111010111111
1100000
1111111011001000
10100111
1111111110011111
1111111101100000
1111111111101000
11100011
11101000
10100011
1111111110110110
1111111110111001
1111111101101110
1111111111101000
1111111011111101
1111111111100111
1111111100100011
1010100
1111111101000000
1111111110011001
10001011
1111111010010111
1111111110110010
1111111110000001
1111111011100001
1111111100011101
10101101
1111111100010011
11110100
1111111110001101
1111111110011011
1111111110110001
111
10001100
1111111101110111
10110000
1111111110010010
1111111110010000
1111111111111110
10100110
1111111111001111
1111111100100000
1111111101101100
1111111010000001
1111111100000111
110
1111111110101110
1111111010000100
11110001
1111111011000111
1111111110011001
1111111100111110
1111111111010011
1111111111100110
1111111010000000
10110111
1011111
1111111010101100
1111111011110001
10110000
11001100
1111111011011000
1111111111111001
1100101
1111111011010111
10100000
1111111111100000
1111111011101000
10110111
1111111011000101
1100100
1111111111010110
1010110
110
1111111011100001
10111000
1111111010001110
1111111110111100
1111111110000110
1111111011000101
1111111111111111
1111111001110010
111001
1111111101111001
1111111111001010
1111111011101101
1111111100101111
11111100
10001111
1011000
0
1111111101000001
101010
10010001
100001
1111111111111011
1111111010011010
1111111011101101
1100110
1111111110000010
10010
1111111011110111
100000010
11100
11111110
1111111111110001
1111111100000111
11110
100001
1111111011101000
10111111
1000101
1111111111111010
1111111111010110
1111111010111111
1111111011000001
10111101
1111111100001011
1111111101001001
1111111011101100
1111111101001101
10100110
1111111100111001
1010100
10101100
1101111
1111111100110011
101010
1111111010101001
1110001
10010011
11101010
100
10110010
1111111011000011
1111111011010011
1111111111110110
1111111100001011
1111111110111011
1111111110010100
1111111101011011
10110100
11011111
10111111
1000011
1111111001110110
1111111011001011
1111111100001111
101100
11110100
1111111111111100
1111111111001111
1111111010101011
10000111
1111111101110011
1111111010001011
1111111110110001
1101010
1111111011000011
10100000
10000100
1100010
10111011
1111111011011110
1111111111100100
1111111010101101
1111111011100010
1111111110000100
1111111101011000
1111111101001001
1111111011111100
101000
1111111101010010
1111111101000010
1111111111001110
1111111111011011
1111111100101110
1111111100110110
1111111111001111
110110
11101010
1111111111011000
1111111011111011
1111111101101111
1111111011011111
1111111110011010
1111111101000100
1111111110001110
1111111010001101
1111111010011100
111000
1111111100100101
1111111111001010
11111001
1111111010111110
11111001
10001000
1101
1111111110101011
11010110
11111000
10000011
1111111011000101
1111111100101111
11010
10000101
1111111011011010
1111111111100101
1111111101011001
1111111100101100
1111111011111111
1111111110111110
1001001
1111111101011101
11000001
1111111010110101
1111101
1111111111001000
1111111111011001
1111111101111011
1111111101000110
1111111011010111
1111111110110111
1111111110111100
11101111
1001010
11011100
11100000
1111111101011000
1111111001111111
1111111110101110
1111111010110101
1111111100011110
1111111100000111
10010101
11001101
1111111101101010
1111111111111110
1111111110101010
1111111100011100
10011111
1111111011100111
101111
1111111101100001
1111111110010011
1111111101111001
10010110
1111111111110110
11100001
1111111001110111
10101000
1111111001110101
1111100
10111101
1111111110111111
1111111011000000
1111111111100110
1111111100101010
11110001
1111111110101101
1111111100011101
1111111101000100
1111111011011001
1111111101000110
1111111011010110
1111111110100101
1111111111001011
10
1111111110011000
1111111011101011
1111111010011001
11000010
1111111011110100
1111111010100011
1111111010101000
11110001
1101000
1111111111011110
11101011
1111111100001111
1111111111110011
1111111010001101
1111111010100000
1111111011111000
1100011
10010001
1111111011111110
1001100
100
1011100
1111111011101010
1111111010111110
1101111
10001100
1111111010011111
1111111101101000
1111111101000010
110111
11001101
1111111011100010
10001011
1111111101100111
1111111110100110
