10000110100101001111100100000000000000000000000000000000000000000000000000000000000000000
1111111100100010001010111010101000000000000000000000000000000000000000000000000000000000000000000000
1111111100110101110001110001110100000000000000000000000000000000000000000000000000000000000000000000
11101011000100010011001000000000000000000000000000000000000000000000000000000000000000
10100101101000010000101000000000000000000000000000000000000000000000000000000000000000000000
1111111110010111010111000100010110000000000000000000000000000000000000000000000000000000000000000000
1111111101101000001010100111001000000000000000000000000000000000000000000000000000000000000000000000
1111111111100011101010001101100010100000000000000000000000000000000000000000000000000000000000000000
101010100001110001001111000000000000000000000000000000000000000000000000000000000000000000000
10110101111001001101010100000000000000000000000000000000000000000000000000000000000000000
100001001110100101000101000000000000000000000000000000000000000000000000000000000000000000000
11011001110010010111111100000000000000000000000000000000000000000000000000000000000000000000
10110110010110011001010000000000000000000000000000000000000000000000000000000000000000000000
1111111000000000110001000000000000000000000000000000000000000000000000000000000000000000000
11000000001001110100111100000000000000000000000000000000000000000000000000000000000000000000
10101000111011111010011000000000000000000000000000000000000000000000000000000000000000000000
1111111100111111001111000001110000000000000000000000000000000000000000000000000000000000000000000000
1111111101010111010000100111011100000000000000000000000000000000000000000000000000000000000000000000
100000011101000100110110000000000000000000000000000000000000000000000000000000000000000000000
11011101100101101110110100000000000000000000000000000000000000000000000000000000000000000000
100100011000100010010011000000000000000000000000000000000000000000000000000000000000000000000
100011101000100010001000000000000000000000000000000000000000000000000000000000000000000000000
10000110000001000110010100000000000000000000000000000000000000000000000000000000000000000000
1001100101100001100011110000000000000000000000000000000000000000000000000000000000000000000
1111111111010001101000001100000000000000000000000000000000000000000000000000000000000000000000000000
101001011000111110001100000000000000000000000000000000000000000000000000000000000000000000
1111111111000000000000100110111101000000000000000000000000000000000000000000000000000000000000000000
1111111100101001111110111111110100000000000000000000000000000000000000000000000000000000000000000000
1111111110111000001101010111001100000000000000000000000000000000000000000000000000000000000000000000
100000000100111101001010000000000000000000000000000000000000000000000000000000000000000000000
1111111110100010100010100111110110000000000000000000000000000000000000000000000000000000000000000000
1111111101101100100101110110110100000000000000000000000000000000000000000000000000000000000000000000
1111111100111001100000001001011000000000000000000000000000000000000000000000000000000000000000000000
100011101001111110111011000000000000000000000000000000000000000000000000000000000000000000000
10011101001001011111101000000000000000000000000000000000000000000000000000000000000000000000
100011111000000101000100000000000000000000000000000000000000000000000000000000000000000000000
10000001111010111111000000000000000000000000000000000000000000000000000000000000000000000000
10011010101010000111110100000000000000000000000000000000000000000000000000000000000000000000
1110111101101000100100010000000000000000000000000000000000000000000000000000000000000000000
100110100000101011010010000000000000000000000000000000000000000000000000000000000000000000000
1011001100101111010100010000000000000000000000000000000000000000000000000000000000000000000
111100111100111011110011000000000000000000000000000000000000000000000000000000000000000000
1000101100010001011101010000000000000000000000000000000000000000000000000000000000000000000
1000101011101110001011110000000000000000000000000000000000000000000000000000000000000000000
1111111110111111101100101111011100000000000000000000000000000000000000000000000000000000000000000000
1100111100101011100110110000000000000000000000000000000000000000000000000000000000000000000
11100100001100010001101100000000000000000000000000000000000000000000000000000000000000000000
100000111101001000100011000000000000000000000000000000000000000000000000000000000000000000000
11110110000111100101110100000000000000000000000000000000000000000000000000000000000000000000
100011101010000110111111000000000000000000000000000000000000000000000000000000000000000000000
1111111011111001001011101010111000000000000000000000000000000000000000000000000000000000000000000000
101111000000111011001100000000000000000000000000000000000000000000000000000000000000000000000
1111111101001000111101010110101000000000000000000000000000000000000000000000000000000000000000000000
110011110000011101100011000000000000000000000000000000000000000000000000000000000000000000
1111111100001101001100011100111000000000000000000000000000000000000000000000000000000000000000000000
101001010011001101110001000000000000000000000000000000000000000000000000000000000000000000
11001110010001111110001100000000000000000000000000000000000000000000000000000000000000000000
1111111011111100110100010001011000000000000000000000000000000000000000000000000000000000000000000000
1111111111100010101011100111000100000000000000000000000000000000000000000000000000000000000000000000
10101100100001110101011000000000000000000000000000000000000000000000000000000000000000000000
101111111110000010001110000000000000000000000000000000000000000000000000000000000000000000000
100011001010101001010011000000000000000000000000000000000000000000000000000000000000000000000
1111111101100110010110101101110000000000000000000000000000000000000000000000000000000000000000000000
1111111110010011001100111000100110000000000000000000000000000000000000000000000000000000000000000000
1100001100011100011101110000000000000000000000000000000000000000000000000000000000000000000
101000010010101001010001000000000000000000000000000000000000000000000000000000000000000000000
1111111111110010111000011010001111100000000000000000000000000000000000000000000000000000000000000000
1111111101010111101110111001000100000000000000000000000000000000000000000000000000000000000000000000
1111111101100000001000000000010100000000000000000000000000000000000000000000000000000000000000000000
1111111111101100111010111000001110000000000000000000000000000000000000000000000000000000000000000000
11001100000111110011011000000000000000000000000000000000000000000000000000000000000000000000
10110111111110100001011000000000000000000000000000000000000000000000000000000000000000000000
1010000111101010011001000000000000000000000000000000000000000000000000000000000000000000
1111111101111111010111110011011100000000000000000000000000000000000000000000000000000000000000000000
1111111111001000010010001010100101000000000000000000000000000000000000000000000000000000000000000000
1111111110000111110001100011010110000000000000000000000000000000000000000000000000000000000000000000
11001101001001000100100100000000000000000000000000000000000000000000000000000000000000000000
101111000010000000011010000000000000000000000000000000000000000000000000000000000000000000000
1011111010011000101111100000000000000000000000000000000000000000000000000000000000000000000
101011111101001000110010000000000000000000000000000000000000000000000000000000000000000000000
1111111111110001010101010111110110010000000000000000000000000000000000000000000000000000000000000000
1111111110111011011111100011000010000000000000000000000000000000000000000000000000000000000000000000
100111000110101010011101000000000000000000000000000000000000000000000000000000000000000000000
1011100110110110101110000000000000000000000000000000000000000000000000000000000000000000000
1111111101000111101110011100111000000000000000000000000000000000000000000000000000000000000000000000
1101111111101111001100110000000000000000000000000000000000000000000000000000000000000000
1110110010001111110110000000000000000000000000000000000000000000000000000000000000000000000
100001011001110001111110000000000000000000000000000000000000000000000000000000000000000000000
1111111111000101110100101100110010000000000000000000000000000000000000000000000000000000000000000000
1001010011101110111100010000000000000000000000000000000000000000000000000000000000000000000
1111111101101001000011000111100000000000000000000000000000000000000000000000000000000000000000000000
11011110011110101001011000000000000000000000000000000000000000000000000000000000000000000000
101001101100010000010011000000000000000000000000000000000000000000000000000000000000000000
100101000010000001110000000000000000000000000000000000000000000000000000000000000000000000000
101010001001100100100010000000000000000000000000000000000000000000000000000000000000000000000
1111111101111010001011101001110000000000000000000000000000000000000000000000000000000000000000000000
1111111111110000001011100011000111010000000000000000000000000000000000000000000000000000000000000000
1111111101100100110110101011011000000000000000000000000000000000000000000000000000000000000000000000
1111111100111010001110000001001000000000000000000000000000000000000000000000000000000000000000000000
1111111110110000000101000110100110000000000000000000000000000000000000000000000000000000000000000000
10100111110110010101101000000000000000000000000000000000000000000000000000000000000000000000
11011000001000001010100100000000000000000000000000000000000000000000000000000000000000000000
101011100100000100111101000000000000000000000000000000000000000000000000000000000000000000000
1100010110010011110111010000000000000000000000000000000000000000000000000000000000000000000
1111111110000100000100100110110000000000000000000000000000000000000000000000000000000000000000000000
110110000111111111100011000000000000000000000000000000000000000000000000000000000000000000
1111111111101100110100100111001001100000000000000000000000000000000000000000000000000000000000000000
11110011110100000101100000000000000000000000000000000000000000000000000000000000000000000000
10101111110011010111011100000000000000000000000000000000000000000000000000000000000000000000
11000011110001100000000100000000000000000000000000000000000000000000000000000000000000000000
110001011111101110100100000000000000000000000000000000000000000000000000000000000000000000000
1001011110111100011100010000000000000000000000000000000000000000000000000000000000000000000
10100011001100100001110100000000000000000000000000000000000000000000000000000000000000000000
101011001010101000101111000000000000000000000000000000000000000000000000000000000000000000000
1111111110000011111100100100000110000000000000000000000000000000000000000000000000000000000000000000
100011101101001011110011000000000000000000000000000000000000000000000000000000000000000000000
1111111100010011110101011110101100000000000000000000000000000000000000000000000000000000000000000000
1111111110101111000001110111101110000000000000000000000000000000000000000000000000000000000000000000
10101110100011110000101100000000000000000000000000000000000000000000000000000000000000000000
1111111101100000010110100011000000000000000000000000000000000000000000000000000000000000000000000000
10010101000110001100110100000000000000000000000000000000000000000000000000000000000000000000
10010000111101001000010000000000000000000000000000000000000000000000000000000000000000000000
111010101110001011011100000000000000000000000000000000000000000000000000000000000000000000
11100010000010011110001100000000000000000000000000000000000000000000000000000000000000
1111111101001111111011110100010100000000000000000000000000000000000000000000000000000000000000000000
101000110110001111101100000000000000000000000000000000000000000000000000000000000000000000000
1111111111101001110000001110101011100000000000000000000000000000000000000000000000000000000000000000
1111111111110001010110101111111100010000000000000000000000000000000000000000000000000000000000000000
1111111100011101111111101101010000000000000000000000000000000000000000000000000000000000000000000000
100111000001101100110100000000000000000000000000000000000000000000000000000000000000000000000
110010000111010011011000000000000000000000000000000000000000000000000000000000000000000000
1111111101110000101001010000010100000000000000000000000000000000000000000000000000000000000000000000
11011110100010011000001100000000000000000000000000000000000000000000000000000000000000000000
11010011110100001000011100000000000000000000000000000000000000000000000000000000000000000000
10101110110110100100100100000000000000000000000000000000000000000000000000000000000000000000
1111111101001111011101110110010000000000000000000000000000000000000000000000000000000000000000000000
101010001011100010111100000000000000000000000000000000000000000000000000000000000000000000000
1111111110111000100111110011100000000000000000000000000000000000000000000000000000000000000000000000
1111111111111010011111001001101111011000000000000000000000000000000000000000000000000000000000000000
0
1111111110010111100011111001001100000000000000000000000000000000000000000000000000000000000000000000
1111111110011011110110000111110110000000000000000000000000000000000000000000000000000000000000000000
101001110101101000100010000000000000000000000000000000000000000000000000000000000000000000000
1111111101000010010011000000101000000000000000000000000000000000000000000000000000000000000000000000
1100110000011011111011110000000000000000000000000000000000000000000000000000000000000000000
101001010110010011000010000000000000000000000000000000000000000000000000000000000000000000000
1111011001001100000001000000000000000000000000000000000000000000000000000000000000000000000
1111111100010001101010100001000100000000000000000000000000000000000000000000000000000000000000000000
11010111100101110010110000000000000000000000000000000000000000000000000000000000000000000000
101011010101100011010010000000000000000000000000000000000000000000000000000000000000000000000
101000111111001111000111000000000000000000000000000000000000000000000000000000000000000000000
100111100011011010010111000000000000000000000000000000000000000000000000000000000000000000000
1111111110100000001001000011101110000000000000000000000000000000000000000000000000000000000000000000
1111111101111000000011100111001000000000000000000000000000000000000000000000000000000000000000000000
1111111110011111110001101100000100000000000000000000000000000000000000000000000000000000000000000000
101000000011101010011011000000000000000000000000000000000000000000000000000000000000000000000
100101101100101001010010000000000000000000000000000000000000000000000000000000000000000000000
101111110101100110000001000000000000000000000000000000000000000000000000000000000000000000000
1111111111111100001111000001100001010000000000000000000000000000000000000000000000000000000000000000
1111111110000100100110000001101000000000000000000000000000000000000000000000000000000000000000000000
1111111110001011011011001101110110000000000000000000000000000000000000000000000000000000000000000000
1111111111111110011101011001011011001000000000000000000000000000000000000000000000000000000000000000
110110011111010100000010000000000000000000000000000000000000000000000000000000000000000000
10110100101001000010010100000000000000000000000000000000000000000000000000000000000000000000
101001111001101010000011000000000000000000000000000000000000000000000000000000000000000000000
11100010101001100011010000000000000000000000000000000000000000000000000000000000000000000
1110000000011111010111110000000000000000000000000000000000000000000000000000000000000000000
1111111111010101101001111010101111000000000000000000000000000000000000000000000000000000000000000000
1111111011111111100001111101011000000000000000000000000000000000000000000000000000000000000000000000
1111111111110111011101101111011101110000000000000000000000000000000000000000000000000000000000000000
11010001110010101100100000000000000000000000000000000000000000000000000000000000000000000000
100110000000000111100011000000000000000000000000000000000000000000000000000000000000000000000
100111011100010000010001000000000000000000000000000000000000000000000000000000000000000000000
1111111100100001100110011110000000000000000000000000000000000000000000000000000000000000000000000000
1111111100000111000010100110011000000000000000000000000000000000000000000000000000000000000000000000
1100001000100011100000000000000000000000000000000000000000000000000000000000000000000000000
10100110111001011100010100000000000000000000000000000000000000000000000000000000000000000000
1111111110110110110010111111000000000000000000000000000000000000000000000000000000000000000000000000
1101101100000100011011000000000000000000000000000000000000000000000000000000000000000000000
1111111111101100100101100110001111100000000000000000000000000000000000000000000000000000000000000000
1111111100011111101000000001110100000000000000000000000000000000000000000000000000000000000000000000
1100000110111110100101010000000000000000000000000000000000000000000000000000000000000000000
1111111100011001100010100100001000000000000000000000000000000000000000000000000000000000000000000000
1111111111110100110001000000001011010000000000000000000000000000000000000000000000000000000000000000
101000010111110101111101000000000000000000000000000000000000000000000000000000000000000000000
10111100100011110010111000000000000000000000000000000000000000000000000000000000000000000000
100101001011101110100010000000000000000000000000000000000000000000000000000000000000000000
1010011100010001001111100000000000000000000000000000000000000000000000000000000000000000000
1111111100110000100001110101011000000000000000000000000000000000000000000000000000000000000000000000
11101000010111001110101100000000000000000000000000000000000000000000000000000000000000000000
100000000011001011011000000000000000000000000000000000000000000000000000000000000000000000000
11001000110101011110011100000000000000000000000000000000000000000000000000000000000000000000
1111111111111100111000111001101111011100000000000000000000000000000000000000000000000000000000000000
1111111110011111010000010000110010000000000000000000000000000000000000000000000000000000000000000000
1111111101101101000011010100101000000000000000000000000000000000000000000000000000000000000000000000
10111101001000111100001000000000000000000000000000000000000000000000000000000000000000000
100101101000100011100010000000000000000000000000000000000000000000000000000000000000000000000
1111111110011101001101110100011100000000000000000000000000000000000000000000000000000000000000000000
1111111101011001001010011101100100000000000000000000000000000000000000000000000000000000000000000000
11110111111111101111011000000000000000000000000000000000000000000000000000000000000000000000
10011010111010000000011000000000000000000000000000000000000000000000000000000000000000000000
101111101100000110101011000000000000000000000000000000000000000000000000000000000000000000000
1010100110000100100101000000000000000000000000000000000000000000000000000000000000000000000
1111111110001001110100010011100110000000000000000000000000000000000000000000000000000000000000000000
10101111101111000111110000000000000000000000000000000000000000000000000000000000000000000000
110000100001100110101001000000000000000000000000000000000000000000000000000000000000000000000
11101111010001010010110100000000000000000000000000000000000000000000000000000000000000000000
10110010101101001010000000000000000000000000000000000000000000000000000000000000000000000000
1111111110101111100001011110001110000000000000000000000000000000000000000000000000000000000000000000
1111111101010000100101001010110000000000000000000000000000000000000000000000000000000000000000000000
1111111100010101100011010000011100000000000000000000000000000000000000000000000000000000000000000000
1111111110010001011110000111010010000000000000000000000000000000000000000000000000000000000000000000
1111111100011011001010011011101000000000000000000000000000000000000000000000000000000000000000000000
1111111100010111111011010011100000000000000000000000000000000000000000000000000000000000000000000000
1111111111101001100100010100000010000000000000000000000000000000000000000000000000000000000000000000
11110011001011010101101100000000000000000000000000000000000000000000000000000000000000000000
1111111101011101111010101000011000000000000000000000000000000000000000000000000000000000000000000000
1111111101110000111011010100100100000000000000000000000000000000000000000000000000000000000000000000
10101000011100101101011100000000000000000000000000000000000000000000000000000000000000000
110001100111011111000100000000000000000000000000000000000000000000000000000000000000000000000
10011110000000010011101000000000000000000000000000000000000000000000000000000000000000000
10110111000101110011011100000000000000000000000000000000000000000000000000000000000000000000
1110001010011000011110100000000000000000000000000000000000000000000000000000000000000000000
1111010001000011010111010000000000000000000000000000000000000000000000000000000000000000000
100101101010110000101001000000000000000000000000000000000000000000000000000000000000000000000
1111111101111111000100000000100000000000000000000000000000000000000000000000000000000000000000000000
1101110011000001011000110000000000000000000000000000000000000000000000000000000000000000000
101101110111010001100111000000000000000000000000000000000000000000000000000000000000
110001010011001101100110000000000000000000000000000000000000000000000000000000000000000000
100101110000111111011001000000000000000000000000000000000000000000000000000000000000000000000
11000011110110011010101000000000000000000000000000000000000000000000000000000000000000000000
100111010010110111110011000000000000000000000000000000000000000000000000000000000000000000000
11101000000111110010001000000000000000000000000000000000000000000000000000000000000000000000
1111111111110111011001111010000110100000000000000000000000000000000000000000000000000000000000000000
1111111111100100101001000000010101100000000000000000000000000000000000000000000000000000000000000000
100111000011110010110001000000000000000000000000000000000000000000000000000000000000000000000
1111111100001001000011010001101100000000000000000000000000000000000000000000000000000000000000000000
1111111100001010100011110010101100000000000000000000000000000000000000000000000000000000000000000000
1111111110001100010111111011000010000000000000000000000000000000000000000000000000000000000000000000
1110000111101000111010010000000000000000000000000000000000000000000000000000000000000000000
1111111101111000111011110111011000000000000000000000000000000000000000000000000000000000000000000000
1111111110011101110001111001000110000000000000000000000000000000000000000000000000000000000000000000
1110110011010101100110000000000000000000000000000000000000000000000000000000000000000000000
11000110101001001101101000000000000000000000000000000000000000000000000000000000000000000000
100101010101011001011100000000000000000000000000000000000000000000000000000000000000000000000
10000101010101100100111100000000000000000000000000000000000000000000000000000000000000000
1111111110101110111000110101000010000000000000000000000000000000000000000000000000000000000000000000
1111111100000100000101001110110000000000000000000000000000000000000000000000000000000000000000000000
1111111110001001100110011010101100000000000000000000000000000000000000000000000000000000000000000000
1111010111100110111010000000000000000000000000000000000000000000000000000000000000000000
1111111100010100100111000100010000000000000000000000000000000000000000000000000000000000000000000000
1111111110011001010010001110101110000000000000000000000000000000000000000000000000000000000000000000
11011000011100010111011100000000000000000000000000000000000000000000000000000000000000000000
10011100111000001010100000000000000000000000000000000000000000000000000000000000000000000000
1111111111100000000101111001001010100000000000000000000000000000000000000000000000000000000000000000
1111111101010000110001000000111100000000000000000000000000000000000000000000000000000000000000000000
10100110110111101110111100000000000000000000000000000000000000000000000000000000000000000000
100111001000111010110101000000000000000000000000000000000000000000000000000000000000000000
1111111100001001100110111010011000000000000000000000000000000000000000000000000000000000000000000000
100111000111011110000101000000000000000000000000000000000000000000000000000000000000000000000
1111111110001111110100001110100110000000000000000000000000000000000000000000000000000000000000000000
1111111110111110001111001101110000000000000000000000000000000000000000000000000000000000000000000000
11110111011101101110000000000000000000000000000000000000000000000000000000000000000000000000
1111111111101101011101111111000100000000000000000000000000000000000000000000000000000000000000000000
1010001011011000111111000000000000000000000000000000000000000000000000000000000000000000000
1111111110100000001000100111001110000000000000000000000000000000000000000000000000000000000000000000
1111111101010011011100010111100000000000000000000000000000000000000000000000000000000000000000000000
110001000110110011010101000000000000000000000000000000000000000000000000000000000000000000000
1111111101110100011101100111110000000000000000000000000000000000000000000000000000000000000000000000
11111111111101001110001100000000000000000000000000000000000000000000000000000000000000000000
101110110100000110100011000000000000000000000000000000000000000000000000000000000000000000000
110000010101101010110000000000000000000000000000000000000000000000000000000000000000000000000
11101111011100110000000100000000000000000000000000000000000000000000000000000000000000000000
1001100110100010001101000000000000000000000000000000000000000000000000000000000000000000000
1111111110110110111100100011000110000000000000000000000000000000000000000000000000000000000000000000
1111111111010010010000101011110100000000000000000000000000000000000000000000000000000000000000000000
10100000001100010001010100000000000000000000000000000000000000000000000000000000000000000000
1111111101110011100110011100010100000000000000000000000000000000000000000000000000000000000000000000
10100001100011011101100100000000000000000000000000000000000000000000000000000000000000000000
101100001000000110000110000000000000000000000000000000000000000000000000000000000000000000000
10101001111111101001011000000000000000000000000000000000000000000000000000000000000000000000
1111111101001000001001100011111100000000000000000000000000000000000000000000000000000000000000000000
100100101100110110100011000000000000000000000000000000000000000000000000000000000000000000
11101111000100110100010100000000000000000000000000000000000000000000000000000000000000000000
101101000011010100000100000000000000000000000000000000000000000000000000000000000000000000000
1000000100010100100111110000000000000000000000000000000000000000000000000000000000000000000
1110010000001100100001000000000000000000000000000000000000000000000000000000000000000000000
1111111101000111100100111110100100000000000000000000000000000000000000000000000000000000000000000000
1111111110100000101011010100100110000000000000000000000000000000000000000000000000000000000000000000
10010110000011111111001000000000000000000000000000000000000000000000000000000000000000000000
11000010000110110110100100000000000000000000000000000000000000000000000000000000000000000000
1111111110100000011101011101111110000000000000000000000000000000000000000000000000000000000000000000
1111111101110111001110110000100000000000000000000000000000000000000000000000000000000000000000000000
1111111100101100001011011011101000000000000000000000000000000000000000000000000000000000000000000000
101001101000100100001001000000000000000000000000000000000000000000000000000000000000000000000
10111010011110101000001000000000000000000000000000000000000000000000000000000000000000000000
11110111001101010010000000000000000000000000000000000000000000000000000000000000000000000000
10100000000010010001001100000000000000000000000000000000000000000000000000000000000000000000
10101110010110000011100000000000000000000000000000000000000000000000000000000000000000000000
1111111100011001101010101111000100000000000000000000000000000000000000000000000000000000000000000000
10111010110100110010111100000000000000000000000000000000000000000000000000000000000000000000
1111111110001001100100100101111110000000000000000000000000000000000000000000000000000000000000000000
1111111110100001001111011111001010000000000000000000000000000000000000000000000000000000000000000000
1000011011111011011111110000000000000000000000000000000000000000000000000000000000000000000
1111111100110010011101110101011100000000000000000000000000000000000000000000000000000000000000000000
110001010101101011111011000000000000000000000000000000000000000000000000000000000000000000000
100001100000110100101010000000000000000000000000000000000000000000000000000000000000000
110111010011001101011010000000000000000000000000000000000000000000000000000000000000000000
101111000100000000011101000000000000000000000000000000000000000000000000000000000000000000000
10111011111011011110111000000000000000000000000000000000000000000000000000000000000000000000
10100010110111001101101000000000000000000000000000000000000000000000000000000000000000000000
10010111110011001100000000000000000000000000000000000000000000000000000000000000000000000000
1111111001101110111100100000000000000000000000000000000000000000000000000000000000000000000
10110100000110000001110000000000000000000000000000000000000000000000000000000000000000000000
1111111110000110101010100100000100000000000000000000000000000000000000000000000000000000000000000000
110001100000110001001100000000000000000000000000000000000000000000000000000000000000000000
1000011011100010110111110000000000000000000000000000000000000000000000000000000000000000000
100111111000000110101101000000000000000000000000000000000000000000000000000000000000000000000
110001011101100111010011000000000000000000000000000000000000000000000000000000000000000000000
100111010111000011011000000000000000000000000000000000000000000000000000000000000000000000000
11110001100111110100110100000000000000000000000000000000000000000000000000000000000000000000
1111111110000110000100101111001010000000000000000000000000000000000000000000000000000000000000000000
1111111011110100111110000010011000000000000000000000000000000000000000000000000000000000000000000000
1111111011111011000101101010111000000000000000000000000000000000000000000000000000000000000000000000
1111111111111111001011111111110011001001000000000000000000000000000000000000000000000000000000000000
101000100101110011100111000000000000000000000000000000000000000000000000000000000000000000000
1000100001011111111001100000000000000000000000000000000000000000000000000000000000000000
1111111110110010100100011110111010000000000000000000000000000000000000000000000000000000000000000000
1111111011111100011000011010010000000000000000000000000000000000000000000000000000000000000000000000
100110000011101110101010000000000000000000000000000000000000000000000000000000000000000000000
10110010000001000000011100000000000000000000000000000000000000000000000000000000000000000000
100000101110101010001010000000000000000000000000000000000000000000000000000000000000000000000
1111111111100000001111011001100101000000000000000000000000000000000000000000000000000000000000000000
1111111101010001100111011100111000000000000000000000000000000000000000000000000000000000000000000000
11001111111111110010100100000000000000000000000000000000000000000000000000000000000000000
1111111111000011101101001011111011000000000000000000000000000000000000000000000000000000000000000000
1111111111010001110111101001111101000000000000000000000000000000000000000000000000000000000000000000
101011111011100000010100000000000000000000000000000000000000000000000000000000000000000000000
1100110100111010010110010000000000000000000000000000000000000000000000000000000000000000000
1111111110001110101001111111111100000000000000000000000000000000000000000000000000000000000000000000
1111111101001100010010101001110000000000000000000000000000000000000000000000000000000000000000000000
100000110101100001011001000000000000000000000000000000000000000000000000000000000000000000000
1111111111010100100001101110010101000000000000000000000000000000000000000000000000000000000000000000
10110011000011010000110100000000000000000000000000000000000000000000000000000000000000000000
110001001111111111110001000000000000000000000000000000000000000000000000000000000000000000000
10101111000100000111010000000000000000000000000000000000000000000000000000000000000000000
100110100110110100111100000000000000000000000000000000000000000000000000000000000000000000000
1111111110100110001011011001101110000000000000000000000000000000000000000000000000000000000000000000
100101100001100011101111000000000000000000000000000000000000000000000000000000000000000000000
10011011100001101110111000000000000000000000000000000000000000000000000000000000000000000
11000011100110101111000100000000000000000000000000000000000000000000000000000000000000000000
1110010011001111110011010000000000000000000000000000000000000000000000000000000000000000000
1111111110001001100111011000010110000000000000000000000000000000000000000000000000000000000000000000
100101000100111110001110000000000000000000000000000000000000000000000000000000000000000000000
11101010011001101110110100000000000000000000000000000000000000000000000000000000000000000000
1111111100011000100100101000000000000000000000000000000000000000000000000000000000000000000000000000
1111111110111100000000110111100010000000000000000000000000000000000000000000000000000000000000000000
1111111110001011110011001101100110000000000000000000000000000000000000000000000000000000000000000000
1011110110000011000100110000000000000000000000000000000000000000000000000000000000000000000
101100001000110111100111000000000000000000000000000000000000000000000000000000000000000000000
11111000111010101010001100000000000000000000000000000000000000000000000000000000000000000000
1111111100111000110111100111101100000000000000000000000000000000000000000000000000000000000000000000
101011101100111010010111000000000000000000000000000000000000000000000000000000000000000000000
11001100111101011101111000000000000000000000000000000000000000000000000000000000000000000000
110001010001110110101110000000000000000000000000000000000000000000000000000000000000000000000
11011100011100101010101000000000000000000000000000000000000000000000000000000000000000000000
1111111110100010101110001001111000000000000000000000000000000000000000000000000000000000000000000000
1111111101000100000011000111011100000000000000000000000000000000000000000000000000000000000000000000
110101010110101110110110000000000000000000000000000000000000000000000000000000000000000
10101110110110110001011100000000000000000000000000000000000000000000000000000000000000000000
110000000001100110101010000000000000000000000000000000000000000000000000000000000000000000000
1111111110111001110010110100001110000000000000000000000000000000000000000000000000000000000000000000
11100101110011111101110100000000000000000000000000000000000000000000000000000000000000000000
11001001011100100111111000000000000000000000000000000000000000000000000000000000000000000000
100010111000101110011001000000000000000000000000000000000000000000000000000000000000000000
100010101010010010010000000000000000000000000000000000000000000000000000000000000000000000000
110001001010111010101110000000000000000000000000000000000000000000000000000000000000000000000
100010101111111100110000000000000000000000000000000000000000000000000000000000000000000000000
1111111111110000000100110000100101010000000000000000000000000000000000000000000000000000000000000000
1111111101100001100100011011101000000000000000000000000000000000000000000000000000000000000000000000
1111111101100010011011101100111100000000000000000000000000000000000000000000000000000000000000000000
101001010111001101101100000000000000000000000000000000000000000000000000000000000000000000000
1100001001011010100001100000000000000000000000000000000000000000000000000000000000000000000
1111111100101101000000001100101100000000000000000000000000000000000000000000000000000000000000000000
11010010010001101101010100000000000000000000000000000000000000000000000000000000000000000000
11110110100100101101111000000000000000000000000000000000000000000000000000000000000000000000
1111111111010100111001100010010010000000000000000000000000000000000000000000000000000000000000000000
11010011100001110110111100000000000000000000000000000000000000000000000000000000000000000000
1101111000011100110000010000000000000000000000000000000000000000000000000000000000000000000
101110111011101001000000000000000000000000000000000000000000000000000000000000000000000000000
10101111000001110111011100000000000000000000000000000000000000000000000000000000000000000
1111111011110101010111010111001000000000000000000000000000000000000000000000000000000000000000000000
100101110101110010011110000000000000000000000000000000000000000000000000000000000000000000000
100001100001101111001001000000000000000000000000000000000000000000000000000000000000000000000
11110110101011111011011000000000000000000000000000000000000000000000000000000000000000000000
1111111011110110010000101001001000000000000000000000000000000000000000000000000000000000000000000000
1111111101011101011110000000111100000000000000000000000000000000000000000000000000000000000000000000
1111111111000110111111100100001110000000000000000000000000000000000000000000000000000000000000000000
1101110100101000001000110000000000000000000000000000000000000000000000000000000000000000000
1111111100011111000011100001000100000000000000000000000000000000000000000000000000000000000000000000
101011100000110001001010000000000000000000000000000000000000000000000000000000000000000000000
100100011111110101010101000000000000000000000000000000000000000000000000000000000000000000000
1111111110100101100111111001010100000000000000000000000000000000000000000000000000000000000000000000
1110100110101001011100110000000000000000000000000000000000000000000000000000000000000000000
1111111101100101010110011001001100000000000000000000000000000000000000000000000000000000000000000000
1111111111001100001111100110010010000000000000000000000000000000000000000000000000000000000000000000
1000000001100111100010000000000000000000000000000000000000000000000000000000000000000000000
100111100001111101110000000000000000000000000000000000000000000000000000000000000000000000000
11001010010100110010010000000000000000000000000000000000000000000000000000000000000000000
100011111001001011001000000000000000000000000000000000000000000000000000000000000000000000000
1011000111101010001100000000000000000000000000000000000000000000000000000000000000000000000
1111111101001011000111110010010000000000000000000000000000000000000000000000000000000000000000000000
101100001110101010000110000000000000000000000000000000000000000000000000000000000000000000000
100110000100101111111011000000000000000000000000000000000000000000000000000000000000000000000
1111111100111100001101111101000000000000000000000000000000000000000000000000000000000000000000000000
1111111111010010111110101001001110000000000000000000000000000000000000000000000000000000000000000000
101100001000101111100001000000000000000000000000000000000000000000000000000000000000000000000
10011000100101110001111100000000000000000000000000000000000000000000000000000000000000000000
11111110100111010000000000000000000000000000000000000000000000000000000000000000000000000000
1111111101000001101100001000000100000000000000000000000000000000000000000000000000000000000000000000
11100101101000011000010000000000000000000000000000000000000000000000000000000000000000000000
1010100001100011110011000000000000000000000000000000000000000000000000000000000000000000000
11111100101001000011111100000000000000000000000000000000000000000000000000000000000000000000
100010110010110011001000000000000000000000000000000000000000000000000000000000000000000000000
111000110001011011110110000000000000000000000000000000000000000000000000000000000000000
11111011001111100110101100000000000000000000000000000000000000000000000000000000000000000000
1111111111110011000110000100011010000000000000000000000000000000000000000000000000000000000000000000
101101011101111001100011000000000000000000000000000000000000000000000000000000000000000000000
1111111111010010101001100101010110000000000000000000000000000000000000000000000000000000000000000000
1111111101001011110001111010111100000000000000000000000000000000000000000000000000000000000000000000
1111111100001001000001011111100000000000000000000000000000000000000000000000000000000000000000000000
11000101000001010110010100000000000000000000000000000000000000000000000000000000000000000000
1111111101100010101001000001000100000000000000000000000000000000000000000000000000000000000000000000
11010100110001111100111100000000000000000000000000000000000000000000000000000000000000000000
100101010101101111010011000000000000000000000000000000000000000000000000000000000000000000000
1001100110000110011110010000000000000000000000000000000000000000000000000000000000000
10111001101001110001001000000000000000000000000000000000000000000000000000000000000000000000
1111111011111101010000111010111000000000000000000000000000000000000000000000000000000000000000000000
11111111111100110010010100000000000000000000000000000000000000000000000000000000000000000000
1111111111111101111101111110001100110000000000000000000000000000000000000000000000000000000000000000
110000010001010101101111000000000000000000000000000000000000000000000000000000000000000000000
1111111100100111010110110110110000000000000000000000000000000000000000000000000000000000000000000000
11010010000101000100100000000000000000000000000000000000000000000000000000000000000000000000
10000111001001111111000100000000000000000000000000000000000000000000000000000000000000000000
1111111101000111000001111001101100000000000000000000000000000000000000000000000000000000000000000000
10110111011001010111000100000000000000000000000000000000000000000000000000000000000000000000
1111111110011101011001010000101010000000000000000000000000000000000000000000000000000000000000000000
10000010001001100100011000000000000000000000000000000000000000000000000000000000000000000000
1111111101000100011111001001010000000000000000000000000000000000000000000000000000000000000000000000
1111111111111101010011101110011001010100000000000000000000000000000000000000000000000000000000000000
10110111011011100010001000000000000000000000000000000000000000000000000000000000000000000000
1111111110010001011101001000101110000000000000000000000000000000000000000000000000000000000000000000
1111111101111110011000101101011100000000000000000000000000000000000000000000000000000000000000000000
110000011010010001110100000000000000000000000000000000000000000000000000000000000000000000000
1111111111101100001100000000101100000000000000000000000000000000000000000000000000000000000000000000
1111111101011000000110101011101100000000000000000000000000000000000000000000000000000000000000000000
111001010010111010010000000000000000000000000000000000000000000000000000000000000000000000
1111111111111100101101000111010100011000000000000000000000000000000000000000000000000000000000000000
101010110101010101001111000000000000000000000000000000000000000000000000000000000000000000000
1111111101111101010111001010000000000000000000000000000000000000000000000000000000000000000000000000
1111111100111110101000011101111100000000000000000000000000000000000000000000000000000000000000000000
1111111100110001001010110001101100000000000000000000000000000000000000000000000000000000000000000000
101100110011011111010111000000000000000000000000000000000000000000000000000000000000000000000
100011000101101111011111000000000000000000000000000000000000000000000000000000000000000000000
1111111100010101010000100011111000000000000000000000000000000000000000000000000000000000000000000000
1100101111101100011101110000000000000000000000000000000000000000000000000000000000000000000
1111111111011110001011100000011110000000000000000000000000000000000000000000000000000000000000000000
101010011101000000110010000000000000000000000000000000000000000000000000000000000000000000000
1001001110010000110000010000000000000000000000000000000000000000000000000000000000000000000
1111111101101110011000011110111000000000000000000000000000000000000000000000000000000000000000000000
101010100000011110010110000000000000000000000000000000000000000000000000000000000000000000000
101010000100101100010011000000000000000000000000000000000000000000000000000000000000000000000
11011010001001101100110000000000000000000000000000000000000000000000000000000000000000
1111111101001001000000111101011000000000000000000000000000000000000000000000000000000000000000000000
1111111100000011010110010101101000000000000000000000000000000000000000000000000000000000000000000000
1111111110101110110111110011010100000000000000000000000000000000000000000000000000000000000000000000
10101011111101011000000000000000000000000000000000000000000000000000000000000000000000000000
10100001010000100101101100000000000000000000000000000000000000000000000000000000000000000000
1111111100100110111110010101010000000000000000000000000000000000000000000000000000000000000000000000
11101101111011000010010000000000000000000000000000000000000000000000000000000000000000000000
1101110111110101100101000000000000000000000000000000000000000000000000000000000000000000000
1111111100011000110011110100001100000000000000000000000000000000000000000000000000000000000000000000
1100111101011010010010000000000000000000000000000000000000000000000000000000000000000000000
10000000010000011011100000000000000000000000000000000000000000000000000000000000000000000000
11111111010100110011001000000000000000000000000000000000000000000000000000000000000000000
10101110010010001101101100000000000000000000000000000000000000000000000000000000000000000000
100110101110000110110111000000000000000000000000000000000000000000000000000000000000000000000
11010000000101111111100000000000000000000000000000000000000000000000000000000000000000000
1111111101111111001100000110101100000000000000000000000000000000000000000000000000000000000000000000
10111001001000000010001100000000000000000000000000000000000000000000000000000000000000000000
1111111100101010100000111111010100000000000000000000000000000000000000000000000000000000000000000000
1111111101100001100000111010000100000000000000000000000000000000000000000000000000000000000000000000
101000001011001100010011000000000000000000000000000000000000000000000000000000000000000000000
1111111011111100100100010101100000000000000000000000000000000000000000000000000000000000000000000000
1111111100001000101010000101010000000000000000000000000000000000000000000000000000000000000000000000
1100110001101111101100110000000000000000000000000000000000000000000000000000000000000000000
1110001111111000100100100000000000000000000000000000000000000000000000000000000000000000000
11111001110001111001110100000000000000000000000000000000000000000000000000000000000000000000
11000100011101100010111000000000000000000000000000000000000000000000000000000000000000000000
1111111100000010100111000001001000000000000000000000000000000000000000000000000000000000000000000000
110001010010101100101101000000000000000000000000000000000000000000000000000000000000000000000
110000110101000010111101000000000000000000000000000000000000000000000000000000000000000000000
11100011110011011010011000000000000000000000000000000000000000000000000000000000000000000000
1011110001001010101101110000000000000000000000000000000000000000000000000000000000000000000
1111111100001000010100001011100000000000000000000000000000000000000000000000000000000000000000000000
1111111100101010110001010111000100000000000000000000000000000000000000000000000000000000000000000000
11111101110010000010101100000000000000000000000000000000000000000000000000000000000000000000
10000111100110111011001100000000000000000000000000000000000000000000000000000000000000000000
10000111000010101111111000000000000000000000000000000000000000000000000000000000000000000000
1111110111101110101111100000000000000000000000000000000000000000000000000000000000000000000
1111111100011011101010010000011000000000000000000000000000000000000000000000000000000000000000000000
1111111110010010001101000001100010000000000000000000000000000000000000000000000000000000000000000000
1111111110111111001110010111010010000000000000000000000000000000000000000000000000000000000000000000
100100100100001001000011000000000000000000000000000000000000000000000000000000000000000000000
1111111111100100000010111000001101000000000000000000000000000000000000000000000000000000000000000000
1111111111100100010001010010000111000000000000000000000000000000000000000000000000000000000000000000
1111111110100101110010001001100100000000000000000000000000000000000000000000000000000000000000000000
1111111101101111000000011100011000000000000000000000000000000000000000000000000000000000000000000000
1111111111000111111110101111001100000000000000000000000000000000000000000000000000000000000000000000
10011110101011111000100100000000000000000000000000000000000000000000000000000000000000000000
1001011010010101110001100000000000000000000000000000000000000000000000000000000000000000000
10010101001011000010110000000000000000000000000000000000000000000000000000000000000000000000
10101001010110100000100100000000000000000000000000000000000000000000000000000000000000000000
1111111100010001100010101001100000000000000000000000000000000000000000000000000000000000000000000000
1111111100111010100010001110110100000000000000000000000000000000000000000000000000000000000000000000
1111111101010111101100111111110100000000000000000000000000000000000000000000000000000000000000000000
1111111011111001101010111010111000000000000000000000000000000000000000000000000000000000000000000000
1110110110010011001001000000000000000000000000000000000000000000000000000000000000000000000
11100010000001001010100100000000000000000000000000000000000000000000000000000000000000000000
101101011011001110110111000000000000000000000000000000000000000000000000000000000000000000000
1111111110110000110110110100100000000000000000000000000000000000000000000000000000000000000000000000
1111111110001111110010011100011100000000000000000000000000000000000000000000000000000000000000000000
1111111100101010001001110011110100000000000000000000000000000000000000000000000000000000000000000000
1111111111000101011001000010101001000000000000000000000000000000000000000000000000000000000000000000
100011110010011001100000000000000000000000000000000000000000000000000000000000000000000000
1110101000100111101001100000000000000000000000000000000000000000000000000000000000000000000
111100011110000011110010000000000000000000000000000000000000000000000000000000000000000000
101100100100010011100110000000000000000000000000000000000000000000000000000000000000000000000
11111011110110110000111000000000000000000000000000000000000000000000000000000000000000000
1111111110100001001011001011011010000000000000000000000000000000000000000000000000000000000000000000
1100100010111010010111100000000000000000000000000000000000000000000000000000000000000000000
10001110110011000110000100000000000000000000000000000000000000000000000000000000000000000000
101011001111100111110000000000000000000000000000000000000000000000000000000000000000000000000
101111000111100111100001000000000000000000000000000000000000000000000000000000000000000000000
100010101001010010000100000000000000000000000000000000000000000000000000000000000000000000000
1111111110000000010001010010110100000000000000000000000000000000000000000000000000000000000000000000
11110011000100001011001000000000000000000000000000000000000000000000000000000000000000000000
10011101010001001111101100000000000000000000000000000000000000000000000000000000000000000000
1111111110010101010110110011011010000000000000000000000000000000000000000000000000000000000000000000
100011101011101001100100000000000000000000000000000000000000000000000000000000000000000000000
1111111110110010011111111001100110000000000000000000000000000000000000000000000000000000000000000000
10000011011011100101011000000000000000000000000000000000000000000000000000000000000000000000
10001011001001010110000100000000000000000000000000000000000000000000000000000000000000000
1000110001111100010100010000000000000000000000000000000000000000000000000000000000000000000
11000011011011011011100000000000000000000000000000000000000000000000000000000000000000000000
1111111110101111000101011110010000000000000000000000000000000000000000000000000000000000000000000000
1111111100100101010100100110000100000000000000000000000000000000000000000000000000000000000000000000
1111111111000100100010100111110010000000000000000000000000000000000000000000000000000000000000000000
1111111110010100111100111010110110000000000000000000000000000000000000000000000000000000000000000000
1111111110000000101001100011110110000000000000000000000000000000000000000000000000000000000000000000
11100010000001111000010000000000000000000000000000000000000000000000000000000000000000000000
1111111101100111000001100101100000000000000000000000000000000000000000000000000000000000000000000000
1101010000111011101001110000000000000000000000000000000000000000000000000000000000000000000
1111111101000100100000101111111100000000000000000000000000000000000000000000000000000000000000000000
100011101011101000101110000000000000000000000000000000000000000000000000000000000000000000000
1111111110111100100011001000010100000000000000000000000000000000000000000000000000000000000000000000
1000110011010000111011000000000000000000000000000000000000000000000000000000000000000000000
1111101000110111110000010000000000000000000000000000000000000000000000000000000000000000000
10000011000101000011011100000000000000000000000000000000000000000000000000000000000000000
100100100010110011111111000000000000000000000000000000000000000000000000000000000000000000000
1100100100010011101111000000000000000000000000000000000000000000000000000000000000000000000
1111111100010111010111010101000000000000000000000000000000000000000000000000000000000000000000000000
1111111100010110010011010001011000000000000000000000000000000000000000000000000000000000000000000000
1111111100011111000000011100111000000000000000000000000000000000000000000000000000000000000000000000
1110001011111000100000100000000000000000000000000000000000000000000000000000000000000000000
101110011110110101011010000000000000000000000000000000000000000000000000000000000000000000000
111111010000110010001011000000000000000000000000000000000000000000000000000000000000000000
1111111111010010010101110011001001000000000000000000000000000000000000000000000000000000000000000000
1110111001110010111010010000000000000000000000000000000000000000000000000000000000000000000
1111111101101101110101011010100100000000000000000000000000000000000000000000000000000000000000000000
10100101010100000010000100000000000000000000000000000000000000000000000000000000000000000000
100100100000111011100011000000000000000000000000000000000000000000000000000000000000000000000
1111111100100101110010001101000000000000000000000000000000000000000000000000000000000000000000000000
1111111110000111111010011011111000000000000000000000000000000000000000000000000000000000000000000000
1111111101101111111011100000001000000000000000000000000000000000000000000000000000000000000000000000
1111111110100001010010110001110000000000000000000000000000000000000000000000000000000000000000000000
11100110101011111101101000000000000000000000000000000000000000000000000000000000000000000000
1111111100010100001001101011101100000000000000000000000000000000000000000000000000000000000000000000
1111111111110010110101000101010000110000000000000000000000000000000000000000000000000000000000000000
101001100000110010001101000000000000000000000000000000000000000000000000000000000000000000000
10111101010101010100010100000000000000000000000000000000000000000000000000000000000000000000
101100100110100000011100000000000000000000000000000000000000000000000000000000000000000000000
1111111111010111101101101100101010000000000000000000000000000000000000000000000000000000000000000000
1101001010011011010111000000000000000000000000000000000000000000000000000000000000000000000
101011001001110111000111000000000000000000000000000000000000000000000000000000000000000000000
11100110111001111000110000000000000000000000000000000000000000000000000000000000000000000000
11101111011011101101111100000000000000000000000000000000000000000000000000000000000000000000
101101011111100111101010000000000000000000000000000000000000000000000000000000000000000000
10101110011011001101011100000000000000000000000000000000000000000000000000000000000000000
1111111100101100000111111110000100000000000000000000000000000000000000000000000000000000000000000000
1111111111011010001011111010000000000000000000000000000000000000000000000000000000000000000000000000
1111001110000111000010010000000000000000000000000000000000000000000000000000000000000000000
1111111100110001001011110001111000000000000000000000000000000000000000000000000000000000000000000000
1111111111000101111111001100111000000000000000000000000000000000000000000000000000000000000000000000
1111111101001101111101110101011000000000000000000000000000000000000000000000000000000000000000000000
100110010101110110101001000000000000000000000000000000000000000000000000000000000000000000000
100011001111101001111111000000000000000000000000000000000000000000000000000000000000000000000
1111111110011010111011011010001010000000000000000000000000000000000000000000000000000000000000000000
10001110101000101001100100000000000000000000000000000000000000000000000000000000000000000000
1111111101011100101000100010000000000000000000000000000000000000000000000000000000000000000000000000
101001000011001011010000000000000000000000000000000000000000000000000000000000000000000000000
1010100111011000011101110000000000000000000000000000000000000000000000000000000000000000000
100001110110101010010011000000000000000000000000000000000000000000000000000000000000000000000
100110101101011100010000000000000000000000000000000000000000000000000000000000000000000000000
1111111101111101000011001101110100000000000000000000000000000000000000000000000000000000000000000000
100110110100011000111100000000000000000000000000000000000000000000000000000000000000000000
101100100101001001011000000000000000000000000000000000000000000000000000000000000000000000000
10000110000000000111110100000000000000000000000000000000000000000000000000000000000000000000
110000000011110101000111000000000000000000000000000000000000000000000000000000000000000000000
1110001000001100101001000000000000000000000000000000000000000000000000000000000000000000000
11011111011100101100011100000000000000000000000000000000000000000000000000000000000000000000
1001110101011100101011000000000000000000000000000000000000000000000000000000000000000000000
11110001010101100101011000000000000000000000000000000000000000000000000000000000000000000000
1111111101110100100001000010001000000000000000000000000000000000000000000000000000000000000000000000
10000010110101111100001100000000000000000000000000000000000000000000000000000000000000000000
1111111011111100101011101111000000000000000000000000000000000000000000000000000000000000000000000000
1111111110000110011011111011111000000000000000000000000000000000000000000000000000000000000000000000
100110011011101111110100000000000000000000000000000000000000000000000000000000000000000000000
1111111110110001111111110001000010000000000000000000000000000000000000000000000000000000000000000000
100111110000110100011101000000000000000000000000000000000000000000000000000000000000000000
1011010110011010011010110000000000000000000000000000000000000000000000000000000000000000000
1111111110111010001111101100010110000000000000000000000000000000000000000000000000000000000000000000
1111111100101010011100101010000000000000000000000000000000000000000000000000000000000000000000000000
10110000111110001111101000000000000000000000000000000000000000000000000000000000000000000000
1111111111101101010011111001101101100000000000000000000000000000000000000000000000000000000000000000
1111111110111010000100010111001110000000000000000000000000000000000000000000000000000000000000000000
10011011110101011111100100000000000000000000000000000000000000000000000000000000000000000000
100010000100110011110110000000000000000000000000000000000000000000000000000000000000000000000
11010101110000010010101000000000000000000000000000000000000000000000000000000000000000000000
1111111101100111100001100100100100000000000000000000000000000000000000000000000000000000000000000000
101001101001011010111110000000000000000000000000000000000000000000000000000000000000000000000
11110110011001011010000100000000000000000000000000000000000000000000000000000000000000000
1111111111010101110011111011001011000000000000000000000000000000000000000000000000000000000000000000
1111111101000000100010111101000100000000000000000000000000000000000000000000000000000000000000000000
1111111101000010011001111001001000000000000000000000000000000000000000000000000000000000000000000000
100101000001010110011011000000000000000000000000000000000000000000000000000000000000000000000
1011100010010100100010100000000000000000000000000000000000000000000000000000000000000000
100101011111100001001000000000000000000000000000000000000000000000000000000000000000000000000
1111111011111011110011110110100000000000000000000000000000000000000000000000000000000000000000000000
11010001000110011110110100000000000000000000000000000000000000000000000000000000000000000000
1111111111000100110001111100001001000000000000000000000000000000000000000000000000000000000000000000
100011011110110010110011000000000000000000000000000000000000000000000000000000000000000000000
101111100000011001001100000000000000000000000000000000000000000000000000000000000000000000000
1111111101011000010010111101111000000000000000000000000000000000000000000000000000000000000000000000
10011010111000001010101000000000000000000000000000000000000000000000000000000000000000000000
110000011011000100110011000000000000000000000000000000000000000000000000000000000000000000000
11110000110100011110100100000000000000000000000000000000000000000000000000000000000000000000
100100100111010111010011000000000000000000000000000000000000000000000000000000000000000000000
11101100001000011010111000000000000000000000000000000000000000000000000000000000000000000000
1101000110111110010011100000000000000000000000000000000000000000000000000000000000000000000
101001111100101000001111000000000000000000000000000000000000000000000000000000000000000000000
10010001010110110100010000000000000000000000000000000000000000000000000000000000000000000000
11100101011100100011001100000000000000000000000000000000000000000000000000000000000000000
1111111110100001101001111110001000000000000000000000000000000000000000000000000000000000000000000000
11111111000011000101001000000000000000000000000000000000000000000000000000000000000000000000
110101011010000000010011000000000000000000000000000000000000000000000000000000000000000000
101110110000100000010101000000000000000000000000000000000000000000000000000000000000000000000
11001101011100110010111100000000000000000000000000000000000000000000000000000000000000000000
1111111100010110111001110101010100000000000000000000000000000000000000000000000000000000000000000000
11100001011110011000010000000000000000000000000000000000000000000000000000000000000000000000
11011001000001101100000000000000000000000000000000000000000000000000000000000000000000000000
101001101000101010101001000000000000000000000000000000000000000000000000000000000000000000000
11011001010001000010001100000000000000000000000000000000000000000000000000000000000000000000
110000001110111100010101000000000000000000000000000000000000000000000000000000000000000000000
101000101111100101011100000000000000000000000000000000000000000000000000000000000000000000
11101000101110101010100100000000000000000000000000000000000000000000000000000000000000000000
1111011000001101110101110000000000000000000000000000000000000000000000000000000000000000000
1111111101011011101011101110000000000000000000000000000000000000000000000000000000000000000000000000
100100101111001010000111000000000000000000000000000000000000000000000000000000000000000000
1111111110011111001010100001000000000000000000000000000000000000000000000000000000000000000000000000
1111111101001101110010011110100000000000000000000000000000000000000000000000000000000000000000000000
1111111100010000110010011100110000000000000000000000000000000000000000000000000000000000000000000000
10111001001111011110111000000000000000000000000000000000000000000000000000000000000000000000
1110100101110100001101000000000000000000000000000000000000000000000000000000000000000000000
1111111111110000110110101101101101000000000000000000000000000000000000000000000000000000000000000000
11100010110100101001110000000000000000000000000000000000000000000000000000000000000000000
10010100101101111110101100000000000000000000000000000000000000000000000000000000000000000000
11010000011110010001101000000000000000000000000000000000000000000000000000000000000000000000
1111111111000000100001000001001100000000000000000000000000000000000000000000000000000000000000000000
100010110011110101100011000000000000000000000000000000000000000000000000000000000000000000000
10111110001011101001000000000000000000000000000000000000000000000000000000000000000000000000
1111111011111000100011011110111000000000000000000000000000000000000000000000000000000000000000000000
1111111101111101101000000110001100000000000000000000000000000000000000000000000000000000000000000000
1111111100010100101011110101001100000000000000000000000000000000000000000000000000000000000000000000
1111111111000011010100010011011111000000000000000000000000000000000000000000000000000000000000000000
1110001010101001011000000000000000000000000000000000000000000000000000000000000000000000
10111110001110110101010100000000000000000000000000000000000000000000000000000000000000000000
1111111110000110010001111010100000000000000000000000000000000000000000000000000000000000000000000000
101011010011011100110101000000000000000000000000000000000000000000000000000000000000000000000
100100101111010011110111000000000000000000000000000000000000000000000000000000000000000000000
1010101011001100110001000000000000000000000000000000000000000000000000000000000000000000000
101001010001011000101011000000000000000000000000000000000000000000000000000000000000000000000
1111111110011001111011111011110000000000000000000000000000000000000000000000000000000000000000000000
100000011101001100110100000000000000000000000000000000000000000000000000000000000000000000000
110000101001010110001110000000000000000000000000000000000000000000000000000000000000000000
1111111101010011110010101011000100000000000000000000000000000000000000000000000000000000000000000000
1111111101101000101001101110001100000000000000000000000000000000000000000000000000000000000000000000
101100110001111110100111000000000000000000000000000000000000000000000000000000000000000000
1111111100001111101110010000010000000000000000000000000000000000000000000000000000000000000000000000
10011000000001011010011000000000000000000000000000000000000000000000000000000000000000000000
100100010100000110001101000000000000000000000000000000000000000000000000000000000000000000000
101101100010101011111100000000000000000000000000000000000000000000000000000000000000000000000
1111111100101110010001101011111100000000000000000000000000000000000000000000000000000000000000000000
100000100100101100010110000000000000000000000000000000000000000000000000000000000000000000000
1111111110010110001001010100100000000000000000000000000000000000000000000000000000000000000000000000
11010011001010010011010000000000000000000000000000000000000000000000000000000000000000000000
1111111110001111101110111100101010000000000000000000000000000000000000000000000000000000000000000000
101101110000010100100110000000000000000000000000000000000000000000000000000000000000000000000
101110000101001101100000000000000000000000000000000000000000000000000000000000000000000000000
101101010100111010101110000000000000000000000000000000000000000000000000000000000000000000000
1111111111111111000110110011011000111111000000000000000000000000000000000000000000000000000000000000
100101101011110101010001000000000000000000000000000000000000000000000000000000000000000000000
1111111110111110100001011111111100000000000000000000000000000000000000000000000000000000000000000000
1111111111001001011011010000001111000000000000000000000000000000000000000000000000000000000000000000
11111010011111010101110100000000000000000000000000000000000000000000000000000000000000000000
1111111101010110000010111110000000000000000000000000000000000000000000000000000000000000000000000000
1111111111010001001010010011100110000000000000000000000000000000000000000000000000000000000000000000
101011110010001010100001000000000000000000000000000000000000000000000000000000000000000000000
1001101011110010000101100000000000000000000000000000000000000000000000000000000000000000
1111111100010000000011110110000100000000000000000000000000000000000000000000000000000000000000000000
1111111111010000011011000110000010000000000000000000000000000000000000000000000000000000000000000000
1111111111111010110001000001101111111000000000000000000000000000000000000000000000000000000000000000
1111111101111001101010000010111100000000000000000000000000000000000000000000000000000000000000000000
1111111100101100100010111100110000000000000000000000000000000000000000000000000000000000000000000000
1111111100001000011011100001010100000000000000000000000000000000000000000000000000000000000000000000
1111111100110111010111101001000000000000000000000000000000000000000000000000000000000000000000000000
101101001000100000110000000000000000000000000000000000000000000000000000000000000000000000
11100010111000010111010100000000000000000000000000000000000000000000000000000000000000000000
1100101101000100101110010000000000000000000000000000000000000000000000000000000000000000000
1001010001011010001010100000000000000000000000000000000000000000000000000000000000000000000
111111011001011110110101000000000000000000000000000000000000000000000000000000000000000000
1111111111010111101111010011111011000000000000000000000000000000000000000000000000000000000000000000
101111111011101111011101000000000000000000000000000000000000000000000000000000000000000000000
10101101001001001010110000000000000000000000000000000000000000000000000000000000000000000000
11011000010001110111100100000000000000000000000000000000000000000000000000000000000000000000
1111111100111010101000001110110100000000000000000000000000000000000000000000000000000000000000000000
11100000110011010110111000000000000000000000000000000000000000000000000000000000000000000000
1111111110101110000110101111101010000000000000000000000000000000000000000000000000000000000000000000
1111111111000011000011111000110101000000000000000000000000000000000000000000000000000000000000000000
1111111110011001111111010000110000000000000000000000000000000000000000000000000000000000000000000000
1111111110011011101001001001101010000000000000000000000000000000000000000000000000000000000000000000
1111111101001111110011100001100100000000000000000000000000000000000000000000000000000000000000000000
1111111100100011011000100001110100000000000000000000000000000000000000000000000000000000000000000000
1111111101110011100000101101010000000000000000000000000000000000000000000000000000000000000000000000
11110001110111000111000000000000000000000000000000000000000000000000000000000000000000000
10011010001111000101100000000000000000000000000000000000000000000000000000000000000000000000
1001110011110100111101010000000000000000000000000000000000000000000000000000000000000000
1001011010000101011110100000000000000000000000000000000000000000000000000000000000000000000
1111111111000010101110001001001100000000000000000000000000000000000000000000000000000000000000000000
10100111110001011001101100000000000000000000000000000000000000000000000000000000000000000000
10010110100101001001011100000000000000000000000000000000000000000000000000000000000000000000
1111111111000011101000101000001101000000000000000000000000000000000000000000000000000000000000000000
1111111111101001011110010100011100000000000000000000000000000000000000000000000000000000000000000000
1111111101111110010011001110100100000000000000000000000000000000000000000000000000000000000000000000
1111111101101100010011100110111000000000000000000000000000000000000000000000000000000000000000000000
10100100010110100110011100000000000000000000000000000000000000000000000000000000000000000000
10001011111001100001011000000000000000000000000000000000000000000000000000000000000000000000
101001100010110011000000000000000000000000000000000000000000000000000000000000000000000000000
101001100000100111010010000000000000000000000000000000000000000000000000000000000000000000000
1100001011110111110100110000000000000000000000000000000000000000000000000000000000000000000
1011100110000111111100110000000000000000000000000000000000000000000000000000000000000
100001110000011100011111000000000000000000000000000000000000000000000000000000000000000000000
1111111110000011110011001000101110000000000000000000000000000000000000000000000000000000000000000000
1111111011110111011010000111111000000000000000000000000000000000000000000000000000000000000000000000
1111111111000010001100001001101101000000000000000000000000000000000000000000000000000000000000000000
1111111101000001110111100011101100000000000000000000000000000000000000000000000000000000000000000000
100100000011111011000100000000000000000000000000000000000000000000000000000000000000000000000
1111111111011110110011001100010110000000000000000000000000000000000000000000000000000000000000000000
10001000111111011111111000000000000000000000000000000000000000000000000000000000000000000000
1110011001111101100000010000000000000000000000000000000000000000000000000000000000000000
100011000101011101111011000000000000000000000000000000000000000000000000000000000000000000
111101101000010111000110000000000000000000000000000000000000000000000000000000000000000000
10010000000010001110001100000000000000000000000000000000000000000000000000000000000000000000
111110110111101001010101000000000000000000000000000000000000000000000000000000000000000000
