1111111110100011101010000000010110000000000000000000000000000000000000000000000000000000000000000000
10101011110101010101010000000000000000000000000000000000000000000000000000000000000000000000
101101010101101010000010000000000000000000000000000000000000000000000000000000000000000000000
1000111100000101101111010000000000000000000000000000000000000000000000000000000000000000000
1011001100110111010010010000000000000000000000000000000000000000000000000000000000000000000
11101111111100101000010100000000000000000000000000000000000000000000000000000000000000000
1111111101001010101010100111100000000000000000000000000000000000000000000000000000000000000000000000
1000010100101111101001110000000000000000000000000000000000000000000000000000000000000000000
1111111101111101111111101010111000000000000000000000000000000000000000000000000000000000000000000000
100010100010101000111100000000000000000000000000000000000000000000000000000000000000000000000
11111011010111010110010100000000000000000000000000000000000000000000000000000000000000000000
111001100100111010101000000000000000000000000000000000000000000000000000000000000000000
101010010101110001011000000000000000000000000000000000000000000000000000000000000000000000000
110110010011001100100111000000000000000000000000000000000000000000000000000000000000000000
1111111111111111001111100110010010101000000000000000000000000000000000000000000000000000000000000000
1011111101101101101101110000000000000000000000000000000000000000000000000000000000000000000
110010111101110110101010000000000000000000000000000000000000000000000000000000000000000000000
1011111001111101001000010000000000000000000000000000000000000000000000000000000000000000000
1111011100010101010001100000000000000000000000000000000000000000000000000000000000000000000
1111111111111001100101011110000001110000000000000000000000000000000000000000000000000000000000000000
1111111110111001110110011100110100000000000000000000000000000000000000000000000000000000000000000000
11001001000110000100100000000000000000000000000000000000000000000000000000000000000000000000
1111111100010101011011110101100000000000000000000000000000000000000000000000000000000000000000000000
101010100011100111000111000000000000000000000000000000000000000000000000000000000000000000000
1110100011000111100001100000000000000000000000000000000000000000000000000000000000000000000
10111001000110011110001000000000000000000000000000000000000000000000000000000000000000000000
11010101000011101111101000000000000000000000000000000000000000000000000000000000000000000
110000000100001010000000000000000000000000000000000000000000000000000000000000000000000000000
100010000111001110001011000000000000000000000000000000000000000000000000000000000000000000000
1111111110011110011100101111000100000000000000000000000000000000000000000000000000000000000000000000
10001101100000111011101100000000000000000000000000000000000000000000000000000000000000000000
10011110100110100010011100000000000000000000000000000000000000000000000000000000000000000000
101111011111111011001100000000000000000000000000000000000000000000000000000000000000000000000
101101111011111111100100000000000000000000000000000000000000000000000000000000000000000000000
11011110111001100011011100000000000000000000000000000000000000000000000000000000000000000000
101111010011110111101100000000000000000000000000000000000000000000000000000000000000000000000
1111111110011010111101111110101000000000000000000000000000000000000000000000000000000000000000000000
100010110011001011010100000000000000000000000000000000000000000000000000000000000000000000000
1111111111011100110000001101011011000000000000000000000000000000000000000000000000000000000000000000
1011110110101101101110100000000000000000000000000000000000000000000000000000000000000000000
101111100100010001000010000000000000000000000000000000000000000000000000000000000000000000000
110011011001100000010011000000000000000000000000000000000000000000000000000000000000000000000
1111111100101111011110011100010000000000000000000000000000000000000000000000000000000000000000000000
100001101011000101100110000000000000000000000000000000000000000000000000000000000000000000000
1111111101100000100010101111111000000000000000000000000000000000000000000000000000000000000000000000
100100100110010001010001000000000000000000000000000000000000000000000000000000000000000000000
11001001110001100101100100000000000000000000000000000000000000000000000000000000000000000000
10110110110110011110000100000000000000000000000000000000000000000000000000000000000000000000
11100011011010001010011000000000000000000000000000000000000000000000000000000000000000000000
1111111110011101111000111000010110000000000000000000000000000000000000000000000000000000000000000000
1111111101011100100101100111101000000000000000000000000000000000000000000000000000000000000000000000
1100011001111101011101010000000000000000000000000000000000000000000000000000000000000000000
1111111110000011010110101100101110000000000000000000000000000000000000000000000000000000000000000000
101110011111000111101011000000000000000000000000000000000000000000000000000000000000000000000
101111101101111000000110000000000000000000000000000000000000000000000000000000000000000000000
1111111111110000110000100110001010000000000000000000000000000000000000000000000000000000000000000000
10001111000100100000001100000000000000000000000000000000000000000000000000000000000000000000
100000110101110110000101000000000000000000000000000000000000000000000000000000000000000000000
1111111110000001000001010100011010000000000000000000000000000000000000000000000000000000000000000000
1111111111001100010100111111101100000000000000000000000000000000000000000000000000000000000000000000
1101001001000101100110000000000000000000000000000000000000000000000000000000000000000000000
100011100001101100100100000000000000000000000000000000000000000000000000000000000000000000
1111111111101111101101101110100100100000000000000000000000000000000000000000000000000000000000000000
1111111110100111111111011011100110000000000000000000000000000000000000000000000000000000000000000000
111011011010011110000110000000000000000000000000000000000000000000000000000000000000000000
11001111000011100001000000000000000000000000000000000000000000000000000000000000000000000000
10100111111110000111000000000000000000000000000000000000000000000000000000000000000000000000
100100111011110000100111000000000000000000000000000000000000000000000000000000000000000000000
11110101000000000110101000000000000000000000000000000000000000000000000000000000000000000000
110001011101110011000011000000000000000000000000000000000000000000000000000000000000000000000
1111111111101000011111000000001110000000000000000000000000000000000000000000000000000000000000000000
1111111100011101011011111111010000000000000000000000000000000000000000000000000000000000000000000000
101101000110101001110101000000000000000000000000000000000000000000000000000000000000000000000
111110100001100101010001000000000000000000000000000000000000000000000000000000000000000000
1111111100010011001000010011010100000000000000000000000000000000000000000000000000000000000000000000
1111111111001100011010011110010110000000000000000000000000000000000000000000000000000000000000000000
1111111111101110111110110000001111000000000000000000000000000000000000000000000000000000000000000000
1111111100110111001110001111000000000000000000000000000000000000000000000000000000000000000000000000
100100000101110001111011000000000000000000000000000000000000000000000000000000000000000000000
110001111010100100110100000000000000000000000000000000000000000000000000000000000000000
1011111010100111110001110000000000000000000000000000000000000000000000000000000000000000000
1111111111111100011010000100101000100000000000000000000000000000000000000000000000000000000000000000
110101101101000000101010000000000000000000000000000000000000000000000000000000000000000000
1111011111001101110110100000000000000000000000000000000000000000000000000000000000000000000
110011001010110111111111000000000000000000000000000000000000000000000000000000000000000000000
1111111101100100110011010001110100000000000000000000000000000000000000000000000000000000000000000000
101010011010110101010100000000000000000000000000000000000000000000000000000000000000000000000
1111111101001000111100110111011100000000000000000000000000000000000000000000000000000000000000000000
1111111111100111000001110110101111100000000000000000000000000000000000000000000000000000000000000000
10101010111101011001010000000000000000000000000000000000000000000000000000000000000000000000
100111001111010011100001000000000000000000000000000000000000000000000000000000000000000000000
1000000111110110000110000000000000000000000000000000000000000000000000000000000000000000
101001011111100001010001000000000000000000000000000000000000000000000000000000000000000000000
10000100110011010111010000000000000000000000000000000000000000000000000000000000000000000
1111111101001010111001101101101100000000000000000000000000000000000000000000000000000000000000000000
101100000011111000111000000000000000000000000000000000000000000000000000000000000000000000000
110000111100010111010101000000000000000000000000000000000000000000000000000000000000000000000
10111011100110111011011000000000000000000000000000000000000000000000000000000000000000000
1111111101111110001011100110000100000000000000000000000000000000000000000000000000000000000000000000
101010110001101101101110000000000000000000000000000000000000000000000000000000000000000000000
111100010010000010000111000000000000000000000000000000000000000000000000000000000000000000
1111111111110111100001000110001101110000000000000000000000000000000000000000000000000000000000000000
11001111111001011111111000000000000000000000000000000000000000000000000000000000000000000000
101011010001010100101111000000000000000000000000000000000000000000000000000000000000000000000
1111111110001011010101010101001100000000000000000000000000000000000000000000000000000000000000000000
1111111111010111110101110000011110000000000000000000000000000000000000000000000000000000000000000000
1111111110100111000111010101101100000000000000000000000000000000000000000000000000000000000000000000
1111111101110100100000100110110100000000000000000000000000000000000000000000000000000000000000000000
110010111010010111010010000000000000000000000000000000000000000000000000000000000000000000
1111111110100000100101111011010010000000000000000000000000000000000000000000000000000000000000000000
1111111111010101111101000011111000000000000000000000000000000000000000000000000000000000000000000000
11101000110101100010101100000000000000000000000000000000000000000000000000000000000000000000
1111111100011101100001111011111000000000000000000000000000000000000000000000000000000000000000000000
1001110010000011010110100000000000000000000000000000000000000000000000000000000000000000000
1111111110000111100110000110100110000000000000000000000000000000000000000000000000000000000000000000
1110111011011100000100010000000000000000000000000000000000000000000000000000000000000000000
101011000010110111001111000000000000000000000000000000000000000000000000000000000000000000000
10100001111111000110011000000000000000000000000000000000000000000000000000000000000000000000
1111010010010100101100010000000000000000000000000000000000000000000000000000000000000000000
100001010110010111110011000000000000000000000000000000000000000000000000000000000000000000000
1111111100010010010000001010110000000000000000000000000000000000000000000000000000000000000000000000
1111111110111001001011001111111110000000000000000000000000000000000000000000000000000000000000000000
1000010000010111010111000000000000000000000000000000000000000000000000000000000000000000
100101010010000100111001000000000000000000000000000000000000000000000000000000000000000000000
10010100001110011001001100000000000000000000000000000000000000000000000000000000000000000000
110011100100110000011011000000000000000000000000000000000000000000000000000000000000000000000
11101010011100111111101100000000000000000000000000000000000000000000000000000000000000000000
1111111110110011010110010011111000000000000000000000000000000000000000000000000000000000000000000000
1111111100111110100010110110110000000000000000000000000000000000000000000000000000000000000000000000
11010101111011100000101000000000000000000000000000000000000000000000000000000000000000000000
1111101000000111000000110000000000000000000000000000000000000000000000000000000000000000000
1111111110100000010111100010010110000000000000000000000000000000000000000000000000000000000000000000
11101011001101000100010000000000000000000000000000000000000000000000000000000000000000000000
1111111101110111001010000101010100000000000000000000000000000000000000000000000000000000000000000000
1111111100110101011101011100001100000000000000000000000000000000000000000000000000000000000000000000
101110000011110000101110000000000000000000000000000000000000000000000000000000000000000000000
10011011001110010000111100000000000000000000000000000000000000000000000000000000000000000000
1110111100000110111110000000000000000000000000000000000000000000000000000000000000000000000
111110000111101111000111000000000000000000000000000000000000000000000000000000000000000
1111111101100100111011110000011000000000000000000000000000000000000000000000000000000000000000000000
10111110111101101011000000000000000000000000000000000000000000000000000000000000000000000000
11000110101100100110011100000000000000000000000000000000000000000000000000000000000000000000
1111111101011011010111000000101000000000000000000000000000000000000000000000000000000000000000000000
1101111111100110011100100000000000000000000000000000000000000000000000000000000000000000000
10010001001101011011000100000000000000000000000000000000000000000000000000000000000000000
100110101001000011110001000000000000000000000000000000000000000000000000000000000000000000000
111011001111010101011100000000000000000000000000000000000000000000000000000000000000000000
11111100100011101100100100000000000000000000000000000000000000000000000000000000000000000
1111111110110000000111011010011010000000000000000000000000000000000000000000000000000000000000000000
100010100011110010000110000000000000000000000000000000000000000000000000000000000000000000
10011101110001101110001100000000000000000000000000000000000000000000000000000000000000000
10100111100110101010000100000000000000000000000000000000000000000000000000000000000000000000
11000110011000000101100000000000000000000000000000000000000000000000000000000000000000000
1001010100001101001110000000000000000000000000000000000000000000000000000000000000000000000
11111000100010110010110000000000000000000000000000000000000000000000000000000000000000000000
1011111111001000010100000000000000000000000000000000000000000000000000000000000000000000000
101011110101100110001101000000000000000000000000000000000000000000000000000000000000000000000
1111111100101111111011001100100000000000000000000000000000000000000000000000000000000000000000000000
1101110001000101010011000000000000000000000000000000000000000000000000000000000000000000000
1111111101011111001011101101100100000000000000000000000000000000000000000000000000000000000000000000
11110001110001101001100000000000000000000000000000000000000000000000000000000000000000000
1111111111010000011010010001000110000000000000000000000000000000000000000000000000000000000000000000
1111111110111000101111101000010010000000000000000000000000000000000000000000000000000000000000000000
1111111111001010000100101010001111000000000000000000000000000000000000000000000000000000000000000000
1111111110100000111010001001000110000000000000000000000000000000000000000000000000000000000000000000
1111111111110100101000101110000000000000000000000000000000000000000000000000000000000000000000000000
11011001101111101100011000000000000000000000000000000000000000000000000000000000000000000000
100000001000101011010111000000000000000000000000000000000000000000000000000000000000000000000
1111111100001101110010110011110100000000000000000000000000000000000000000000000000000000000000000000
10001101010101000001101000000000000000000000000000000000000000000000000000000000000000000000
110001001110010010111111000000000000000000000000000000000000000000000000000000000000000000000
101100000110111101111001000000000000000000000000000000000000000000000000000000000000000000000
1111111101001011101010101110100100000000000000000000000000000000000000000000000000000000000000000000
1111111100111010011010010100000100000000000000000000000000000000000000000000000000000000000000000000
100011111101100110011011000000000000000000000000000000000000000000000000000000000000000000000
1011001000101100100100010000000000000000000000000000000000000000000000000000000000000000000
11110111101100001101101000000000000000000000000000000000000000000000000000000000000000000000
11111001101110011110011100000000000000000000000000000000000000000000000000000000000000000000
1111111101110010000101010001111000000000000000000000000000000000000000000000000000000000000000000000
1011011011000001011101010000000000000000000000000000000000000000000000000000000000000
101011101000110100001101000000000000000000000000000000000000000000000000000000000000000000000
1000110101010010111111000000000000000000000000000000000000000000000000000000000000000000000
110010100111011100000101000000000000000000000000000000000000000000000000000000000000000000000
11010011101001000001010100000000000000000000000000000000000000000000000000000000000000000
1111111110101100011110000011011110000000000000000000000000000000000000000000000000000000000000000000
11111110010101111100010000000000000000000000000000000000000000000000000000000000000000000000
1111111110110101001011100010100000000000000000000000000000000000000000000000000000000000000000000000
100101011001011100000010000000000000000000000000000000000000000000000000000000000000000000
1111111101001000011011010000111100000000000000000000000000000000000000000000000000000000000000000000
11011110010001110011000100000000000000000000000000000000000000000000000000000000000000000000
1111111110000100111101001111010010000000000000000000000000000000000000000000000000000000000000000000
1111111110001010100001000000000010000000000000000000000000000000000000000000000000000000000000000000
110011111001110101001111000000000000000000000000000000000000000000000000000000000000000000000
10110111000101100011010000000000000000000000000000000000000000000000000000000000000000000000
101001010111011011101100000000000000000000000000000000000000000000000000000000000000000000000
1111111100111101111110010111101100000000000000000000000000000000000000000000000000000000000000000000
101111110101011111101010000000000000000000000000000000000000000000000000000000000000000000000
101110011111001101011011000000000000000000000000000000000000000000000000000000000000000000000
1101110100001011111010100000000000000000000000000000000000000000000000000000000000000000000
11010000100010001101001000000000000000000000000000000000000000000000000000000000000000000000
101010110101011011000010000000000000000000000000000000000000000000000000000000000000000000000
10000100111101000100110000000000000000000000000000000000000000000000000000000000000000000000
11110000010101010010101000000000000000000000000000000000000000000000000000000000000000000000
1111111110001100010111010001100000000000000000000000000000000000000000000000000000000000000000000000
10010010000000001101000000000000000000000000000000000000000000000000000000000000000000000000
10011111001010000101100000000000000000000000000000000000000000000000000000000000000000000000
1111111110110001000111110100000010000000000000000000000000000000000000000000000000000000000000000000
1111111101001000100111111101101000000000000000000000000000000000000000000000000000000000000000000000
1111111110100000111100110100101110000000000000000000000000000000000000000000000000000000000000000000
1111111110000110101100111011010010000000000000000000000000000000000000000000000000000000000000000000
111010000111001001010011000000000000000000000000000000000000000000000000000000000000000000
101011111000000110100011000000000000000000000000000000000000000000000000000000000000000000000
1111111101001001110100111101011000000000000000000000000000000000000000000000000000000000000000000000
1001000001100111110001100000000000000000000000000000000000000000000000000000000000000000000
100111110111001010001101000000000000000000000000000000000000000000000000000000000000000000000
1111111101101010010101010010001100000000000000000000000000000000000000000000000000000000000000000000
1111111111001010110101100001000101000000000000000000000000000000000000000000000000000000000000000000
11101111010100011111010100000000000000000000000000000000000000000000000000000000000000000000
1111111110101011100001111100001110000000000000000000000000000000000000000000000000000000000000000000
1001110000010110001101010000000000000000000000000000000000000000000000000000000000000000
101110000010010010010001000000000000000000000000000000000000000000000000000000000000000000000
100111001101101101100101000000000000000000000000000000000000000000000000000000000000000000000
10000111110011111101011100000000000000000000000000000000000000000000000000000000000000000
1111111111100000111000100101101011000000000000000000000000000000000000000000000000000000000000000000
110100001101000111000110000000000000000000000000000000000000000000000000000000000000000000000
11110000100111100111011000000000000000000000000000000000000000000000000000000000000000000000
1111111111000100001101010101110010000000000000000000000000000000000000000000000000000000000000000000
11010111101111111100001000000000000000000000000000000000000000000000000000000000000000000000
101111110011100101011010000000000000000000000000000000000000000000000000000000000000000000000
100110101110000100100101000000000000000000000000000000000000000000000000000000000000000000000
100100110100100000011111000000000000000000000000000000000000000000000000000000000000000000000
110000110100001100011101000000000000000000000000000000000000000000000000000000000000000000000
10000000101000010001100100000000000000000000000000000000000000000000000000000000000000000000
100111110111011010110001000000000000000000000000000000000000000000000000000000000000000000000
1111111111110110110101101001010110110000000000000000000000000000000000000000000000000000000000000000
100110000100011001111000000000000000000000000000000000000000000000000000000000000000000000000
10100111110100010110110000000000000000000000000000000000000000000000000000000000000000000000
1111111111101010000001010100100110000000000000000000000000000000000000000000000000000000000000000000
110100001001111001100110000000000000000000000000000000000000000000000000000000000000000000000
101001001101101010010101000000000000000000000000000000000000000000000000000000000000000000000
100011011011110000010101000000000000000000000000000000000000000000000000000000000000000000000
10001010111011001111001000000000000000000000000000000000000000000000000000000000000000000000
1111111100100111100000101110100000000000000000000000000000000000000000000000000000000000000000000000
110001101000001111000111000000000000000000000000000000000000000000000000000000000000000000000
101100010110111010000001000000000000000000000000000000000000000000000000000000000000000000000
101111011111001111111001000000000000000000000000000000000000000000000000000000000000000000000
11101001111001110110001000000000000000000000000000000000000000000000000000000000000000000000
101000110010011010000000000000000000000000000000000000000000000000000000000000000000000000000
1111111111110001111000100111110111010000000000000000000000000000000000000000000000000000000000000000
110110001011101000110010000000000000000000000000000000000000000000000000000000000000000000
10100111011111110110101100000000000000000000000000000000000000000000000000000000000000000000
1111111111011001010010010111011000000000000000000000000000000000000000000000000000000000000000000000
1111111101101000000100100011001000000000000000000000000000000000000000000000000000000000000000000000
1111111110000101001101011110001010000000000000000000000000000000000000000000000000000000000000000000
1001000010000011000000000000000000000000000000000000000000000000000000000000000000000000000
1111111111001111100101011101100100000000000000000000000000000000000000000000000000000000000000000000
1100110000000100010110010000000000000000000000000000000000000000000000000000000000000000
111111011000010010111010000000000000000000000000000000000000000000000000000000000000000000
1111111111100100101010011100000011100000000000000000000000000000000000000000000000000000000000000000
1111111111110010110011001000010110110000000000000000000000000000000000000000000000000000000000000000
100000001100100010010011000000000000000000000000000000000000000000000000000000000000000000000
1111111111001011000101011100000001000000000000000000000000000000000000000000000000000000000000000000
1110101011110101010101110000000000000000000000000000000000000000000000000000000000000000
110010011110101001111000000000000000000000000000000000000000000000000000000000000000000000000
101010001100011011101101000000000000000000000000000000000000000000000000000000000000000000000
101000100101110011100010000000000000000000000000000000000000000000000000000000000000000000000
10110111111001100000001000000000000000000000000000000000000000000000000000000000000000000000
1111111111010101111111010000101010000000000000000000000000000000000000000000000000000000000000000000
1111111100101000110000101001110000000000000000000000000000000000000000000000000000000000000000000000
110001111001111110101000000000000000000000000000000000000000000000000000000000000000000000000
1111110001011001001111110000000000000000000000000000000000000000000000000000000000000000000
10000100001100000100000100000000000000000000000000000000000000000000000000000000000000000000
1111111101101101010001011110111100000000000000000000000000000000000000000000000000000000000000000000
1101001010011011011101100000000000000000000000000000000000000000000000000000000000000000000
100001000111111010011110000000000000000000000000000000000000000000000000000000000000000000000
100101100000110110011001000000000000000000000000000000000000000000000000000000000000000000000
101101000000101110001000000000000000000000000000000000000000000000000000000000000000000000000
101111111000110011000111000000000000000000000000000000000000000000000000000000000000000000000
101011000010001100001010000000000000000000000000000000000000000000000000000000000000000000000
110010010001111000101100000000000000000000000000000000000000000000000000000000000000000000000
1111111110011101101001101011100010000000000000000000000000000000000000000000000000000000000000000000
100100001011000111111000000000000000000000000000000000000000000000000000000000000000000000000
1111111111001100011101111000010101000000000000000000000000000000000000000000000000000000000000000000
1111111100010010010100101111110000000000000000000000000000000000000000000000000000000000000000000000
1111111100111011101010100010110000000000000000000000000000000000000000000000000000000000000000000000
11110100101011111010000000000000000000000000000000000000000000000000000000000000000000000
10001110111011100110001100000000000000000000000000000000000000000000000000000000000000000
11000101111101000001100100000000000000000000000000000000000000000000000000000000000000000
11001101100100111010010000000000000000000000000000000000000000000000000000000000000000000000
11011111111010101100111000000000000000000000000000000000000000000000000000000000000000000000
1111111101100101110101011100011100000000000000000000000000000000000000000000000000000000000000000000
1111111101000001101000110010001000000000000000000000000000000000000000000000000000000000000000000000
1000110001000011011100110000000000000000000000000000000000000000000000000000000000000000
1111111100110011011011100011001100000000000000000000000000000000000000000000000000000000000000000000
1111111101000011001111101111010000000000000000000000000000000000000000000000000000000000000000000000
101110101110111110110001000000000000000000000000000000000000000000000000000000000000000000000
1000010110100001001001010000000000000000000000000000000000000000000000000000000000000000000
1111111101000100101111100011011000000000000000000000000000000000000000000000000000000000000000000000
100001101001101110111000000000000000000000000000000000000000000000000000000000000000000000000
101111011101101100011001000000000000000000000000000000000000000000000000000000000000000000
10111001101000101000111000000000000000000000000000000000000000000000000000000000000000000000
1111111110101111100001101111101100000000000000000000000000000000000000000000000000000000000000000000
100110011100100110101011000000000000000000000000000000000000000000000000000000000000000000000
1010010101101110100001000000000000000000000000000000000000000000000000000000000000000000000
1111111100011000110010111011110100000000000000000000000000000000000000000000000000000000000000000000
1111111111010110000110110110111100000000000000000000000000000000000000000000000000000000000000000000
1111111101101101100011100110000100000000000000000000000000000000000000000000000000000000000000000000
11011010000001000001001000000000000000000000000000000000000000000000000000000000000000000000
111110001010110001101100000000000000000000000000000000000000000000000000000000000000000000
1111111110110000010010100110110010000000000000000000000000000000000000000000000000000000000000000000
11011101101110010100010000000000000000000000000000000000000000000000000000000000000000000000
1111111110100101000100100100100100000000000000000000000000000000000000000000000000000000000000000000
11100010100101001110011100000000000000000000000000000000000000000000000000000000000000000
101011010000110101111111000000000000000000000000000000000000000000000000000000000000000000000
100010100011110101011000000000000000000000000000000000000000000000000000000000000000000000000
101110101110110011001111000000000000000000000000000000000000000000000000000000000000000000
11101101001100100010010100000000000000000000000000000000000000000000000000000000000000000000
1111111101111111110101000101101000000000000000000000000000000000000000000000000000000000000000000000
1111111100011110000101101010110000000000000000000000000000000000000000000000000000000000000000000000
10110100111001101011000100000000000000000000000000000000000000000000000000000000000000000000
1111111101101101101001010011000100000000000000000000000000000000000000000000000000000000000000000000
10000011111001100101010000000000000000000000000000000000000000000000000000000000000000000000
11010101000100111001011000000000000000000000000000000000000000000000000000000000000000000000
11010001000100110111101100000000000000000000000000000000000000000000000000000000000000000
1111111110010101101100111010001010000000000000000000000000000000000000000000000000000000000000000000
1111111101100000010011000011101000000000000000000000000000000000000000000000000000000000000000000000
1111111100010001100001110100011100000000000000000000000000000000000000000000000000000000000000000000
1111111110010000100100111111110110000000000000000000000000000000000000000000000000000000000000000000
1111111110010010000111110101010000000000000000000000000000000000000000000000000000000000000000000000
1111111110010100111100000111011010000000000000000000000000000000000000000000000000000000000000000000
10010111101010010100000100000000000000000000000000000000000000000000000000000000000000000000
10100110110010101001100000000000000000000000000000000000000000000000000000000000000000000000
1111111101001101011110001011101100000000000000000000000000000000000000000000000000000000000000000000
101111000100001110110011000000000000000000000000000000000000000000000000000000000000000000000
10100110011010011110110100000000000000000000000000000000000000000000000000000000000000000
101101101010001100111101000000000000000000000000000000000000000000000000000000000000000000000
11001011010000011110011000000000000000000000000000000000000000000000000000000000000000000000
1111111111101101100000101000011110000000000000000000000000000000000000000000000000000000000000000000
11001001111010110111111000000000000000000000000000000000000000000000000000000000000000000000
1111111111000010110010110010001110000000000000000000000000000000000000000000000000000000000000000000
100100010001101110000100000000000000000000000000000000000000000000000000000000000000000000000
110011101011001111001101000000000000000000000000000000000000000000000000000000000000000000000
110110110110010100111001000000000000000000000000000000000000000000000000000000000000000000
100000011101001110100011000000000000000000000000000000000000000000000000000000000000000000000
11010011110110100010111100000000000000000000000000000000000000000000000000000000000000000000
110011000001101010010000000000000000000000000000000000000000000000000000000000000000000000000
10001110101010101000100000000000000000000000000000000000000000000000000000000000000000000000
101110111100000010000000000000000000000000000000000000000000000000000000000000000000000
1111111101111111101111011110111100000000000000000000000000000000000000000000000000000000000000000000
110001010100111011100111000000000000000000000000000000000000000000000000000000000000000000000
110010101011011110111100000000000000000000000000000000000000000000000000000000000000000000000
1111111111101000000101010001001100000000000000000000000000000000000000000000000000000000000000000000
11010100011000000101010000000000000000000000000000000000000000000000000000000000000000000
11110011110011010011110000000000000000000000000000000000000000000000000000000000000000000000
10100001101001000110000000000000000000000000000000000000000000000000000000000000000000000000
1111111101110111110111011001111000000000000000000000000000000000000000000000000000000000000000000000
101100110100101100101110000000000000000000000000000000000000000000000000000000000000000000
11101101010010001101001100000000000000000000000000000000000000000000000000000000000000000
11000100000111011100010000000000000000000000000000000000000000000000000000000000000000000000
1111111101000011011101111001111000000000000000000000000000000000000000000000000000000000000000000000
110010000110100101011011000000000000000000000000000000000000000000000000000000000000000000000
11001001010100100101100000000000000000000000000000000000000000000000000000000000000000000000
100100101110011000011111000000000000000000000000000000000000000000000000000000000000000000000
1111111101110011000110010101000000000000000000000000000000000000000000000000000000000000000000000000
10110001111101010001000000000000000000000000000000000000000000000000000000000000000000000000
1111111101100100101011101001110000000000000000000000000000000000000000000000000000000000000000000000
101111111111101111011010000000000000000000000000000000000000000000000000000000000000000000
1111111100001110111110011011111000000000000000000000000000000000000000000000000000000000000000000000
1011011100010011100110000000000000000000000000000000000000000000000000000000000000000000000
10000001110001011010110100000000000000000000000000000000000000000000000000000000000000000
1111111101101010100011100100111100000000000000000000000000000000000000000000000000000000000000000000
10111001011010100001110100000000000000000000000000000000000000000000000000000000000000000000
1111111110101010011010001001111010000000000000000000000000000000000000000000000000000000000000000000
10110111111101111010001000000000000000000000000000000000000000000000000000000000000000000000
1100100010100100100011100000000000000000000000000000000000000000000000000000000000000000
1111111101101111011000000010111100000000000000000000000000000000000000000000000000000000000000000000
1111111101001011100111001001101100000000000000000000000000000000000000000000000000000000000000000000
101110011100110000000000000000000000000000000000000000000000000000000000000000000000000000000
1111111111011010101101000110101010000000000000000000000000000000000000000000000000000000000000000000
1111111111011110001011010000101000000000000000000000000000000000000000000000000000000000000000000000
1101000101000111110011010000000000000000000000000000000000000000000000000000000000000000000
1111111111110101100011000010100110110000000000000000000000000000000000000000000000000000000000000000
110011011100001001010010000000000000000000000000000000000000000000000000000000000000000000000
100011011000110100000001000000000000000000000000000000000000000000000000000000000000000000000
10000110000010011010111100000000000000000000000000000000000000000000000000000000000000000000
1111111100100010011010101011010000000000000000000000000000000000000000000000000000000000000000000000
1010010111100101010011100000000000000000000000000000000000000000000000000000000000000000000
1111111110001100110010101100001100000000000000000000000000000000000000000000000000000000000000000000
1111111110010011011010111100001110000000000000000000000000000000000000000000000000000000000000000000
101111110000001110101110000000000000000000000000000000000000000000000000000000000000000000
100001110010101100011100000000000000000000000000000000000000000000000000000000000000000000
1110111000000010011010100000000000000000000000000000000000000000000000000000000000000000000
11110101111110011110110100000000000000000000000000000000000000000000000000000000000000000000
111100011101000100010100000000000000000000000000000000000000000000000000000000000000000000
101011101111101101111100000000000000000000000000000000000000000000000000000000000000000000000
101100101001100110111011000000000000000000000000000000000000000000000000000000000000000000000
10111000111001101101000100000000000000000000000000000000000000000000000000000000000000000000
1111111100011101101000000001101100000000000000000000000000000000000000000000000000000000000000000000
1111111111010001010101011000000101000000000000000000000000000000000000000000000000000000000000000000
1001111010101100000100010000000000000000000000000000000000000000000000000000000000000000000
1111111101001001000001010010010100000000000000000000000000000000000000000000000000000000000000000000
11111000010100010001111000000000000000000000000000000000000000000000000000000000000000000
11010001010110000111010100000000000000000000000000000000000000000000000000000000000000000000
1110101001101010001001100000000000000000000000000000000000000000000000000000000000000000000
11000100011111111010010000000000000000000000000000000000000000000000000000000000000000000000
110010111011011111010000000000000000000000000000000000000000000000000000000000000000000000000
1111111111000100101111101110111110000000000000000000000000000000000000000000000000000000000000000000
1011011100100010010100110000000000000000000000000000000000000000000000000000000000000000000
1111111100100011011000100000111000000000000000000000000000000000000000000000000000000000000000000000
10110101100001111010011100000000000000000000000000000000000000000000000000000000000000000000
100100001010000111010001000000000000000000000000000000000000000000000000000000000000000000000
101000101101011111000011000000000000000000000000000000000000000000000000000000000000000000000
1111111101001100111001110000101100000000000000000000000000000000000000000000000000000000000000000000
1111111110100110001010111010110100000000000000000000000000000000000000000000000000000000000000000000
1111111101001110000010100101111100000000000000000000000000000000000000000000000000000000000000000000
100000010010110000000000000000000000000000000000000000000000000000000000000000000000000000000
1111111100001111101110110111110100000000000000000000000000000000000000000000000000000000000000000000
1111111101011001011001010101101000000000000000000000000000000000000000000000000000000000000000000000
110010000010110000000011000000000000000000000000000000000000000000000000000000000000000000000
11001110000100101010010100000000000000000000000000000000000000000000000000000000000000000000
110001100110100110101011000000000000000000000000000000000000000000000000000000000000000000000
1111111100100100001010000101101100000000000000000000000000000000000000000000000000000000000000000000
10011111011001010010100000000000000000000000000000000000000000000000000000000000000000000000
10011100101010011101000100000000000000000000000000000000000000000000000000000000000000000000
110010000001001010001010000000000000000000000000000000000000000000000000000000000000000000000
100011100010101100100111000000000000000000000000000000000000000000000000000000000000000000000
10010110111000001101010100000000000000000000000000000000000000000000000000000000000000000000
1101100111111010000000000000000000000000000000000000000000000000000000000000000000000000000
10010001111011011101110100000000000000000000000000000000000000000000000000000000000000000000
10111111101111010100110100000000000000000000000000000000000000000000000000000000000000000000
1101100011111011001110000000000000000000000000000000000000000000000000000000000000000000000
1111111101010000010001011010111100000000000000000000000000000000000000000000000000000000000000000000
1111111110010100011100111011100010000000000000000000000000000000000000000000000000000000000000000000
11010110010011110110111000000000000000000000000000000000000000000000000000000000000000000000
1111111110000100100000100111011000000000000000000000000000000000000000000000000000000000000000000000
1111111110010010100011111111011000000000000000000000000000000000000000000000000000000000000000000000
1111111110111000010000000101010100000000000000000000000000000000000000000000000000000000000000000000
110000001010100111001000000000000000000000000000000000000000000000000000000000000000000000
1111111101100001011000111101010000000000000000000000000000000000000000000000000000000000000000000000
10010000100010011111111100000000000000000000000000000000000000000000000000000000000000000000
1011101101101101001110010000000000000000000000000000000000000000000000000000000000000000000
11101100000100001101111100000000000000000000000000000000000000000000000000000000000000000000
1111111110000001010000011100010110000000000000000000000000000000000000000000000000000000000000000000
1111111100111110000110001000110000000000000000000000000000000000000000000000000000000000000000000000
10110000011011111000101100000000000000000000000000000000000000000000000000000000000000000000
1111111101011011111100000110000100000000000000000000000000000000000000000000000000000000000000000000
101011100100011111111100000000000000000000000000000000000000000000000000000000000000000000000
1111111101101001011011100010001000000000000000000000000000000000000000000000000000000000000000000000
110011011111111111011001000000000000000000000000000000000000000000000000000000000000000000000
1110101010100111101111000000000000000000000000000000000000000000000000000000000000000000000
110001010100101001110101000000000000000000000000000000000000000000000000000000000000000000000
10000100001110111000100000000000000000000000000000000000000000000000000000000000000000000000
1111111110000011011110101010100100000000000000000000000000000000000000000000000000000000000000000000
1111111111111010011111011110010010110000000000000000000000000000000000000000000000000000000000000000
1111111101000101011001010010001100000000000000000000000000000000000000000000000000000000000000000000
1111111101010101000111100001010100000000000000000000000000000000000000000000000000000000000000000000
11110101000001001001001100000000000000000000000000000000000000000000000000000000000000000
101111110001001100111111000000000000000000000000000000000000000000000000000000000000000000000
1111111101101011111011101110011100000000000000000000000000000000000000000000000000000000000000000000
1111111111111101000011001110001010000000000000000000000000000000000000000000000000000000000000000000
100111110000000101110111000000000000000000000000000000000000000000000000000000000000000000000
1111111101101101111011010111011000000000000000000000000000000000000000000000000000000000000000000000
110001100010001010111010000000000000000000000000000000000000000000000000000000000000000000000
111001100001000101110000000000000000000000000000000000000000000000000000000000000000000000
100110001111101110011001000000000000000000000000000000000000000000000000000000000000000000000
1111111101001110110111110100000100000000000000000000000000000000000000000000000000000000000000000000
11001110111111100011000000000000000000000000000000000000000000000000000000000000000000000000
1101010110010010011010110000000000000000000000000000000000000000000000000000000000000000000
1011001000011000011110110000000000000000000000000000000000000000000000000000000000000000000
1111111101110111010000001111000100000000000000000000000000000000000000000000000000000000000000000000
1111111111000000111111010111101000000000000000000000000000000000000000000000000000000000000000000000
1111111110010001000100100000111110000000000000000000000000000000000000000000000000000000000000000000
1111111110000001000111001011000110000000000000000000000000000000000000000000000000000000000000000000
11110001110111010111101100000000000000000000000000000000000000000000000000000000000000000000
110011100000111101001000000000000000000000000000000000000000000000000000000000000000000000
10001001110011010111111100000000000000000000000000000000000000000000000000000000000000000000
110000111100111001011111000000000000000000000000000000000000000000000000000000000000000000000
1111111101110001011001000101011100000000000000000000000000000000000000000000000000000000000000000000
1111111111111001001000101111011110101000000000000000000000000000000000000000000000000000000000000000
11110110000000011100100000000000000000000000000000000000000000000000000000000000000000000000
11100101001001000110111100000000000000000000000000000000000000000000000000000000000000000000
10111110000101110011001100000000000000000000000000000000000000000000000000000000000000000000
1111111101011001110110000101011000000000000000000000000000000000000000000000000000000000000000000000
11101100010010101011100100000000000000000000000000000000000000000000000000000000000000000
10111001010010001101100000000000000000000000000000000000000000000000000000000000000000000000
1110001001000010110100010000000000000000000000000000000000000000000000000000000000000000000
11010001011101110110101100000000000000000000000000000000000000000000000000000000000000000000
100000010100110101110000000000000000000000000000000000000000000000000000000000000000000000000
1111111110010110111110001110100000000000000000000000000000000000000000000000000000000000000000000000
100101101001001000000000000000000000000000000000000000000000000000000000000000000000000000000
1111111101101101100000101110010100000000000000000000000000000000000000000000000000000000000000000000
101111111100111100001000000000000000000000000000000000000000000000000000000000000000000000000
10100101111111010010101000000000000000000000000000000000000000000000000000000000000000000
10101011000110001001011000000000000000000000000000000000000000000000000000000000000000000000
110010001101111110111011000000000000000000000000000000000000000000000000000000000000000000000
1111000100010111100011100000000000000000000000000000000000000000000000000000000000000000000
1111111111100011001110110101011100000000000000000000000000000000000000000000000000000000000000000000
1111111101000010101110101101011100000000000000000000000000000000000000000000000000000000000000000000
111100000011001101110001000000000000000000000000000000000000000000000000000000000000000000
1111111110011100111111010011011100000000000000000000000000000000000000000000000000000000000000000000
111001101110001110111111000000000000000000000000000000000000000000000000000000000000000000
1111111100011111110010010111110100000000000000000000000000000000000000000000000000000000000000000000
101101111101101010101111000000000000000000000000000000000000000000000000000000000000000000000
1111111100111010101010100001110100000000000000000000000000000000000000000000000000000000000000000000
11101010101111000001000100000000000000000000000000000000000000000000000000000000000000000000
1001100000011101101000100000000000000000000000000000000000000000000000000000000000000000000
1111111110000101100001011100101100000000000000000000000000000000000000000000000000000000000000000000
1111111100110110100010101101000100000000000000000000000000000000000000000000000000000000000000000000
10000110110010010101111000000000000000000000000000000000000000000000000000000000000000000000
1111111100110000110110110111101100000000000000000000000000000000000000000000000000000000000000000000
1111111110010001011110110001000010000000000000000000000000000000000000000000000000000000000000000000
1111111111001101111010101010110001000000000000000000000000000000000000000000000000000000000000000000
1111111110000011000101100111100110000000000000000000000000000000000000000000000000000000000000000000
10100011011110101100000000000000000000000000000000000000000000000000000000000000000000000000
11111110011011010101100100000000000000000000000000000000000000000000000000000000000000000000
1100001101001000111010110000000000000000000000000000000000000000000000000000000000000000000
11001101110110111101100000000000000000000000000000000000000000000000000000000000000000000000
10101001000010111000101100000000000000000000000000000000000000000000000000000000000000000000
1000010000011111000011100000000000000000000000000000000000000000000000000000000000000000
1111111101001010001101101010100100000000000000000000000000000000000000000000000000000000000000000000
101011101100001010001000000000000000000000000000000000000000000000000000000000000000000000000
1101110110110000011010110000000000000000000000000000000000000000000000000000000000000000000
1111111110101110011110100000110010000000000000000000000000000000000000000000000000000000000000000000
11011010001111010100001000000000000000000000000000000000000000000000000000000000000000000000
10111110010110111110100100000000000000000000000000000000000000000000000000000000000000000000
1111111101000010010100100101001100000000000000000000000000000000000000000000000000000000000000000000
100100010101101110011100000000000000000000000000000000000000000000000000000000000000000000000
110011000001111111001100000000000000000000000000000000000000000000000000000000000000000000000
100010101000111101011011000000000000000000000000000000000000000000000000000000000000000000000
100110111001010101100010000000000000000000000000000000000000000000000000000000000000000000000
11001111011010100100001000000000000000000000000000000000000000000000000000000000000000000000
1111111101100010110101011101101000000000000000000000000000000000000000000000000000000000000000000000
1111111111001110011001101111111001000000000000000000000000000000000000000000000000000000000000000000
1111111111011101101011101110101111000000000000000000000000000000000000000000000000000000000000000000
11111001001110000110001000000000000000000000000000000000000000000000000000000000000000000000
100010011010010111100010000000000000000000000000000000000000000000000000000000000000000000000
110001000010110101011011000000000000000000000000000000000000000000000000000000000000000000
1111111111100110111101111000100011000000000000000000000000000000000000000000000000000000000000000000
1111111101111000001001111011110100000000000000000000000000000000000000000000000000000000000000000000
1010000011001010101100100000000000000000000000000000000000000000000000000000000000000000000
1111111111000111110111100000011011000000000000000000000000000000000000000000000000000000000000000000
1111111100011111011011001111111000000000000000000000000000000000000000000000000000000000000000000000
110011110010000101010101000000000000000000000000000000000000000000000000000000000000000000000
10110000011011010000000100000000000000000000000000000000000000000000000000000000000000000000
1000010101100100011100000000000000000000000000000000000000000000000000000000000000000000000
1111111111100111001010110110110111100000000000000000000000000000000000000000000000000000000000000000
11011111101011111011111000000000000000000000000000000000000000000000000000000000000000000000
101000000111001100001011000000000000000000000000000000000000000000000000000000000000000000000
100010111011011110010111000000000000000000000000000000000000000000000000000000000000000000
1111111110000001100000110100111010000000000000000000000000000000000000000000000000000000000000000000
10000010110101111000111100000000000000000000000000000000000000000000000000000000000000000000
1111111110111010100111110000110000000000000000000000000000000000000000000000000000000000000000000000
1111111110110011011001000000101100000000000000000000000000000000000000000000000000000000000000000000
1100011001110100010011000000000000000000000000000000000000000000000000000000000000000000000
101011111001011111000111000000000000000000000000000000000000000000000000000000000000000000
100000100000001111110010000000000000000000000000000000000000000000000000000000000000000000000
1010100000001010001000000000000000000000000000000000000000000000000000000000000000000000000
11100100110010111000011100000000000000000000000000000000000000000000000000000000000000000000
1111111101100100101001000101111000000000000000000000000000000000000000000000000000000000000000000000
1111111111010000100100010001111101000000000000000000000000000000000000000000000000000000000000000000
1011000110010010001000010000000000000000000000000000000000000000000000000000000000000000000
1111111100100111000001000010000100000000000000000000000000000000000000000000000000000000000000000000
10111101010101110111101100000000000000000000000000000000000000000000000000000000000000000000
100010000101101101011001000000000000000000000000000000000000000000000000000000000000000000000
1111111100011100101010100000110100000000000000000000000000000000000000000000000000000000000000000000
1111111101010010010110011011110000000000000000000000000000000000000000000000000000000000000000000000
100101000000100111010101000000000000000000000000000000000000000000000000000000000000000
1111111110010111101101001001001010000000000000000000000000000000000000000000000000000000000000000000
1111111101101100110100101101000000000000000000000000000000000000000000000000000000000000000000000000
1110011001100100100111000000000000000000000000000000000000000000000000000000000000000000000
1111111110010110011100010101000110000000000000000000000000000000000000000000000000000000000000000000
1111111111101000100010011011100101100000000000000000000000000000000000000000000000000000000000000000
101011011000000110011101000000000000000000000000000000000000000000000000000000000000000000000
10000110111101011111101100000000000000000000000000000000000000000000000000000000000000000000
10101110001111001000001100000000000000000000000000000000000000000000000000000000000000000000
1111111101000100110100000111100000000000000000000000000000000000000000000000000000000000000000000000
101001011101101100011111000000000000000000000000000000000000000000000000000000000000000000000
100111101110011110001111000000000000000000000000000000000000000000000000000000000000000000000
100110101111101111100111000000000000000000000000000000000000000000000000000000000000000000
11001011010011111101100000000000000000000000000000000000000000000000000000000000000000000000
101111000101000101111001000000000000000000000000000000000000000000000000000000000000000000000
1111111100110101000110101110110100000000000000000000000000000000000000000000000000000000000000000000
1111111110011000111000110100111100000000000000000000000000000000000000000000000000000000000000000000
1111111100100111010111001001101100000000000000000000000000000000000000000000000000000000000000000000
1111111111000011011011000100111011000000000000000000000000000000000000000000000000000000000000000000
1111111111011010110011110101100110000000000000000000000000000000000000000000000000000000000000000000
1111111100101010000010011110010100000000000000000000000000000000000000000000000000000000000000000000
101110111101111001000010000000000000000000000000000000000000000000000000000000000000000000000
1111111100010101010011010110000100000000000000000000000000000000000000000000000000000000000000000000
1111111101001010101011001101001100000000000000000000000000000000000000000000000000000000000000000000
1111111101101000111101001100101000000000000000000000000000000000000000000000000000000000000000000000
1111111110101101010010010110000110000000000000000000000000000000000000000000000000000000000000000000
1111111100110011010110101110111000000000000000000000000000000000000000000000000000000000000000000000
10011001000101000110010100000000000000000000000000000000000000000000000000000000000000000000
110010101001001000111111000000000000000000000000000000000000000000000000000000000000000000000
100110010101000100010110000000000000000000000000000000000000000000000000000000000000000000000
1010000100010010001101000000000000000000000000000000000000000000000000000000000000000000000
111011110010100110001111000000000000000000000000000000000000000000000000000000000000000000
11111011111001011111000100000000000000000000000000000000000000000000000000000000000000000000
100110100110111101011011000000000000000000000000000000000000000000000000000000000000000000000
110010000110000011000111000000000000000000000000000000000000000000000000000000000000000000000
110001010010011101100001000000000000000000000000000000000000000000000000000000000000000000000
10010101111000011011000100000000000000000000000000000000000000000000000000000000000000000000
11100101011011100100010000000000000000000000000000000000000000000000000000000000000000000000
1111111100011110000101011111101100000000000000000000000000000000000000000000000000000000000000000000
110000010111111101100110000000000000000000000000000000000000000000000000000000000000000000000
1111111110011001100001011011110000000000000000000000000000000000000000000000000000000000000000000000
100000000111100101101000000000000000000000000000000000000000000000000000000000000000000000000
110010000000011000010010000000000000000000000000000000000000000000000000000000000000000000000
1010010101001101000101010000000000000000000000000000000000000000000000000000000000000000000
1111111110110010001010111011111000000000000000000000000000000000000000000000000000000000000000000000
1111111100101100100110111101011100000000000000000000000000000000000000000000000000000000000000000000
11000110101011101100000100000000000000000000000000000000000000000000000000000000000000
1111111101010011101000011011000000000000000000000000000000000000000000000000000000000000000000000000
10001000011000000010101000000000000000000000000000000000000000000000000000000000000000000000
10000101011000100011000100000000000000000000000000000000000000000000000000000000000000000000
1111111110100010011001001011010010000000000000000000000000000000000000000000000000000000000000000000
1111111110100000001000110000000100000000000000000000000000000000000000000000000000000000000000000000
1111111101010010101101011010101000000000000000000000000000000000000000000000000000000000000000000000
10000110000011011111111100000000000000000000000000000000000000000000000000000000000000000000
10100110001000010011011100000000000000000000000000000000000000000000000000000000000000000000
10011101100110110110111000000000000000000000000000000000000000000000000000000000000000000000
1111111101011011000100100110001100000000000000000000000000000000000000000000000000000000000000000000
1111111111011111110001111011100100000000000000000000000000000000000000000000000000000000000000000000
10100100001101010010011000000000000000000000000000000000000000000000000000000000000000000000
1111111101000010101000110010010100000000000000000000000000000000000000000000000000000000000000000000
1111111110001111000100010000110010000000000000000000000000000000000000000000000000000000000000000000
1111111110111011011101101001010000000000000000000000000000000000000000000000000000000000000000000000
1111111100011111111101110001000100000000000000000000000000000000000000000000000000000000000000000000
11111110101010100000111000000000000000000000000000000000000000000000000000000000000000000000
1111111101010000100001101111001000000000000000000000000000000000000000000000000000000000000000000000
1111111110110000110101001110100000000000000000000000000000000000000000000000000000000000000000000000
110010111111011110101111000000000000000000000000000000000000000000000000000000000000000000000
1111111111011010110011111000110101000000000000000000000000000000000000000000000000000000000000000000
1111111110000110001000001000000010000000000000000000000000000000000000000000000000000000000000000000
1111110001000100111101010000000000000000000000000000000000000000000000000000000000000000
1111111110101100100110011101110100000000000000000000000000000000000000000000000000000000000000000000
10110100010100010001000000000000000000000000000000000000000000000000000000000000000000000000
1111111101111001011111111010100000000000000000000000000000000000000000000000000000000000000000000000
1111111110100101110100010111100010000000000000000000000000000000000000000000000000000000000000000000
10110111110110010010000000000000000000000000000000000000000000000000000000000000000000000000
100001001000111000011001000000000000000000000000000000000000000000000000000000000000000000
10111010010011011110100100000000000000000000000000000000000000000000000000000000000000000000
101101001011000001100010000000000000000000000000000000000000000000000000000000000000000000000
1111111111011010110100001010100010000000000000000000000000000000000000000000000000000000000000000000
1011001001100101101010100000000000000000000000000000000000000000000000000000000000000000000
100000010111111010010010000000000000000000000000000000000000000000000000000000000000000000000
101010010000011001111100000000000000000000000000000000000000000000000000000000000000000000000
1111111111000110110101010101111100000000000000000000000000000000000000000000000000000000000000000000
1011101110001011110110000000000000000000000000000000000000000000000000000000000000000000000
1110000000111010011001110000000000000000000000000000000000000000000000000000000000000000000
1111111101010101111000010110111000000000000000000000000000000000000000000000000000000000000000000000
101001101110101101010011000000000000000000000000000000000000000000000000000000000000000
10010000101100010101000000000000000000000000000000000000000000000000000000000000000000000000
1111111111100101011001100100001101100000000000000000000000000000000000000000000000000000000000000000
1010111010001110011010100000000000000000000000000000000000000000000000000000000000000000000
110011011101101100010011000000000000000000000000000000000000000000000000000000000000000000000
1000100111110000010110100000000000000000000000000000000000000000000000000000000000000000000
1111111110000100011011110101000010000000000000000000000000000000000000000000000000000000000000000000
1101110001000001011111100000000000000000000000000000000000000000000000000000000000000000000
100011111101110110001110000000000000000000000000000000000000000000000000000000000000000000000
1111111100110100011011110011100100000000000000000000000000000000000000000000000000000000000000000000
1000110000110111111101000000000000000000000000000000000000000000000000000000000000000000000
1010111000010001101000010000000000000000000000000000000000000000000000000000000000000000000
11011110000100101001100100000000000000000000000000000000000000000000000000000000000000000000
1111111110100101100010011000000010000000000000000000000000000000000000000000000000000000000000000000
1111111100010111011100001010001000000000000000000000000000000000000000000000000000000000000000000000
1111111101100111000111000011010000000000000000000000000000000000000000000000000000000000000000000000
1111111110111110100000000000101000000000000000000000000000000000000000000000000000000000000000000000
1111111101011110111111011110000000000000000000000000000000000000000000000000000000000000000000000000
1110101101000111101000110000000000000000000000000000000000000000000000000000000000000000000
100000100100010101010001000000000000000000000000000000000000000000000000000000000000000000000
100000001010001110110000000000000000000000000000000000000000000000000000000000000000000000000
1111111100110010000110001100001100000000000000000000000000000000000000000000000000000000000000000000
1111001011011001100010100000000000000000000000000000000000000000000000000000000000000000000
10101010000111111111111000000000000000000000000000000000000000000000000000000000000000000000
1111111100100001011111110100111000000000000000000000000000000000000000000000000000000000000000000000
10011111010100101010011000000000000000000000000000000000000000000000000000000000000000000000
1111111100111001110001011111000000000000000000000000000000000000000000000000000000000000000000000000
1111111101011100110011100110001100000000000000000000000000000000000000000000000000000000000000000000
1111111100101110110101001010111100000000000000000000000000000000000000000000000000000000000000000000
1111111110001000110101110101011110000000000000000000000000000000000000000000000000000000000000000000
100111101111011001111101000000000000000000000000000000000000000000000000000000000000000000000
11110111000100111101010000000000000000000000000000000000000000000000000000000000000000000000
111010111000011000011011000000000000000000000000000000000000000000000000000000000000000
11101001100010001000110100000000000000000000000000000000000000000000000000000000000000000000
101111000010011111010110000000000000000000000000000000000000000000000000000000000000000000000
11111010110101011110001100000000000000000000000000000000000000000000000000000000000000000000
1111111110010001001111000111010000000000000000000000000000000000000000000000000000000000000000000000
101010000101100110100101000000000000000000000000000000000000000000000000000000000000000000000
110011000001111101001111000000000000000000000000000000000000000000000000000000000000000000000
1001000000110011111111010000000000000000000000000000000000000000000000000000000000000000000
110001111100000000001011000000000000000000000000000000000000000000000000000000000000000000
1111111111011110011111010000111110000000000000000000000000000000000000000000000000000000000000000000
1111111101000100110010110010111100000000000000000000000000000000000000000000000000000000000000000000
10101011000000000110011100000000000000000000000000000000000000000000000000000000000000000000
110101111010111001011100000000000000000000000000000000000000000000000000000000000000000000
11011001000000110100011000000000000000000000000000000000000000000000000000000000000000000000
1100100011001010010001010000000000000000000000000000000000000000000000000000000000000000000
1111111111001110110001001111010100000000000000000000000000000000000000000000000000000000000000000000
1111111110110101010011001100010100000000000000000000000000000000000000000000000000000000000000000000
1111111111110100100100000010111010010000000000000000000000000000000000000000000000000000000000000000
1110010001001101001000000000000000000000000000000000000000000000000000000000000000000000000
10010101110111100111000100000000000000000000000000000000000000000000000000000000000000000000
1111111100011110001011111001101100000000000000000000000000000000000000000000000000000000000000000000
1110111110011010110010010000000000000000000000000000000000000000000000000000000000000000000
1100000111011001001101100000000000000000000000000000000000000000000000000000000000000000000
101010100000100101111011000000000000000000000000000000000000000000000000000000000000000000000
100011011101100110000101000000000000000000000000000000000000000000000000000000000000000000000
101010001010111111011011000000000000000000000000000000000000000000000000000000000000000000000
100100001010110110001011000000000000000000000000000000000000000000000000000000000000000000000
10000111000100011001001000000000000000000000000000000000000000000000000000000000000000000000
1111111101010011110000111111111100000000000000000000000000000000000000000000000000000000000000000000
110000001111000001010111000000000000000000000000000000000000000000000000000000000000000000
10011100110100001100010000000000000000000000000000000000000000000000000000000000000000000000
11111000100010100001100100000000000000000000000000000000000000000000000000000000000000000000
11100100011011010000011000000000000000000000000000000000000000000000000000000000000000000000
100010011011000110100010000000000000000000000000000000000000000000000000000000000000000000
10010011000010010101010000000000000000000000000000000000000000000000000000000000000000000000
1111111111010011011110011010001100000000000000000000000000000000000000000000000000000000000000000000
1111111101001111011111110110000100000000000000000000000000000000000000000000000000000000000000000000
1111111100100010010111101110000100000000000000000000000000000000000000000000000000000000000000000000
100010100011010101100011000000000000000000000000000000000000000000000000000000000000000000000
1110111101101100101000110000000000000000000000000000000000000000000000000000000000000000000
101010010101101110011000000000000000000000000000000000000000000000000000000000000000000000000
100101001000001110110110000000000000000000000000000000000000000000000000000000000000000000000
11000111001011011100111000000000000000000000000000000000000000000000000000000000000000000
1111000101001100011101010000000000000000000000000000000000000000000000000000000000000000000
1111111101111011001101001011000100000000000000000000000000000000000000000000000000000000000000000000
1111111101010001010101100111110000000000000000000000000000000000000000000000000000000000000000000000
1011000101100011100100100000000000000000000000000000000000000000000000000000000000000000000
101101000000110010100100000000000000000000000000000000000000000000000000000000000000000000000
1111111100100110001001110010101100000000000000000000000000000000000000000000000000000000000000000000
11111100100101001100100100000000000000000000000000000000000000000000000000000000000000000000
1111111101111010000000100100111100000000000000000000000000000000000000000000000000000000000000000000
101000100110000110110011000000000000000000000000000000000000000000000000000000000000000000
110010010111000101001111000000000000000000000000000000000000000000000000000000000000000000000
100010010010111101100100000000000000000000000000000000000000000000000000000000000000000000000
111111011000100011101000000000000000000000000000000000000000000000000000000000000000000
10011110011101011100111000000000000000000000000000000000000000000000000000000000000000000000
1111111111100111100100111101010101100000000000000000000000000000000000000000000000000000000000000000
11110110101100011011111100000000000000000000000000000000000000000000000000000000000000000000
11000000001101111000011000000000000000000000000000000000000000000000000000000000000000000000
1111111101000001110110001110101100000000000000000000000000000000000000000000000000000000000000000000
1111111111110100001010101000000101110000000000000000000000000000000000000000000000000000000000000000
1111111101001011110001101110110000000000000000000000000000000000000000000000000000000000000000000000
1111111111001100101101101111000101000000000000000000000000000000000000000000000000000000000000000000
1100000011000010111001100000000000000000000000000000000000000000000000000000000000000000000
11110100000001111111111000000000000000000000000000000000000000000000000000000000000000000000
110000011100100100100010000000000000000000000000000000000000000000000000000000000000000000000
100000010111111010101000000000000000000000000000000000000000000000000000000000000000000000000
1111111111101001011101000111000000100000000000000000000000000000000000000000000000000000000000000000
10001000001011000000111000000000000000000000000000000000000000000000000000000000000000000000
10011010100010100111010100000000000000000000000000000000000000000000000000000000000000000000
11111100101010101011100100000000000000000000000000000000000000000000000000000000000000000000
1111111101110010111010011010001100000000000000000000000000000000000000000000000000000000000000000000
0
1000111011001101100111000000000000000000000000000000000000000000000000000000000000000000000
1111111100010010101011010101100100000000000000000000000000000000000000000000000000000000000000000000
101000110000001100100110000000000000000000000000000000000000000000000000000000000000000000000
1111111110001000001111101000000100000000000000000000000000000000000000000000000000000000000000000000
1111111100010010000110110011011100000000000000000000000000000000000000000000000000000000000000000000
110000110110101110101010000000000000000000000000000000000000000000000000000000000000000000000
100100001100000101000110000000000000000000000000000000000000000000000000000000000000000000000
101101001010110101110111000000000000000000000000000000000000000000000000000000000000000000000
10111000100010110111000100000000000000000000000000000000000000000000000000000000000000000000
11011100001110110100000100000000000000000000000000000000000000000000000000000000000000000000
101110101110011001011101000000000000000000000000000000000000000000000000000000000000000000000
1111111101001100011010100000111000000000000000000000000000000000000000000000000000000000000000000000
10001011000010010111100100000000000000000000000000000000000000000000000000000000000000000000
110001001100010000001000000000000000000000000000000000000000000000000000000000000000000000000
1111111110001001000010010111110110000000000000000000000000000000000000000000000000000000000000000000
100111100111011111001100000000000000000000000000000000000000000000000000000000000000000000000
1111111111001111001110100101101101000000000000000000000000000000000000000000000000000000000000000000
1111111101111111010010100101001100000000000000000000000000000000000000000000000000000000000000000000
1101110010001011110101000000000000000000000000000000000000000000000000000000000000000000000
101010100111000101101101000000000000000000000000000000000000000000000000000000000000000000000
10101000001001110001100100000000000000000000000000000000000000000000000000000000000000
101001011111100111111111000000000000000000000000000000000000000000000000000000000000000000000
1111111110011100100010001000111000000000000000000000000000000000000000000000000000000000000000000000
10010000111000001011111100000000000000000000000000000000000000000000000000000000000000000000
101001111101111001011101000000000000000000000000000000000000000000000000000000000000000000000
1100010001100100010010000000000000000000000000000000000000000000000000000000000000000000
100000110011001110110100000000000000000000000000000000000000000000000000000000000000000000000
