1111111111001101101011101011001010101000101001110110001011000000000000000000000000000000000000000000
1111111111111101101101101100101100000101001000101110101110100010101000000000000000000000000000000000
101111010000110001110101000110000000011100111110100100000000000000000000000000000000000000
1111111111110011101000000101110100111010001100001101000001101101100000000000000000000000000000000000
1111111111101100001001001110011001111101010011100011001010010000000000000000000000000000000000000000
1111111111110110011100110110100010110111001110001110100001100000000000000000000000000000000000000000
11110110100011000111011100100110100001101001010101011000000000000000000000000000000000000
1000111000101101000011010011011011000101001000101110000000000000000000000000000000000
1001101000001001111010000010010111100001010101111100000000000000000000000000000000000000
1111111111111000110100001010100011101101001111101100110111001100010000000000000000000000000000000000
10010111101000010101010011100111110111010010100010011000000000000000000000000000000000000
1111111111100101000000010000010101001111000101101010011001101100000000000000000000000000000000000000
1000001110100100110010010100001100111001110010100000000000000000000000000000000000000000000
1111111111011001010000111011101001000011011110101111000010111010000000000000000000000000000000000000
1111111111101011110001101001001001001111001100000001100110010110000000000000000000000000000000000000
10000010111111011100010100010100000100010100001101101000000000000000000000000000000000000
1111111111100111100111101001010011100111001001111001101000000100000000000000000000000000000000000000
1111111111011100000010101100111001001100010110100001100000101000000000000000000000000000000000000000
1111110110010001100111101101110010111011100000111010100000000000000000000000000000000000
11111111000101010111110101011010101110011000101101010000000000000000000000000000000000000
100101110100001100101010111010110101001000011010100010000000000000000000000000000000000000
1111111111000110110011001111011000011100011000000001101101000100000000000000000000000000000000000000
1111111111110001010110111011110000110101000100110010100111010100100000000000000000000000000000000000
1111111111100111011101000111110010000010010101011010100001101010000000000000000000000000000000000000
1111111111100101011001001110001000000111011111100010110100011000000000000000000000000000000000000000
1111111111110101010001011110110001100100101111011101110110101010000000000000000000000000000000000000
11111000100110101000101011100000010001000111100111001000000000000000000000000000000000
10010001111101000110001111010100111000011001101000100000000000000000000000000000000000000
11010001100001100101011110101000011111111001000111010000000000000000000000000000000000000
1111111111001100100111101011101010000010011001111000110010000100000000000000000000000000000000000000
11001101010001000010000100111000011001110100010100010000000000000000000000000000000000000
1111111111010100101011100111011000101000010101111111001010001010000000000000000000000000000000000000
10010110010101111000110011000111101010001011010110100000000000000000000000000000000000000
1111111111110111110101010101011000011101010001011111100100110111000000000000000000000000000000000000
1111111111001111001011100011001000100011010000100001010110110100000000000000000000000000000000000000
10001010110011010000100100001001101010110001101110001000000000000000000000000000000000000
1111111111111010110001011110100100001101001001000110111101000010110000000000000000000000000000000000
1111101110001001110010110010111000101000100000011000000000000000000000000000000000000000
100100011011101111111110100011100110001001110011011010000000000000000000000000000000000000
1011110010000110110100000110000001010110001111111101000000000000000000000000000000000000
1111111111000010101111110010100110101010010011010010110001011000000000000000000000000000000000000000
1010111001111111101111111010100011101100000000111000100000000000000000000000000000000000
1111111111111111001101101101001011010000100000010011111001011011000110000000000000000000000000000000
11100011000000001111011000110000000111010100110100001000000000000000000000000000000000000
11111100101000110010110001010001100000101110010011010000000000000000000000000000000000000
1111111111011001001111001101010111101000100101110111000101000000000000000000000000000000000000000000
10110000101110111011101110010011100000100111110000000000000000000000000000000000000000000
1010010110011010001111010001011010110111000000100010000000000000000000000000000000000000000
1111111111110001010110100011111110110000111000110011000000000011100000000000000000000000000000000000
110001110000001000010111101101001001011100010010101010000000000000000000000000000000000000
1111111111000000000100101001101000100010100111010100101001111010000000000000000000000000000000000000
1111111111110110000000010111000101110011001110111110100001100100000000000000000000000000000000000000
100111001011101001101011000111010100111101011101111000000000000000000000000000000000000
11101000010111111010011011000111110001110110010000001000000000000000000000000000000000000
0
100101100011100101001100001011010110111111010110111010000000000000000000000000000000000000
1111111111100001100001010111100011100000011010010101011010001100000000000000000000000000000000000000
1111111111111010110001000011000011011000110110010100101010110111100000000000000000000000000000000000
1111111111111111011101001111110000000011011011110110110110111110010000000000000000000000000000000000
1000110111101111100110010010001101100110000001101110100000000000000000000000000000000000000
10111001100001010100100110100110001010000000111001111000000000000000000000000000000000000
11110010101110110110101000100010010001011010001011110000000000000000000000000000000000000
1001101000000011101101110000110011111111111000111111000000000000000000000000000000000
1111111111110010010011010010111101011100011001011111011000111101000000000000000000000000000000000000
10100010001111010000000010111001010011100100110100010000000000000000000000000000000000000
1111111111110000001011010111011001110011100101100111101110000101000000000000000000000000000000000000
101000110101100111011001011110110011011100101101010110000000000000000000000000000000000000
1111111111111101100011100101000100101001110110011011111100011010001000000000000000000000000000000000
101000001101100111110111001001000100110100000000000110000000000000000000000000000000000000
11111110110001000101001101000011011000100011111010000000000000000000000000000000000000000
1111111111110001100010010100000010010001100101110010110101110111100000000000000000000000000000000000
10100111110011001100010011011111000111010101010110101000000000000000000000000000000000000
1111111111100101101011110010011101000100010001101111011111111001000000000000000000000000000000000000
10111111010010101011010110000100111011010011000000011000000000000000000000000000000000000
1001101010110110010100010111010001111110101000101111000000000000000000000000000000000000000
1111111111110100101101001010010110010001111111110101010011101100100000000000000000000000000000000000
1001101110000101100001010100011101000100111011110110000000000000000000000000000000000000
10010101010000001001111100101110101001101000000101110000000000000000000000000000000000000
1111111111010000011111010100010010110111011111011111010101110110000000000000000000000000000000000000
11001111001111010110110111010111000110110101000001011000000000000000000000000000000000000
110011100101100001000111110101000001010010011111100000000000000000000000000000000000000000
1111111111111110110110101011100100010010110110101001100111000010110100000000000000000000000000000000
1111111111111000101111100001000001011110010001100110010110000111100000000000000000000000000000000000
110000001100101011110110010110000111011000001010001110000000000000000000000000000000000000
1111111111100100000111111101101111000001100110101010111011111111000000000000000000000000000000000000
11101010011011110110011011001000111100110001000001010000000000000000000000000000000
11010001111000001001111000010011001011011110100001011000000000000000000000000000000000000
111100011000011001111100110101110111111101010110010010000000000000000000000000000000
1111111111111101101110001001110010010101110111110011100011110101111000000000000000000000000000000000
1111111111110100000001111001000101010111101111000100100110101001000000000000000000000000000000000000
1011001011101110000000101001100100101111111111000101000000000000000000000000000000000000
101111010011011000011100111011111011111111001010000100000000000000000000000000000000000
1111111111011010111110000111011010111110001000110110111101011100000000000000000000000000000000000000
101010111111001010100000111101101010100011100110000100000000000000000000000000000000000000
1001010110001101011000111110100000001101011110001011000000000000000000000000000000000000
1111111111111110100010100001100100110011010110001110001001000110001100000000000000000000000000000000
111010101110001001100111110110101000010001110100110010000000000000000000000000000000000
111101111101110011001110000000001010111000111110000110000000000000000000000000000000000
10111100110101010010110111001011110110110011000001000000000000000000000000000000000000
10110011010011110101010100001111000111101100001010011000000000000000000000000000000000000
10111001110010000110101101110100010101110100010111010000000000000000000000000000000000000
101100100111000001100001011010111000010100111111100110000000000000000000000000000000000
1111111111100111001000000010010110001011011100000011101011101000000000000000000000000000000000000000
1111111111001110111010100110010100011101011101110111011101010000000000000000000000000000000000000000
101010000111000111101101101100101011100101011010001010000000000000000000000000000000000000
1111111111011110111000011100000101110011010010100100010001010010000000000000000000000000000000000000
100101011110100110110001101101110010011110101011100100000000000000000000000000000000000000
1111111111110000111001111111010111111011101100100011001011101000000000000000000000000000000000000000
1111111111101011010111011001101010011000011000010000100000011100000000000000000000000000000000000000
1110001011011110101011011111001100011110001001011100100000000000000000000000000000000000
1111111110111010000011111001101110100000011110001101100111111100000000000000000000000000000000000000
1111111111111110110110010001011100001010101100011010110011111100111000000000000000000000000000000000
1111111111100101000111101010011110001011010100110100000001100110000000000000000000000000000000000000
0
1110101000111101100000100001000111011101100011111001000000000000000000000000000000000000
1111111111111011011000101001110011001000010110010010100011101000110000000000000000000000000000000000
10100000010010111000011001011111010110001110100001111000000000000000000000000000000000000
1111111111110010100100001010001000101111100010100101010110110000100000000000000000000000000000000000
1111111111110010110110111010001111010110000001011111111100100000000000000000000000000000000000000000
1010001101011110100001010100111110110110100111011011100000000000000000000000000000000000
100011110001010010101011001001011011011011111100100110000000000000000000000000000000000000
10111101110000111011000010001100000100001100000010000000000000000000000000000000000000000
10101111000111100111110011110110100011100011100000001000000000000000000000000000000000000
101111111000010001000000100111010010010001111101110110000000000000000000000000000000
1111111111001101000110010110010000001001100110001001001100000010000000000000000000000000000000000000
100000010011111011001111000110000001100110011111110000000000000000000000000000000000
0
10000110010100101100000000001000000100101010101001101000000000000000000000000000000000
1111111110010001001001011101010001110101000001001010100000000000000000000000000000000000
1111111111010000101010000100101010010111000001101111110010011110000000000000000000000000000000000000
1111111111111011011100110010100111101100011011010101001010110100010000000000000000000000000000000000
1111111111111100000101000111000011110110010010010101011111110011001000000000000000000000000000000000
1111111111100111011100100010100100101101001100101100001110101001000000000000000000000000000000000000
1111111111110001011000100010010011001111000001000100000000000100000000000000000000000000000000000000
10001110000011011111001000010111001101010110111101110000000000000000000000000000000000000
11011100011101010001000010100100110001001101001011010000000000000000000000000000000000000
1001001000110001110111011110011110000100010010100011000000000000000000000000000000000000
1111111111011011011010110000001000101000000100001010110000110010000000000000000000000000000000000000
1111111110110000001100100101111110111110111000101101110001010100000000000000000000000000000000000000
1111111111001010000000011110110111101100110010100001000111111000000000000000000000000000000000000000
1111111111011010111100011011010110001101101101011001000000110010000000000000000000000000000000000000
1000001001000000000110101010110101101100101101110001100000000000000000000000000000000000
11111000110111001001110110111001101001101111101011000000000000000000000000000000000000
100110101011110101000010101001100011110010000000100010000000000000000000000000000000000000
1110100000101010111011100001011101100100111100100111000000000000000000000000000000000000
10011001010111011011100101101101100010000101000000000000000000000000000000000000000000
1111111111010101100001011011111101010101001111000010000000110100000000000000000000000000000000000000
1111111111000101010100100111011000010000100000011111111010110010000000000000000000000000000000000000
10100101111110001111111101111010011000111000011111111000000000000000000000000000000000000
101011011000101001010101010001001010011010011101000100000000000000000000000000000000000000
1111111111101011010110000110001110001101000010101000011010001001000000000000000000000000000000000000
11100101110010001001000010101110110100100101111100111000000000000000000000000000000000000
1100100010111101000111001010100101010011001110111001000000000000000000000000000000000000
1111111111110011101011010001010101110011010000001110001110011101100000000000000000000000000000000000
1111111111101001101000100110000011111110100101010011011001010100000000000000000000000000000000000000
10101110011101100011100010111110011001101110100100101000000000000000000000000000000000000
1101101011010000100101100001001100101000100101001010000000000000000000000000000000000
1000011011111111000101000100000001000101111011001010000000000000000000000000000000000000
11010001111111110111011100101011101001001001000000100000000000000000000000000000000000
1111111111111100000101101111010110010111010000011110010111000100011000000000000000000000000000000000
1111111111010101101111011001111100000001001110011000110000011010000000000000000000000000000000000000
1111111111111001101001010100111000101101100101000111111111001101100000000000000000000000000000000000
11000100001010001101101001110101011110001001001000010000000000000000000000000000000000
100001110100111010111110001001001011101101011000110100000000000000000000000000000000000000
1111111111100111101001110000100001110100111111101010011000010101000000000000000000000000000000000000
11101001111011000011110011111001110001001000000001001000000000000000000000000000000000000
1111111111110111010101101001100111001001010110111000110100001011100000000000000000000000000000000000
111010101110110110001001011110011000101100100000001100000000000000000000000000000000000000
101000111111110110000010001000011001010010101110100100000000000000000000000000000000000000
1111111111101000010010101010001001001000000110111000100110001100000000000000000000000000000000000000
111110100000111001010010110011110000000100100111010100000000000000000000000000000000000000
1111111111101010000110011000001000111011100010110001100011110001000000000000000000000000000000000000
1111111111011010111101010010111001011101000011101101110000101000000000000000000000000000000000000000
111100110110010010000011111100110110101010010000111110000000000000000000000000000000000
1100000101010100110001101101110010010011000010010000000000000000000000000000000000000000
101011001011110101000011001001000101011111101000000110000000000000000000000000000000000000
1111111110100111101010101000001010100011000111001001111100101000000000000000000000000000000000000000
1111111111110010110100110110101011100110100101010100110111100100000000000000000000000000000000000000
1001011011101001000110110001101110011111000101011111100000000000000000000000000000000000000
1111111111100010011010111010110010011010010111011110010011000101000000000000000000000000000000000000
11011011110011000010011000111000001010010010000110011000000000000000000000000000000000000
1111111111101110101101001000111001111010001010111110011100101111000000000000000000000000000000000000
1111111111000110010011001011100110011010111100010111100011111110000000000000000000000000000000000000
111111100001000100000000110010001100011111011110011110000000000000000000000000000000000
1111111111010100111011111000011010111111110001010101011001100010000000000000000000000000000000000000
1101111100111110110100101110001111001001101000011101000000000000000000000000000000000
1111111111111001001101000111011001001101000110001100001101001011110000000000000000000000000000000000
1111111111110001011000110111000110101100101111111101000100100110000000000000000000000000000000000000
1111111111000110101101110110000000100111010101011110100111100110000000000000000000000000000000000000
110111000101001110110010000110111111000010000011101100000000000000000000000000000000000
1111111111110110101111001100101010001010001001101010111110010100000000000000000000000000000000000000
1001100111110011000110001100000100100001011001100110100000000000000000000000000000000000000
11110111011101100100110110110011010010111111011001001000000000000000000000000000000000000
1111111111111000111110101100111110010000010100100111001100111010010000000000000000000000000000000000
1111111111111110001011000110011010000110100000000001011100101001101000000000000000000000000000000000
100010010001110011010111100100010111010100010101101000000000000000000000000000000000000000
1100001000001011100011110000101100111110100001110110100000000000000000000000000000000000
1111111111110000111010010000110100100100101110100011000011011000100000000000000000000000000000000000
1111111111101001101100110010110100001000001101111101001000110010000000000000000000000000000000000000
1111111111001101110001100110111011110100101001111111000101100000000000000000000000000000000000000000
0
10101111100010110000110011110000101100110111111111011000000000000000000000000000000000000
1111111111110111111001000011001100011010011101011101010100110000000000000000000000000000000000000000
1111111111101110101011100010011000011101100000111110010000111100000000000000000000000000000000000000
1111111111100111110111011011111100110110100010100100111011000100000000000000000000000000000000000000
11101000111000011100001001101101001000001001111011100000000000000000000000000000000000000
1111111111110101010001010001100100111011110000000010111010110101000000000000000000000000000000000000
1111111111110101100111011010011010100010100000000011010110000111000000000000000000000000000000000000
1110111101000110000110000101000100000000000011100011000000000000000000000000000000000000
101111111000100010100001110110110110101000010100001010000000000000000000000000000000000000
11001111100001001101011001000110111100010011001101111000000000000000000000000000000000
1001011111001111011100000011001101010000101100100100100000000000000000000000000000000000
110010110001011001100100100111110111101001010110101110000000000000000000000000000000000000
100011111001100000110010000111100001000001101000011000000000000000000000000000000000
1111111111011100011001100100010111110011100101100111000101000000000000000000000000000000000000000000
10110001010001001100000110000010000110100101010111010000000000000000000000000000000000000
11001000100000110111100111000000100111111010111000101000000000000000000000000000000000000
11100011010001111000110101000010101010101100010010100000000000000000000000000000000000
1111111111111001111100101100110011110110100000110010111100001001100000000000000000000000000000000000
0
1111111111111010100001001101110001110111110101100101110001001110010000000000000000000000000000000000
1111111111111001010000110000010101100100111010011000110000000011100000000000000000000000000000000000
1111111111110100101100110010010101110101010000011010110001001111000000000000000000000000000000000000
1111111111100111110100011001010011111101000000000101111001001100000000000000000000000000000000000000
0
10000010011001011010000000100011100000110000111101111000000000000000000000000000000000000
11011001001100000100000101111110000100010101010000101000000000000000000000000000000000000
100111011011001100011101110011101010111111110010000110000000000000000000000000000000000000
1000101100101011111110101110001010011000101000011001000000000000000000000000000000000000
100110001110001000101100111111111100000111100000001110000000000000000000000000000000000000
1111111111101101010001001011001011000110000100010011101001000010000000000000000000000000000000000000
1110100010101011000011011010000101111110000110011010000000000000000000000000000000000000
111100100101101110011011011011110110001101101010001110000000000000000000000000000000000000
1111111110110011101111101000110010101010000101010110111111101100000000000000000000000000000000000000
10000111010001011110101100010101110101101000011000101000000000000000000000000000000000000
10001010100001100000000110110000000011011001111001101000000000000000000000000000000000000
1111111111011010111000001111011000101000100101110011111110100000000000000000000000000000000000000000
1111111111100100011100111010101101111010001000110111100000111010000000000000000000000000000000000000
1111111110111001101001110001010111100100100110101101100010111000000000000000000000000000000000000000
1110001101101100110010100001000111101011110110000101100000000000000000000000000000000000
1111111111011100001101100011001111010110100010011011000100010000000000000000000000000000000000000000
1111111111011001100011011111001110001110111101000111001011111100000000000000000000000000000000000000
100011111111100110110000001101001000100001101001001010000000000000000000000000000000000
1111111111101001110011111101100111011101000110111110001111001001000000000000000000000000000000000000
1111111111101001001010011001000101011101110000000101011000000001000000000000000000000000000000000000
1111111111110111101001110110110000100111111110101110110110001010100000000000000000000000000000000000
1001010010111110010000011110110101110110110100110010100000000000000000000000000000000000
1000100110110000001001110101100010010101100100110011100000000000000000000000000000000000000
10101111000110011111100111111110110111011100100000011000000000000000000000000000000000000
1111111111011011011101010110111010110110010111010000011010101010000000000000000000000000000000000000
110001000011011100111011101111000011001011000101110110000000000000000000000000000000000000
1111111111000010100011111000011110010111000100001111110011111000000000000000000000000000000000000000
1101111110110111111110011010110101111011010000110111000000000000000000000000000000000
100000111011101001111101110110011101011101101000100010000000000000000000000000000000000000
11110001110011010111001110011100001111100010110001111000000000000000000000000000000000000
10000110100000111110000010111000110111110001110010000000000000000000000000000000000000000
100111111011101000101010011010110101101000100100101110000000000000000000000000000000000000
11100001110001001110001111111110001111110000101001101000000000000000000000000000000000000
100111111011001111100001000110110101010011100101100110000000000000000000000000000000000
101001110100001001111001010001100001101000100110111110000000000000000000000000000000000000
10101110101101011011010100111011011011011110011000011000000000000000000000000000000000000
1111111111111000000100011110001111111000000010111000111101110100010000000000000000000000000000000000
101111000101111000000000001111100101111011010110100110000000000000000000000000000000000000
1111111111111011011010110100111100101101100011110010111110001101000000000000000000000000000000000000
1111111111110000011011011100010000010101010101011000100110100000000000000000000000000000000000000000
10010110101010011101010000000001001100000100110100110000000000000000000000000000000000000
1111111111100100011100100001101110101110111110001111011111111111000000000000000000000000000000000000
1111111111111000100000100110100101100101101111010011001001111000010000000000000000000000000000000000
1111111111110000100000100000100010100111010100101011111100110100000000000000000000000000000000000000
100110110110110010110110010101100100010100000111010110000000000000000000000000000000000000
10011000011111000010110010010000110101001101000111100000000000000000000000000000000000000
10111011110010110101011111011100100100110100111000101000000000000000000000000000000000000
1110100010011000100010111110101111010001011110001100000000000000000000000000000000000
1000011010100110100111101110110011110011101111110010100000000000000000000000000000000000
1001100001100011000000001111011111101100111000001001000000000000000000000000000000000
1111111111101101101101100000100010001110101000000101101001110101000000000000000000000000000000000000
1001111110111110010010001000000001100101000001110101100000000000000000000000000000000000
1111111111111110110110100101000010001001011111001111000100100100101100000000000000000000000000000000
11110001000000100100011000111010111011111000110000000000000000000000000000000000000000000
1111111111011111110110111001011001001110100100111111110000000000000000000000000000000000000000000000
110000001111101011000000100000100101001100101101111010000000000000000000000000000000000000
101011111111011111100110011101001001111010110100111100000000000000000000000000000000000000
1111111111110111010100111101011001001110110010011001101111111110000000000000000000000000000000000000
100001101110111110110101000011100000010010111100011100000000000000000000000000000000000000
11110100000010010000111010111101101011001101011101001000000000000000000000000000000000000
1111111111100000011000111011000100100110001110110110111101011111000000000000000000000000000000000000
1111111111100001000100100001100111000010011100001011100100100110000000000000000000000000000000000000
11100010010000000001010010011101000101111100001111111000000000000000000000000000000000000
1111111111101101001001101110111100011100010000001010011111100010000000000000000000000000000000000000
11101111111100101111101111000000111100001100111011101000000000000000000000000000000000000
1111111111111101111101010100111001000001011111000011010111010000111000000000000000000000000000000000
1000001000100110000101100110010001000000001011101010000000000000000000000000000000000000
100000000111101011011111111001101001101101110000100110000000000000000000000000000000000000
1111111111111110111110011101001111111110001101010011111001100000110100000000000000000000000000000000
101011010010110101000110110011100000101001110110010100000000000000000000000000000000000000
1110011111111010111110110000110001101011111000010101000000000000000000000000000000000000
0
1111111111010010010010000011001000111011010111100111000000011100000000000000000000000000000000000000
1111111111110011001000000010011010110101100100000100011000100011000000000000000000000000000000000000
10000101010010111001001110001111000000100111111100100000000000000000000000000000000000000
110010100101010001010110010010110110011110001000000100000000000000000000000000000000000000
1000101101110000100010010011110101101101110001010001000000000000000000000000000000000
1111111111110000011001000110111111100111111011100001111011011110000000000000000000000000000000000000
1111111111001000100110011001100111000010011110110111100110010000000000000000000000000000000000000000
110001011100010101110001011101101001100100100000001010000000000000000000000000000000000
10000001111100000101001100010000000001110101010100100000000000000000000000000000000000000
1110011001011100110001100100100000100101100101010001000000000000000000000000000000000000
1111111111110101000010111101001111000011111000001001011001001000100000000000000000000000000000000000
1010100011010001000001100000101011010000100001110110100000000000000000000000000000000000000
100011000110011000010010110011001000001011000110101010000000000000000000000000000000000
1111111111100101000111000111110100110011100000000100110000000111000000000000000000000000000000000000
1111010001100010111010010101010011011011011111001111100000000000000000000000000000000000
10011010000111111001100100010000000101010100010001100000000000000000000000000000000000000
1111111111110100010000011110100000101001101000010011001000101000100000000000000000000000000000000000
1001010000000110010000110111010011100100101110001000100000000000000000000000000000000000
1111111111101111111110011101001110001100000110101011101100000000000000000000000000000000000000000000
1011101001011110010111000001001101100110101010000000100000000000000000000000000000000000
1100101111001010100100010100111101010000001001101001000000000000000000000000000000000
1111111111101110010110011001100011111010011101010111011101010001000000000000000000000000000000000000
1111111111110001000010110111111101110101011110111110101001010000100000000000000000000000000000000000
1100000101010110000111010011110101110011110101100110100000000000000000000000000000000000
1111111111111110100010110011110001001111100111100000101101000000101000000000000000000000000000000000
1111111111110110010100011111011010011000010001010110000001101010000000000000000000000000000000000000
1111111111110100000110010100100000010000001111101001100101010010000000000000000000000000000000000000
101000001001011101000011101100100001000111010010011100000000000000000000000000000000000000
1111111110111111000010101111110011000100001101000111011110110100000000000000000000000000000000000000
100101000000011001000011011101110011001011101101001000000000000000000000000000000000000000
1000101001011111101100000001010110100011011100001101100000000000000000000000000000000000000
1111111111101100100011100011101100010010101010101011011001010100000000000000000000000000000000000000
1111111110111011101111010000001110011000000111011000001000010100000000000000000000000000000000000000
11100111110000001101111100001111101110101010011110100000000000000000000000000000000000
10110110011100010111000010100111110110111011011011011000000000000000000000000000000000000
1111111111001101101100010110011101011000110001110110011010111010000000000000000000000000000000000000
10000110110100111001101000011110010011111000100110101000000000000000000000000000000000
1111111111100101100000010100111010010010111001000000110001011001000000000000000000000000000000000000
11000011110010010001011001001011011100000010101000011000000000000000000000000000000000000
1010010101111100101110111111111110100010101101011100100000000000000000000000000000000000
100101110001000000011111111011000010101001011111101000000000000000000000000000000000000000
1111111111011111011100101100100101110111000010001101111100000110000000000000000000000000000000000000
1111111111010110111000110001100001111111000111010011011001101110000000000000000000000000000000000000
10010111100010010000001001010011111000111101101111100000000000000000000000000000000000000
100110001101011001010011010010110110011100011011000100000000000000000000000000000000000000
1111111111100011100011011010100011101101001001000011100110001010000000000000000000000000000000000000
1111101100100010110111100010110000011000011001011111000000000000000000000000000000000
1011011100001111011100101110100000101100011110000011100000000000000000000000000000000000
111111001000111100000101110100101001001010101100010010000000000000000000000000000000000
1111111111010101011000110011111100100011000100111001001001001100000000000000000000000000000000000000
1111111111101010010000110100010001111001110010011101111011010001000000000000000000000000000000000000
1111111111001000000111011110101100010010011111011100011000011100000000000000000000000000000000000000
1000001110001010110110111111000111000000110011101011000000000000000000000000000000000000
1111111111001010100001011110101000101110100010001001101111100000000000000000000000000000000000000000
1111111111101011100110111111001001111011000010011111110001100001000000000000000000000000000000000000
1111111111111100010001001100000000111011101011000001011111010000111000000000000000000000000000000000
101101010011001111001111011001011010010110111111111110000000000000000000000000000000000
1111111111110011101001000100000001011111110101101000111101100111000000000000000000000000000000000000
100010010011010011101100010010100100110110110001100110000000000000000000000000000000000000
1111111111111111011111011111001001001000100110100000000100110110101010000000000000000000000000000000
1111111111101101111001110000000001100001001100010110000100001110000000000000000000000000000000000000
1010111100101000011000001011000100001101101111001101100000000000000000000000000000000000
1111111111101000111111000011010011110001111101000001111101101001000000000000000000000000000000000000
10001011011110001010101011011110000011100101110101100000000000000000000000000000000000000
1111111111111001011000010010011001111101001110101000101001000011010000000000000000000000000000000000
111011101000101111000011100101010100010011011111000110000000000000000000000000000000000000
1111111111110001110110111110110011111000100111000110010011110101000000000000000000000000000000000000
101110111011100110110000110001101111010000111010001000000000000000000000000000000000000000
1111111111111100011010101000101001010110010111100010111010001110100000000000000000000000000000000000
1111111111011100110011010100101011111010111111000101011110001110000000000000000000000000000000000000
11011100001111010001001010101100011101110111011011101000000000000000000000000000000000000
1111111111011100001001000000000110000010011000001010010001101000000000000000000000000000000000000000
100101100010011100000110000111000000111100011001111000000000000000000000000000000000000000
1111111111001101011100111100111001101101011101101010011101101010000000000000000000000000000000000000
1111111111111010110011100000100100010001110011101011110001010010010000000000000000000000000000000000
1111111111010100001111001010000111101110110100000101000100101110000000000000000000000000000000000000
1111100111010100011110011111000110110001110100101100000000000000000000000000000000000000
1111111111101101100001010000101111111011111110001011101100010001000000000000000000000000000000000000
11000111100101011011000111001000100101010001111101101000000000000000000000000000000000000
1111111111111100111001110001101101100000011111111010001010100110000000000000000000000000000000000000
10110001110110010000010001001000010111010101110111001000000000000000000000000000000000000
100001111001010000110000010111101000111111111001110100000000000000000000000000000000000000
1111111111110001101000100110011111111010110110101001011000100100100000000000000000000000000000000000
10001001110111010100111100101100001011100101011101000000000000000000000000000000000000000
110001010101110101111111111111000110100100100110001010000000000000000000000000000000000
1001100110100010100100111011100101011011111100011111000000000000000000000000000000000000
1111111111101101111000111000101010011111010110001101000000000010000000000000000000000000000000000000
1111111111100100110010110010110101100001010110010001011111110000000000000000000000000000000000000000
1010101110000111111110011100010100000000011101000101100000000000000000000000000000000000
1111111111010011001010110000111001000011011110110000101010100110000000000000000000000000000000000000
10000111000111001010011011100011110001010111011100111000000000000000000000000000000000000
10011110001000001100101100001110000101010101010110011000000000000000000000000000000000
10100101100001000001101010001011110111010010000110110000000000000000000000000000000000000
10000000100000010101010011110100001011110110111001000000000000000000000000000000000000000
1011111011111111011010011100010011001110111110100001000000000000000000000000000000000
1111111111010010100011010110011110100001001111100100000010001010000000000000000000000000000000000000
1111111111101010010101000010001010101101100011011010101000011101000000000000000000000000000000000000
1111111111001100000101110001011001110110101010011001001101100110000000000000000000000000000000000000
1111111111110001101101101000000000111011111011011101000001101011100000000000000000000000000000000000
1111111111101100001000110010011111111110100111010001000011100011000000000000000000000000000000000000
1000000011010110100111110000001001010110100111001010100000000000000000000000000000000000000
1101000010000000011110010001110000001011000010100001000000000000000000000000000000000
11100011110011111011011111110011001000011000001001101000000000000000000000000000000000
11000100010001010100001111010011100001110000111001110000000000000000000000000000000000000
1111111111100000100010010100000000110001010000001110101111000110000000000000000000000000000000000000
11001000011111110110100111111001100011100100100010010000000000000000000000000000000000000
1111111111101010001001101100101000001000010110011011010110110010000000000000000000000000000000000000
1111111111111000110110100011010000010101111011101010000111011101100000000000000000000000000000000000
1100111010100000011100111110000110101001010011110001000000000000000000000000000000000000
100111110010100011101101101111110010001101010001010110000000000000000000000000000000000
1111111111101011101110101010000001100000101000010011111010101011000000000000000000000000000000000000
1111111111010000101011101110001101000010000101011010101111110100000000000000000000000000000000000000
1111111111110100110110010101000000010101110100101100001010001010100000000000000000000000000000000000
1111111111100110111101000010011000000011000011011111010000111011000000000000000000000000000000000000
10011111100110111011000010001111000111100110101111111000000000000000000000000000000000000
1000101100110100101111001101010100111100010011001001000000000000000000000000000000000000
100010010111111111111101100111101100011111011111001010000000000000000000000000000000000000
1111111111010100100010111010001110101011101111110011011010101000000000000000000000000000000000000000
11111000101110101010101011000011110010000011001111000000000000000000000000000000000000000
11011001110100010010001111001100011101011111101000100000000000000000000000000000000000000
1111111111110111110000001000111010001101010011101111001111101110100000000000000000000000000000000000
110001000111111000101110011000000101111111000101001100000000000000000000000000000000000000
1111111111001110000101010111001101101100010101000001101100010100000000000000000000000000000000000000
1111111111110110010000000010101101111011111101001010101101100000000000000000000000000000000000000000
1111111111101110110000011101100111001011110010010111001111101101000000000000000000000000000000000000
1111111111101100001011010011110001111110110001110100110101001000000000000000000000000000000000000000
101010011100000001000111000000111101110100001000010000000000000000000000000000000000000000
10111110010001111101110101110110000001100100001000000000000000000000000000000000000000
110101110000000101100001100110100000010111010001101010000000000000000000000000000000000
1111111111010011110111110101010101110001000100111011001011111110000000000000000000000000000000000000
100011111001000000010000010111110111000111100001010110000000000000000000000000000000000000
10101101100110001010000011000111100010010000000000111000000000000000000000000000000000000
1000101100001001010001111110110001100011000001100111100000000000000000000000000000000
101111110101010101010011101101011100111000010001111010000000000000000000000000000000000000
1111111110110111111110110100110101110101001101011100000010010000000000000000000000000000000000000000
1111111111111100110100101101101110100000110001011010110001110011110000000000000000000000000000000000
1111111111101100111010010100111100011001010111101111001010101111000000000000000000000000000000000000
1111111111010100010100101011010110111001011011011101101001110100000000000000000000000000000000000000
1111111111101100011110000111111100001101000011011111001000011000000000000000000000000000000000000000
1111111111010001110010011100011110000010000101100010101000010100000000000000000000000000000000000000
1111111110111010110100000001011010101101101000111001001000110000000000000000000000000000000000000000
1111111111111010011011100110010001010101100111000011011101110010000000000000000000000000000000000000
1111111111100111011011010111100100011111011101100101110000101000000000000000000000000000000000000000
101110100001101110011000111110100111001000001101001010000000000000000000000000000000000000
1111111111110010001111001001011001100101010110100000000001110001000000000000000000000000000000000000
1111111111110100110101011010010010100001111111000100110110011101000000000000000000000000000000000000
10110101000001101000101011111010010011011101101001111000000000000000000000000000000000000
1111111111011001101000101110110101110010000010110010100000110000000000000000000000000000000000000000
1111111111111010000101011100100011010001100100010011101101001010000000000000000000000000000000000000
10010011100101101100001110111001100011000011001011100000000000000000000000000000000000000
1111111111010010010000011110111001101101101100110011010101100000000000000000000000000000000000000000
1011110011110011100101011001110000101111110000001101100000000000000000000000000000000000
101010010100010001000111011110010010111100110111101000000000000000000000000000000000000000
1111111111100101111110110110111101001111100100010110111101101110000000000000000000000000000000000000
1111111111101101111000100001010010011110100011110001100000000100000000000000000000000000000000000000
1111111111101111011110101110001100110000000010010011110010011000000000000000000000000000000000000000
101001111111111001100000111010110001000101011000111100000000000000000000000000000000000000
1111111111110110010111111111010110010011100111110110001101110011100000000000000000000000000000000000
11111001111001010010001000011101100000001010110001010000000000000000000000000000000000000
1111111111100001110111011011111000010011001111011000011101110101000000000000000000000000000000000000
10010101001011001001000110000010110111000011111111000000000000000000000000000000000000000
1111111111000100000010010010101001101101011100111100001000001110000000000000000000000000000000000000
1111111111111100011000101100010100001011011101100100001101011011011000000000000000000000000000000000
100011000111101011100001001000011101010001101011111100000000000000000000000000000000000000
101101110011011001111111010010110010010111101110101010000000000000000000000000000000000000
1111111111101011101011101010110111111111100110100100111111010101000000000000000000000000000000000000
1111111111101011111100011001011010000100100010001111011110010011000000000000000000000000000000000000
1111111111010111000011011000100001101001001011011001101011000010000000000000000000000000000000000000
100101010111101010110100010010101111111010111011001000000000000000000000000000000000000000
10001000101010001110011011101010101001000000110100100000000000000000000000000000000000
1111111111110111001011000101100100011011001111111011100101010100100000000000000000000000000000000000
100001001011100101111101011111000111111001110100111000000000000000000000000000000000000000
10110111010000101101001010100101101011001000100000011000000000000000000000000000000000000
1111111111111101001101011001100001110000000011110110010111000010001000000000000000000000000000000000
1111111111010000010101101110011010000010111100001001001011111110000000000000000000000000000000000000
1111111111111100010111001010011101000111101001100111010110101111001000000000000000000000000000000000
1111111111110101100001100100110100001101110000000110000001001001100000000000000000000000000000000000
1111111111110110101010100000001001100100110110010110010111011000100000000000000000000000000000000000
1111111111101001011000001011111111001110011001001100000101001001000000000000000000000000000000000000
1111111111011101111001111001111001100110010011100111001000001010000000000000000000000000000000000000
10101001011111110000001110000100100110001101011000101000000000000000000000000000000000000
101101000000000011000011001111010010101010011001101100000000000000000000000000000000000000
1111111111110100111000001101101010100100111101101010100010010100100000000000000000000000000000000000
111000110100001011001101111110010101010101011100111010000000000000000000000000000000000000
11011101110110111000010101001100100110100110110010011000000000000000000000000000000000000
1111111111100011101000100010000000111001110111101111010111111110000000000000000000000000000000000000
11001101111011011010100001111011110001010011100101110000000000000000000000000000000000000
11011001000110011011010000111101111101010000101001011000000000000000000000000000000000000
111001101010100110000001101101110010011100101011001100000000000000000000000000000000000
1111111111111010010010010011011110111110110101101111010011010100100000000000000000000000000000000000
1111111111101000010001000110111101011110010010000110001111111001000000000000000000000000000000000000
100001000000010110000101100011000011011111000011011100000000000000000000000000000000000000
11011101110010100101000001100111111111001000010001011000000000000000000000000000000000000
11001001111000101111110000010101010110100001001110111000000000000000000000000000000000000
1111111111100001100001000011110001110010011001101100000000011100000000000000000000000000000000000000
1111111111100111001101000110001000010000000110110110111101110000000000000000000000000000000000000000
1001011101010110010000110001101110011010111011110111000000000000000000000000000000000000000
110010111000100000111000010101111100010010001011111000000000000000000000000000000000000
1100101011100001000010110011101010010111111001111101100000000000000000000000000000000000
1111111111111001001101101011100000001101101000101000111111111011010000000000000000000000000000000000
1111011110111000011001011001100101011001101101010000000000000000000000000000000000000000
1111111111011100110100100111110110101001001000001101101000110110000000000000000000000000000000000000
10010111000001110100001111101110101111001000010110111000000000000000000000000000000000
1111111111110011001101011111100100011001101100100001010001001000100000000000000000000000000000000000
1111111111101011101110001010000011010001011000100100011110000100000000000000000000000000000000000000
1111111111101100110101001100011010100000011100101001101111011111000000000000000000000000000000000000
100011100111001011101010111100011100011101101010100100000000000000000000000000000000000
1111111111011101011100101100011010001110100010110101001111000110000000000000000000000000000000000000
1111111111100001011101000000010001000000001001110010011010001110000000000000000000000000000000000000
1111111111101100001110101000001110110011010100001101010111100000000000000000000000000000000000000000
1101111001100101101101100101101010101011000010010010100000000000000000000000000000000000
10111100001000111110001111011110000100001110000110101000000000000000000000000000000000000
1111111111111110110110000110000110000100111100010111011110011001011100000000000000000000000000000000
1111111111110110110101110000001001100101110000010101111101001110000000000000000000000000000000000000
1111111111100010000101111110100010011110110100010110111111010100000000000000000000000000000000000000
10101000010111010001000001001000010111100000011011010000000000000000000000000000000000000
1111111111100000001101011111011000111101011101101110001111110000000000000000000000000000000000000000
1111100101001101000001100110100010110110011100101010000000000000000000000000000000000000
111100010100100011100011001110110001011000111110110000000000000000000000000000000000000000
1000111000001111101111000100101000101100010111001011000000000000000000000000000000000000
110111011010000111010011110011011011111001001100100100000000000000000000000000000000000
11000000101011100001111000001111100011101011111111001000000000000000000000000000000000000
1100111000011001010000110010001110110101000010000101000000000000000000000000000000000000
1111111111111101100110111110010110110010101100001001100100100000100000000000000000000000000000000000
1111111111101001011001100000100111100001101000100010000010110101000000000000000000000000000000000000
1111111111111100001111100011011000110111001011101001011010010011000000000000000000000000000000000000
10110101000110001001000001010100100101100101011010100000000000000000000000000000000000000
1111111111111111100011010010110011010101000111000110100010110110011111000000000000000000000000000000
1111111111011011010011110010011111101000111001010010100110100010000000000000000000000000000000000000
1111111111011011010010001001110001101110111001001110111010111000000000000000000000000000000000000000
1111111111111001100101010011110101011110111110010110100101010000110000000000000000000000000000000000
1100100010000000101111110010100101101101111000110110100000000000000000000000000000000000
111011001011101001000101101100110100001100010011110010000000000000000000000000000000000000
100011101010111110011101100111001110000010111100011100000000000000000000000000000000000000
101001110010001111010101111000000110110110010000001010000000000000000000000000000000
111101100001101111010110000001101111110011000010000110000000000000000000000000000000000
1111001010111100011001101110110100011001100100001100100000000000000000000000000000000000
1010100111100100011101110010010100001101101001001111000000000000000000000000000000000
1111111111111111011001101100011001001101101011111100001011100010001010000000000000000000000000000000
100100001010000010111010011111010111101111000000011000000000000000000000000000000000000
11111010111101111110101000000010111001110110011000100000000000000000000000000000000000000
1111111110111010011111010010111010101110111101011000110100110100000000000000000000000000000000000000
1000111110001110111100000011000111001001110111011010000000000000000000000000000000000000
10101001101110101100110111101110000011011000110010111000000000000000000000000000000000000
11000010110001000010001100010000001111000100111110000000000000000000000000000000000000000
1111111111111011010110100011010010001001101110011111010111111010010000000000000000000000000000000000
11111010111111101010101001011111111010111001100000000000000000000000000000000000000000
1111111111110000100100111000111000011101100101011110001110101100100000000000000000000000000000000000
1111111110111111111110101010000100111101100001100110011101000100000000000000000000000000000000000000
111110110101001000100101111111001010011011110001101110000000000000000000000000000000000
10001100110111010110011010100110011000001001011010101000000000000000000000000000000000000
1111111111100001010101110000111001011101111001110101100110011000000000000000000000000000000000000000
111101011010000001111011010101010110111001111111101010000000000000000000000000000000000000
1111111111111011001010010011010000010001001011111111110010101101010000000000000000000000000000000000
1111111111101100001011010111000111010101001100100111100100100011000000000000000000000000000000000000
101110000101001011111111000100001101001000011010000000000000000000000000000000000000000000
1111111111110111001001100001100001011001001001001100000010110101100000000000000000000000000000000000
10010000110100100000011010101110011010010000011000111000000000000000000000000000000000000
10011001000000110000111110011000001110000001011100110000000000000000000000000000000000000
1101111111111100001111011000100001101110000000101100100000000000000000000000000000000000
1111111111111000011111011011111110100001100100110100111110011001000000000000000000000000000000000000
10100010000000110110000000111111011111101100011000011000000000000000000000000000000000
1111111111111001000000101001011111010001110111110010000100100001010000000000000000000000000000000000
1111111111111000101101110011111111110010011100010100110011100000110000000000000000000000000000000000
1111111111111000010001001101001101001011110101110001011110111000110000000000000000000000000000000000
1111111111101111011010000111101100000110111000000101111000010110000000000000000000000000000000000000
1111111111100100101011100111110110010110010011100101100000001111000000000000000000000000000000000000
100010010100010100011101000101000100111101001011110000000000000000000000000000000000000
110110101101010000111011000101000011110000001100000010000000000000000000000000000000
100010101101011100011111100101010111001110010101000110000000000000000000000000000000000000
11000101000100100100111001100110000001000000011000001000000000000000000000000000000000000
1010001100101111000010000111101011001100100110111001000000000000000000000000000000000000000
111101111010111010001010111000000101011000011011010000000000000000000000000000000000000000
1101100111111000101000111000000111001000111010111001000000000000000000000000000000000
1111111111110101111110001001010110101111100010011011111110110001000000000000000000000000000000000000
101011010001101011101100110110110110100111101011001100000000000000000000000000000000000000
101011101100011011100110110100010111111001100000100010000000000000000000000000000000000000
1111111111001010000110110011110111010001100110101000110011011010000000000000000000000000000000000000
1111111111101011000010010011100111100001100001111110100100101110000000000000000000000000000000000000
11011111100111011000000111001101110101010010001101001000000000000000000000000000000000000
101101101000011010001011101111010000101001110011011110000000000000000000000000000000000
1111111110110111000011101010111100111101000101100010011100110100000000000000000000000000000000000000
1111111111111101111100100010010011000011001111110110000101011011000000000000000000000000000000000000
1111111111110111101111100101101011011010001100101011010011010110000000000000000000000000000000000000
1111111111110111011111000111110111000110100100010010111100011010000000000000000000000000000000000000
1111111111111101011000001010001111110110101111000101010001010000011000000000000000000000000000000000
10001000101111011000111010001000000000110000001110100000000000000000000000000000000000000
1111111111100010110111011001110101000001001100101000011001010111000000000000000000000000000000000000
1111111111101111100000101000101110100101001000101110111001111010000000000000000000000000000000000000
1111111111011100110000011011010001110001000001011101111111111100000000000000000000000000000000000000
1111111111101001100100111100011111100101011010100110000110000101000000000000000000000000000000000000
1111111111100101001110110000000100100110001100100100101111010100000000000000000000000000000000000000
10000100011110011111000010000001110100101010001101101000000000000000000000000000000000000
1111111111101001010001011011001110111100110111101110011111110011000000000000000000000000000000000000
1111111111000100101010010000111011000000000100110000011010110100000000000000000000000000000000000000
1010111000010001000101100111101000101011111111111000000000000000000000000000000000000000
10011001111101001010100000101000011110011011000001011000000000000000000000000000000000000
100101011100111001000100111101000010000111101100100100000000000000000000000000000000000000
10000101110100110101000011100001111011100011100110111000000000000000000000000000000000000
1111111111101010011001110111000111110101010010011110100001010011000000000000000000000000000000000000
101011000000111100000000000101001011010101110011001000000000000000000000000000000000000
1010110011011010010110010101110011111100011011011001100000000000000000000000000000000000
11011010100111111000000111100000000110110011101001001000000000000000000000000000000000000
101000010111111011000011011011110111011110010000100100000000000000000000000000000000000000
1111111111101110000101101010100011010100010110001011011111100111000000000000000000000000000000000000
10110100100101110111101111000101000110010110100101110000000000000000000000000000000000
100110000101111011011011111011100011100100000011010010000000000000000000000000000000000000
11001011011110100111100101100010101100110001101100011000000000000000000000000000000000000
1111111111110001000101000001101110101110111000011111010001001111000000000000000000000000000000000000
1111100110100011100111101010101011000111000110000011000000000000000000000000000000000000
1111111110110111010010110110111010000110100010101100000110010100000000000000000000000000000000000000
1001010110001101101100001000111001100010000010101110000000000000000000000000000000000000000
1100000110000010011011000110110110100011110011001111000000000000000000000000000000000
1111111111011000110100010000110011000001001000010100000101001010000000000000000000000000000000000000
1000100011111111001111100000001100110011001110011111000000000000000000000000000000000
1111111111100010101000110100010110011101101100000100100111101000000000000000000000000000000000000000
11110100110011111000111010100000011101011101010000000000000000000000000000000000000000000
1111111111111110101101010010110011010000011110100110110100001010111000000000000000000000000000000000
1111111111101110101001001101111001101110001110111001100001011111000000000000000000000000000000000000
1010000100101011110001011101110010001110101110000000000000000000000000000000000000000000000
1111111111101010111110010010111011100010011111001000010111101011000000000000000000000000000000000000
111111101110101001011011110111001100101001110100101000000000000000000000000000000000000000
1000000101000001000101011111010011000110011100011001000000000000000000000000000000000000000
11101110000001111011111000100010001101010001000110011000000000000000000000000000000000000
1111111111001111111000001110011000001101000100000001110011110100000000000000000000000000000000000000
1111111111111111010000010100100011100111100111010000010000011011101110000000000000000000000000000000
11010110000101110010111100000010110110111011001010111000000000000000000000000000000000000
1010001101000110000010001111110110000010001011010110100000000000000000000000000000000000
1111011101001011101111010111001000000000010100111000100000000000000000000000000000000000
10110110010101011110011100101000001010111100101011011000000000000000000000000000000000000
11000010110010100111111000100100101110110100000111111000000000000000000000000000000000000
1111111111111100101110100101001001111001010110001101101100111011111000000000000000000000000000000000
1111111111001100101101111100100010101100110000001010000001000100000000000000000000000000000000000000
1111111111110100000010101110001001101000000111101001101111000110000000000000000000000000000000000000
1000110001111011010011000110001100111010010100110110100000000000000000000000000000000000
1111111111101011001010101000111100111101001111010010001000110000000000000000000000000000000000000000
101111010010000001000111010011000010111010011110100100000000000000000000000000000000
1101000100010101110000000110000001001011010111001100100000000000000000000000000000000000
1111111110100100010101111010101000110000010011110100111011001000000000000000000000000000000000000000
1111111111110101101000110011011001001111110111110110110000111011100000000000000000000000000000000000
1111111111100111000000001011111010010001110011110111101101110111000000000000000000000000000000000000
10000100110001010001101001011001100101100001011100111000000000000000000000000000000000000
100111010100010000110110010000011010101100100110101010000000000000000000000000000000000000
1001011001110010000010010010000110001111110010111111000000000000000000000000000000000000000
1111111111011100001101010110110000110111111001110001011010000110000000000000000000000000000000000000
1111111111001111000001110001010001110001001010011111000010011110000000000000000000000000000000000000
110010101011111011001101111010101010001110010000100110000000000000000000000000000000000000
101000010110011000010110101001000001010100001001001000000000000000000000000000000000000000
1111111111110010110001101011001110000111110011111110010000000000000000000000000000000000000000000000
1110111010111010000100110010111011011100000100000001000000000000000000000000000000000000
1111111111100110110101100000000110100110000110010000000000001010000000000000000000000000000000000000
1111111111100011000010000100000111100101110100101110100101001110000000000000000000000000000000000000
1000010110111001011100101011000011110010010100010111000000000000000000000000000000000000000
101101101001010100000011110011000010111000010111111010000000000000000000000000000000000000
1111111111011101000010000010000110001110000000010101111101100110000000000000000000000000000000000000
110111101101110010110100110100100110100101110001000100000000000000000000000000000000000000
1111111111001011100001110011100010000000100001000111011111110000000000000000000000000000000000000000
1111111111100100000111110100001000110010100011101010100100111110000000000000000000000000000000000000
1100011111100011011010010110111100110010101111000111100000000000000000000000000000000000
10001100011000000101100000011111101100011011000011101000000000000000000000000000000000000
1111111111111001001011100110011111000100000100110101101110010010100000000000000000000000000000000000
1111111111001010011111001101000000001101010101001111010100111110000000000000000000000000000000000000
101001101101001110101011001111110011110011110000101110000000000000000000000000000000000000
11011110010110001110011110001001111101101101010000001000000000000000000000000000000
11111111001000111010011010110110101000001101100100001000000000000000000000000000000000000
1111111111101100111100101001100000001100110001010100011101010110000000000000000000000000000000000000
1111111111000001001100111011010011110000011100011001101101111000000000000000000000000000000000000000
10011000110110000100000001110010111011101110110101010000000000000000000000000000000000000
11010010111011110000000101110110000101010000110100011000000000000000000000000000000000000
1111111111101100001100010110000011010111111100101101001011100101000000000000000000000000000000000000
10000001000011000100100001000110111001100010100010010000000000000000000000000000000000000
11100100010010111011100101110010111000001100000100001000000000000000000000000000000000
1111111111010000111110100010001010011010010010010000110110001010000000000000000000000000000000000000
1111111111011000010100110011010000100111010110101001001010100100000000000000000000000000000000000000
1111111111111100001100111001011000010100011010010010101100111100101000000000000000000000000000000000
1111111111001100110110110101010001100101101110011110101010101110000000000000000000000000000000000000
1111111111011010110010101111000110000001001001011011100101011100000000000000000000000000000000000000
1111111111101010001010101011001111100100001110100011011111101101000000000000000000000000000000000000
1111111111011011010111110011011011100100011011111110111011010110000000000000000000000000000000000000
1100111001000111101101011010011100100101000111110000100000000000000000000000000000000000
101101101001101100011011011110001110100001001000100010000000000000000000000000000000
1010001110100100010010000111010011011110111101111011100000000000000000000000000000000000
110010011101001101100011011001000100000000011010001110000000000000000000000000000000000000
11100010101111010001000101110110101110101100010001010000000000000000000000000000000000000
1111111111011100010100000110101100101100010110110001011100011010000000000000000000000000000000000000
1111111111111111011110111001001011010110111001000001101001011101110100000000000000000000000000000000
11100100011100110110011101110011001001011100001100100000000000000000000000000000000000000
1000010100101001001101001101100101110100100101111100100000000000000000000000000000000000
1111111111010100010100100101011100000101111111001000101011000010000000000000000000000000000000000000
1100000001111101001000101100101101000001010000000001000000000000000000000000000000000000
1111010100000001111010000100110010010010110010000100000000000000000000000000000000000000
100110111100011010111111000010011110001010101011100010000000000000000000000000000000000000
1111111111011100011010011111010000010110001101010000101010001000000000000000000000000000000000000000
1111111110110111000110000111010001010100111010011100101001111100000000000000000000000000000000000000
101101110110010000000001101100011000010010010011010010000000000000000000000000000000000
1111111111111111011101111001101011110100111011011101101001110010100110000000000000000000000000000000
10110100100111100011100001001111011110001101010011000000000000000000000000000000000000000
11011110110101101111011011000110010110101101010111111000000000000000000000000000000000000
1100000111111101101101000010101011100010011110000001000000000000000000000000000000000000000
11000000010010010000101100101001001001001000101101111000000000000000000000000000000000000
111101110011101101000100110100000011110110100101111100000000000000000000000000000000000000
101010101011010101010000000011000110001110101111000100000000000000000000000000000000000000
1111111111111110001001111000101010001011100100100001100100101010000000000000000000000000000000000000
100000101110000010100010101001111000011101101100001000000000000000000000000000000000000000
11110001010110110101010001100110000110110111010111111000000000000000000000000000000000000
100100110010101001011000100010010001001001100000111100000000000000000000000000000000000000
1111111111011110100111110110101100011000110101111010111010001000000000000000000000000000000000000000
1111111111100000011110001010111100111001001001110101001000010010000000000000000000000000000000000000
1111111111101000010111001111110010010001111011011101000011100111000000000000000000000000000000000000
1111111111111110001011011111110111010111111110011110010000101000110100000000000000000000000000000000
1111010011011111010111101001111110111111111111101101100000000000000000000000000000000000
11000100000001111100000010010110111011100001011100100000000000000000000000000000000000000
1111111111111110101100110011001101010100011011110001110011001000110100000000000000000000000000000000
11100100001001000000000001110101111011110111010000101000000000000000000000000000000000000
1111111111010100010111111101100011111111100111100100011101001110000000000000000000000000000000000000
100100001100100111111100111011011110010010101001011110000000000000000000000000000000000
101001101001111000010101011100110011110000010110000100000000000000000000000000000000000000
10001000100111111101011111111110000101100100001010100000000000000000000000000000000000000
111000101011100111000110011101011111100110001110100010000000000000000000000000000000000000
1111111111101111001010011010111010101111000111010100101111100111000000000000000000000000000000000000
1111111111101000000011100001110011100010110011101111000001011111000000000000000000000000000000000000
1111111111000011111010000011000011001010110100110011001010001010000000000000000000000000000000000000
1111111111011110000001011100010010000100000101011000110101111000000000000000000000000000000000000000
1111111111111001100010110111110010100001001000110010100001101001000000000000000000000000000000000000
1111111111001100111110100111101011001011001000110110011010100110000000000000000000000000000000000000
111101111100001001000110100000000101000110010010000000000000000000000000000000000000000
1111111111110100110101111001010111100010100111101001010010100100000000000000000000000000000000000000
1111111111011110100011110000111110111011100111110000001000001000000000000000000000000000000000000000
1111111111010000010001100101001000010111100111110001100101110000000000000000000000000000000000000000
10110001101011010110101100111100000011111000101101011000000000000000000000000000000000000
1111111111011010100100011001111001011011111111011101011100010100000000000000000000000000000000000000
101010110111100011111111011011001101010101011111011000000000000000000000000000000000000000
110011001110000111000010101111101001000101110110011100000000000000000000000000000000000
1111111110111111110111000010111111100101100111111111111001001100000000000000000000000000000000000000
1111111111101110110001101110001001100101100000000010011001100110000000000000000000000000000000000000
1111111111100001111100011000000101100000000001101110010011011100000000000000000000000000000000000000
1001111100010101001011001001101000000100001100101010100000000000000000000000000000000000
100011111000000110101011000011001000110110110111111100000000000000000000000000000000000000
1111111111111010100010000111000010011011011011000111010011111010000000000000000000000000000000000000
1111111111111011011011111101001101010110000011110001101001100010010000000000000000000000000000000000
1100000010110000111000011101100001011100001001110011000000000000000000000000000000000000
1111111111011111111010001110000001100111101000010011100101000110000000000000000000000000000000000000
1111111110111100111011111001101001111001011110110011011111101000000000000000000000000000000000000000
1111111111011100111010011011011111011000001101110011010101111000000000000000000000000000000000000000
101010100010110000101100101000101110011111110010001010000000000000000000000000000000000000
1111111111111110000100010100001100001110001000101101110001000011111000000000000000000000000000000000
11100011011111001101001101000000010001011100011111001000000000000000000000000000000000000
1010010100111110111001001010101010110000111100011010100000000000000000000000000000000000
101101011100110001100010011011100100100011110100110000000000000000000000000000000000000
1001000011001110001001100000011101011011111011001010100000000000000000000000000000000000
1111111111000011111110010011110110001001101000101010000111110110000000000000000000000000000000000000
1111111111000100011000111000110100100000010101100100111001111110000000000000000000000000000000000000
1111111111101000110111101110011010001100010011100111011101000000000000000000000000000000000000000000
100111001110000001000111110000000101111011001001110100000000000000000000000000000000000000
1111111111011111011010100100110001010010100000101010010101000110000000000000000000000000000000000000
10110010111001011110111110100100010000011011100001011000000000000000000000000000000000000
111110010000010001000100101101000110010111001000001000000000000000000000000000000000000000
1111111111101001000010010111001100001001100110111000001111011111000000000000000000000000000000000000
10011011110010000011101000000111101101111111011111100000000000000000000000000000000000000
1111001110011001111101010001000010101000101010101000000000000000000000000000000000000000
1111111111111001000101110010011001110100110000100011111011111001110000000000000000000000000000000000
1111111111001011000011111110011001001100100000011101000101100000000000000000000000000000000000000000
1111111111011011101010100001000010010110011010011011000000011110000000000000000000000000000000000000
10000011011010111111001111100001011010111001111010010000000000000000000000000000000000000
10011101101011100111010011111011110001011000111001011000000000000000000000000000000000000
1111111111111001111110001111100111111001100100001011110100000101100000000000000000000000000000000000
11100001101001100010111011110100001101110010110101111000000000000000000000000000000000000
101001111110100101011100111001110110001000110010000100000000000000000000000000000000000000
1111111111011011101110010000011101010100011010110001100001100110000000000000000000000000000000000000
1111111111110000001011101001011111001010010010010110111011110111000000000000000000000000000000000000
1111111111101110000001001000100101110011101111110011001101001101000000000000000000000000000000000000
100110100101111101110111111100110000010111001011110000000000000000000000000000000000000000
101000000111011111111010010101001110110011001110101110000000000000000000000000000000000
1111100111011100110010111111111000100010001001110111100000000000000000000000000000000000
1111111111011111101100000010110100100110011101100001010101101100000000000000000000000000000000000000
1111111111111101111010010000111100100111001100111110111000000101001000000000000000000000000000000000
1111111111100110010110110110001101101001010100100101000111111100000000000000000000000000000000000000
1111111111010010011110111100011110101101100011000100010101000010000000000000000000000000000000000000
1011100111100110110011001110010011011000011001011101100000000000000000000000000000000000
101101101111101010010011001010001100011111000010101100000000000000000000000000000000000000
10111111101100000110000000010110111110000110000100010000000000000000000000000000000000000
1111111111111001110111101001001010100001001010001111010011101110110000000000000000000000000000000000
100100011011010011000110101111101101100010100000100110000000000000000000000000000000000000
1111111111001010011010100100111001000010110001101000101101011100000000000000000000000000000000000000
1111111111010010010001001001000010100100100101111011110010011100000000000000000000000000000000000000
1111111111111011100101101111111011100011010110011010011000111011010000000000000000000000000000000000
1111111111101000011100100100111110110100111101100011011111001001000000000000000000000000000000000000
