111111011100010110001110011111000010111000111000001010000000000000000000000000000000000000
1111111111110001011011110111111010000010011101001101000011000001000000000000000000000000000000000000
1111111111010100101110111011001001101001010011011100101110000110000000000000000000000000000000000000
1111111111001000101011111111000101100101000010011010001000111100000000000000000000000000000000000000
1111111111110001010100010010000011111111011110000101010111010110100000000000000000000000000000000000
1111111111101111011010100101100001000010110100100001101000111010000000000000000000000000000000000000
0
101001010010110011010111101010111011000101010000111010000000000000000000000000000000000000
11000100011011111111101010111001100011101100000101011000000000000000000000000000000000000
101000110101101101011101110001010100011101101110001100000000000000000000000000000000000000
1111111111011011111110110010110010101011111111100110111001110010000000000000000000000000000000000000
1111111111100110001111101111110110010111000001010101010010100110000000000000000000000000000000000000
1111111111011101011101010110111111011000011010100001000001111000000000000000000000000000000000000000
1111111111101100011100110000000101011110000000110011101001010000000000000000000000000000000000000000
10101000101000111100000111001000111000101100010111101000000000000000000000000000000000000
1111111111100111100001011011000101010000000100101111011110110011000000000000000000000000000000000000
1111111111111111100101010111110110101011100000011111100111101011110110000000000000000000000000000000
10111101110111000010001001101101111111101100000101011000000000000000000000000000000000000
10110000100101100111000101111010101000001110000110100000000000000000000000000000000000000
1000011001011001011111011000010001111000000101110100100000000000000000000000000000000000000
1111111111111000011100100001010100111011010010010011001000110101010000000000000000000000000000000000
1001010100101111010101111000001110010101111101101010100000000000000000000000000000000000000
1111111111011010000010100001100111101110000111001110010000110000000000000000000000000000000000000000
10110101001010000110001100111010001101000000010100101000000000000000000000000000000000000
1001010000001011100100110010110000101110100010000110000000000000000000000000000000000000000
1111111111111010101110011110110101111001001011011010110111111110110000000000000000000000000000000000
1101001010011010001111000011000000001110110110010010100000000000000000000000000000000000
100100111001010010001111101101011101101110000011110010000000000000000000000000000000000
1111111111100101001000001110101010101000101110101011111011101101000000000000000000000000000000000000
1111111111011011011011011111111000000010011111111100001111100010000000000000000000000000000000000000
100100110110011001100111010000111010001100011111110000000000000000000000000000000000000
101111101110001100000001100101110000011111010100010000000000000000000000000000000000000
101100011010100000001010011100001110111011001100110110000000000000000000000000000000
1111111110010100011001000101101110000110100110111100011001000100000000000000000000000000000000000000
1111111111110011011111111001011101001001011000101001000011001000100000000000000000000000000000000000
1111111110110011011101000001001101111100001110011100010100010100000000000000000000000000000000000000
1111111111101000110001011110000110111110101110100101111101011001000000000000000000000000000000000000
11011101000100010101001000000001001111011100011011100000000000000000000000000000000000
11010110001001110101100010111111110110111000010000011000000000000000000000000000000000000
1111111111011111010110101111110110011001100001110000010001011110000000000000000000000000000000000000
1111111111111110110001001110011010010010001000011011000111010000011100000000000000000000000000000000
1111111111110111000100001001101100100101010011110010010010000101100000000000000000000000000000000000
1111111111101101110101011101010101011010100101111110000110101101000000000000000000000000000000000000
100000110110111011111111010000011011000110000010100010000000000000000000000000000000000000
1111111111101011111010110011110101011001010000100110111110010011000000000000000000000000000000000000
10011111001110110100010010000011011010001000001011000000000000000000000000000000000000
0
100101111111001111011110101000110010011000010111110010000000000000000000000000000000000000
1111111111101111101111111101100010110011110011110100010011010011000000000000000000000000000000000000
110110110100111110000101001000000010100000100000011110000000000000000000000000000000000
10000110110110101100100111011101000000011011000010110000000000000000000000000000000000000
1111111111101001111000010100110111000101000010100011000001000011000000000000000000000000000000000000
11001010110101110111010100100000010101001110110010100000000000000000000000000000000000
10010111001000101100101111110111110111110111110010101000000000000000000000000000000000000
11100001110011101001010000001101101101111010001111100000000000000000000000000000000000000
1111111111110101111110010101001000001101111111111000001000011001000000000000000000000000000000000000
1111111111100001101110000011100010101011000101111001001111010110000000000000000000000000000000000000
1111111111001111101000100100110100100000010101001111111111101110000000000000000000000000000000000000
10010101001001111101100000101101001010010010000110011000000000000000000000000000000000000
10011110110001110000011000001101010110000001000000100000000000000000000000000000000000000
111000000001100110101011010010100001000010111100101110000000000000000000000000000000000000
1100000011111111000101000001100010000111001101100010000000000000000000000000000000000000000
1111111111111010010001101010110110100001101101100010101011000101010000000000000000000000000000000000
1111111111010001000001000100111111110111010100001001011011100100000000000000000000000000000000000000
1010011100001100100100011011100110111101010111001111000000000000000000000000000000000000
100011100000101010011001010101111110001010010111101010000000000000000000000000000000000000
1111111111011010010101011001100111101010000100111100110101010110000000000000000000000000000000000000
110001101011010010101101100100011101000100011011001010000000000000000000000000000000000000
100011010010000101001111100101011100100110101111101000000000000000000000000000000000000000
1111111111010100101011101011101100000110001111011101010001110110000000000000000000000000000000000000
1111111111111010010000101011100110011010100110010011011010101101000000000000000000000000000000000000
1111111111011100011110110000110110100001000000111110110100010100000000000000000000000000000000000000
10100010101001000110011001110110000100010101110010010000000000000000000000000000000000000
1111111111011101110010001010100110000110111001001111011110011010000000000000000000000000000000000000
1011000011001001100101101101100101110000000111110010000000000000000000000000000000000000
1111111111111110111111000001111101011110100110010001001010111000011000000000000000000000000000000000
1111111111111011011111001111000001011100011101000100110100000011010000000000000000000000000000000000
1111111111111101110010111001101111101100001101100101011001100100011000000000000000000000000000000000
11011101100110101101111010110000010101100100011000110000000000000000000000000000000000000
110011101100100010011101100111011101110011010001001000000000000000000000000000000000000000
1010001010101011001010010000000110000110010101011110000000000000000000000000000000000000000
11011111000000111101011101100000111011010010111110001000000000000000000000000000000000000
100100101100111010101110101010111111000101110111100110000000000000000000000000000000000000
1111111111101001100011110001011110000111110010000010000010110100000000000000000000000000000000000000
1111111111000100010111110000110101000010101000000001100100110000000000000000000000000000000000000000
11000101010011110011001100000111000010000000000101110000000000000000000000000000000000000
11100110010001001100000001110010001000001011001101100000000000000000000000000000000000000
1111111111111100110001110000111011011110100011110110110001100110000000000000000000000000000000000000
1111111111011101110000010100101100110011000000110101011001101000000000000000000000000000000000000000
11011011111100111011001110111001101100101111101001111000000000000000000000000000000000000
1111111111110111100100111100111000100110111000010110010010100010100000000000000000000000000000000000
101100110111100011100100100001011110010100111010110010000000000000000000000000000000000000
100010000010011011110101111011011010001000111011000110000000000000000000000000000000000000
110011011110001001000100110011011010101110010110001110000000000000000000000000000000000
1000010000100101110010010010001101000100100001100111000000000000000000000000000000000000000
1110001111110100100111001011111101111110101011100100000000000000000000000000000000000000
1111111111011010100010001111110111011110101111011101110011111100000000000000000000000000000000000000
1100101100100010101100000011101010000000011101000111000000000000000000000000000000000000
1111111111111001000101100110011101000011011110111011100111101101100000000000000000000000000000000000
1111111111101011110000101010001101101110011011010111011011000100000000000000000000000000000000000000
100011001100001101001110000100000110100110111001101010000000000000000000000000000000000000
11100110110100011111101110100110001001100100011011111000000000000000000000000000000000000
100111100110101011010101011100000001111101111011011010000000000000000000000000000000000000
11111001111110010010111011011011101111110110110111011000000000000000000000000000000000000
1011101101111100110010010011101000000011001110101100100000000000000000000000000000000000
1111111111111001010010001011010000111110010110011010101000000000110000000000000000000000000000000000
100100001101111100101010110001101011101110011110101110000000000000000000000000000000
1111111111110111011110011100110011101101011001011011111111001011000000000000000000000000000000000000
110010010011011101101110110110111101101110011011101000000000000000000000000000000000000000
1111111111100101111000111001101010011001110110011100100111001100000000000000000000000000000000000000
1111111111000010110111111000000111100100110111011110111110001010000000000000000000000000000000000000
1111111111100110010100101101111111011111100000111101000100001011000000000000000000000000000000000000
11011000000101111001000011101110101100100001111100111000000000000000000000000000000000000
1111111111011001101000111100101100100001111111111001000001000110000000000000000000000000000000000000
1111111111111110011001101110010101110100011001101011111001101101011000000000000000000000000000000000
111011100011101110001001100110101000010111001110110110000000000000000000000000000000000000
1111111111100001010100001101101100000110010001111110100111000011000000000000000000000000000000000000
1111111111101111010011100101101010001010010011110110011110100110000000000000000000000000000000000000
1111111111100010000001110111110001100101001101101110010001110000000000000000000000000000000000000000
1111111111101001001011101010001100110101011000001111100011110000000000000000000000000000000000000000
1111111111110010101010010111101111101011110110000101110101110001000000000000000000000000000000000000
1111111111011100110110100001111111110001001111101000111101001010000000000000000000000000000000000000
1111111111010100100000010100111010100000011110001100001101111000000000000000000000000000000000000000
1111111111100001010111111000001101011011001111011101010110101000000000000000000000000000000000000000
1111111111010001000011010011100011001111001100101100010011010100000000000000000000000000000000000000
10101101100101100100010101100111011001110011111100010000000000000000000000000000000000000
1111111110100110111110011000100100001110111000011110000110110000000000000000000000000000000000000000
1111111111011001010010111000010001000011101011011010110010111100000000000000000000000000000000000000
1111111111011010100011100101100000010100000100111010101111111000000000000000000000000000000000000000
1111111111101100001101010101011001000001100100010010000010010111000000000000000000000000000000000000
1111111111101011000101001101111100110011001101100100100011101110000000000000000000000000000000000000
101010000100010100101010110100010111001000110000100110000000000000000000000000000000000000
1111111111110010111111010001011110111100101101001110000101001011100000000000000000000000000000000000
1111111111001000010001110100000101001000111101001100111100100000000000000000000000000000000000000000
1111111111101010101111011000100110100110011100011000110001000001000000000000000000000000000000000000
1111111111100000101111011001111010111100110011011101110111101111000000000000000000000000000000000000
1011101100110111110110011100111110111010101111101100100000000000000000000000000000000000
1111111111111100110010001010011111110010111110100001011001000001000000000000000000000000000000000000
100110010011101010010110101100110100111101110001100010000000000000000000000000000000000000
1111111111011101110101100110010010111111011111001110010101010100000000000000000000000000000000000000
11111110101100100111010101111111101010101111010001111000000000000000000000000000000000
1111111111100111111100110010001000000000011011010001010001000000000000000000000000000000000000000000
11111001101011101101110111100111110111101101010010010000000000000000000000000000000000000
1111111111101111010101100111000100011110100101010101010100101100000000000000000000000000000000000000
11111101001110110110000110101011010110000011001011101000000000000000000000000000000000000
1111111111110100101000000011110111001011111011100100000001000011000000000000000000000000000000000000
1111111111110111101101101101111110011100101100001001000110101011000000000000000000000000000000000000
1000100001000111111100101110010100010110010010111101100000000000000000000000000000000000
11101110110000100000101010010100101110011011110011100000000000000000000000000000000000000
110111111111000111000100101001000111010011100011011000000000000000000000000000000000000000
1001001000111110111000100110001111000101111010000001100000000000000000000000000000000000000
100011010101001110010100101010011010100101100111000110000000000000000000000000000000000000
101100001010101001010000011011011001101101000001111000000000000000000000000000000000000
10100101001101100100100100000001001011001110010100011000000000000000000000000000000000000
1111111111100000011110100111000111010000001010001111000100100000000000000000000000000000000000000000
110010000100001111101110100100111100000010000011110110000000000000000000000000000000000
1111111111011000001001000000010110000000001100111010111000100110000000000000000000000000000000000000
11001000101000000111010011111010101010110111000111000000000000000000000000000000000000000
110100011000000100001101100101100101111100100110110110000000000000000000000000000000000
1111111111101110000110101111110001000011111110001011011000100011000000000000000000000000000000000000
1111111111110011101111001011110000000100011010101100011110110001100000000000000000000000000000000000
100010000011000100100110011110100010001101111011100110000000000000000000000000000000000
1111111111110000011000000011001110000110010110100100101001011000000000000000000000000000000000000000
1100111110100101100000000110110111110000001100101111000000000000000000000000000000000
1111111111110000110101010100101101101101001010001110111110011111100000000000000000000000000000000000
1111111111111011001110111010100011100100110010011111010010010010110000000000000000000000000000000000
11001110000110001010000100111011010100000111001010010000000000000000000000000000000000000
100000010100101010011011110010001100100101110111001110000000000000000000000000000000000
1111111111101011001110010111101110001011111001110010001101100110000000000000000000000000000000000000
10110101100011111101010000011001100111100110111000101000000000000000000000000000000000000
100010100011010010000110011000001111001100111011000110000000000000000000000000000000000000
110001010100111011110110011001000011110111000011111010000000000000000000000000000000000000
1101001010001011000110100011111110110001101111101001000000000000000000000000000000000000
1111111111110100110010100111110001101000101101110101000000001101100000000000000000000000000000000000
10010010100101101100010110011001100111110000111001000000000000000000000000000000000000000
1111111111011101010110000011101110110111000001101111000101010000000000000000000000000000000000000000
100111100001101000101110101000100110110101001010011000000000000000000000000000000000000000
1111111111110111110100001110110001110100000001011100000100110010100000000000000000000000000000000000
11101110100101110101000010011111101101101011100101001000000000000000000000000000000000000
10010011001110001011110101111001011011000111000101101000000000000000000000000000000000000
10010001000000100001101101110010000010100010001110001000000000000000000000000000000000000
11001011111010101101101101110010001101101110000000001000000000000000000000000000000000000
101110100101011111011111000011001011001010111001000000000000000000000000000000000000000000
1111111111111001001101100010110101110001111101010110001010011101110000000000000000000000000000000000
1111111111101110011010100011100000000000101000010101111001001000000000000000000000000000000000000000
1111111111110101110110111001001101000110001110111110001000101010100000000000000000000000000000000000
110001011110001010011110101011101111011111100110010110000000000000000000000000000000000
1111111111110010001111001001011111010011110001110010010111111001100000000000000000000000000000000000
10010000001111111100000010000011101010101100011000101000000000000000000000000000000000000
10011000111011000100110000000101100000100000010000010000000000000000000000000000000000000
1111111111100111001100011011000100101000100110010111001110110000000000000000000000000000000000000000
1000101110111111101001001011101100000001111001101110100000000000000000000000000000000000
101100010010111001010001100111011000001001101111100110000000000000000000000000000000000000
1111111111101001010000111100110011101011100101110000111001001111000000000000000000000000000000000000
100011000001110111000101111011010110010001010101000100000000000000000000000000000000000000
10101010010111011010011011011110101110100110010000101000000000000000000000000000000000000
1101110100100101011100111100110000110111010001011110100000000000000000000000000000000000
101100010100101111100011100101101101100011100111110100000000000000000000000000000000000000
1111111111101110000100011111100011110000101001100001111101010110000000000000000000000000000000000000
10101111111110000010010100010110110100111000101110001000000000000000000000000000000000000
1111111111110000010111100001111110101000100001010001100110011000100000000000000000000000000000000000
1111111111111011111000111001010001011110010110000001110100100110010000000000000000000000000000000000
100100011011101100101011011010110010111000100110110000000000000000000000000000000000000000
10100000100000000100110111110011111100011000110101110000000000000000000000000000000000000
110100000111001110110000011101111000010010110001101010000000000000000000000000000000000000
1111111111111001100100100011111011011100010100111010101100101110110000000000000000000000000000000000
100101111001100001100101000100110111110010101000001000000000000000000000000000000000000000
1111111111010100011001110000100100111111010100111001001101000010000000000000000000000000000000000000
1010110011100101101101010010101001000011111101000001000000000000000000000000000000000000
1111111111110110110111101111011111001011100001010011011101100000100000000000000000000000000000000000
11101110000000110111100011010000110001001000101111110000000000000000000000000000000000000
1101011011111000011011010100101011111100101001101010000000000000000000000000000000000000
11100000001100011000111110100100110111100010001100001000000000000000000000000000000000000
1111111111011101001101010011010111110010101001010110110111110100000000000000000000000000000000000000
1111111111001100100011100110001101001100110100010000011110000010000000000000000000000000000000000000
1111111111010111100011111001100101100100100111001100111000101100000000000000000000000000000000000000
1111111111011001110011011110100011011110100011010010000111000100000000000000000000000000000000000000
1111111111100111100110101001101010011100111001100001100001100110000000000000000000000000000000000000
11000011011010111010011000011111110111001100001010011000000000000000000000000000000000000
1111111111011110000110011111100100001110101110011011101101011100000000000000000000000000000000000000
1111111111001110010000111100110001010001111000101000110101010110000000000000000000000000000000000000
1010111101000110101110011101000101110011011100000001100000000000000000000000000000000000
1111111111101101010011100111000000011101101001110000110110000001000000000000000000000000000000000000
1111111111010110011010110010110000110000001110011101101111001110000000000000000000000000000000000000
1111111111100001001000111100110101111101011011001001110111111010000000000000000000000000000000000000
10111010001011000010100001010011101111000101101000100000000000000000000000000000000000000
11010011100100001110100100011010110101110010001011001000000000000000000000000000000000
101001001101100010101101010011101100101111010001000000000000000000000000000000000000000
1111111111110001100111111111001111100100101100011001001100101101100000000000000000000000000000000000
1111111111110010001111100010111110111000001101011010110010000111000000000000000000000000000000000000
110011100101100001010001001000110101110110111111001010000000000000000000000000000000000000
1111001000100100110101111001110111000111101110110011000000000000000000000000000000000000
1111111111101111000101110011101001001011001010100011110101011011000000000000000000000000000000000000
1111111111110010111011010001101111000110000000010101111011010100000000000000000000000000000000000000
1110011011011000010011110111110011100110001100100110100000000000000000000000000000000000
1111111111101111001111111110011100110000010110010100011011100010000000000000000000000000000000000000
11100101100100010011010110110101111011100010111111101000000000000000000000000000000000000
1001110000001101011111000010010100001101000011100001000000000000000000000000000000000000
1111111111111100011011011010111111001111000101111101000011111100111000000000000000000000000000000000
1111111111111001100100001100010111101100110011101000111101101101000000000000000000000000000000000000
1111111111111000111001100100111011011110101011111011010100001010110000000000000000000000000000000000
10111000111010001101111100100011011010000010001010101000000000000000000000000000000000000
111111110111000111010011100111010001011111011100110100000000000000000000000000000000000000
1111111111110010110111010101001011101010000000110101010110000101000000000000000000000000000000000000
1111111111110001101101000010000111110111001011011111010110111010100000000000000000000000000000000000
0
1111111111101101111010000111011111000010011001000111010011110110000000000000000000000000000000000000
10001111111010010111101111010001111001001001101011000000000000000000000000000000000000000
100100100110001010111111011011001111010010110110010100000000000000000000000000000000000000
10000010011101011100001100111111000011000000011110100000000000000000000000000000000000000
1110001000001001101011000001010111010100000000100010100000000000000000000000000000000000
100011011111100000010010011101111100111000001111100010000000000000000000000000000000000
1011010110111110100111110110110000000010010011101010000000000000000000000000000000000000
1110101000001011000101100110101101100101010011100111000000000000000000000000000000000000
1111111111110110000110001001000001101011001100111011000000101000000000000000000000000000000000000000
111000100100010011000000001111011010111111101110011000000000000000000000000000000000000000
1000001100101000000000111101110001010101001101101100000000000000000000000000000000000
1111111110100001110110010100000010000111101111010111101000100000000000000000000000000000000000000000
110010011110001010000000100111100111011010111111010110000000000000000000000000000000000000
1110100000011011001010010110000111010110001111010010100000000000000000000000000000000
101101100110111100100011000010101111111100011110000000000000000000000000000000000000000000
1111111111110101000100001010000000000110111101001101111000011010100000000000000000000000000000000000
1111111111000110111010110100110010100011001101011010000001100110000000000000000000000000000000000000
1111111111111010000010110110010111000000001010100000110111100010100000000000000000000000000000000000
1001101101011111100101100010001001010001111110100100000000000000000000000000000000000000
111101011101100010001001111100000100010011111110110100000000000000000000000000000000
1111111111011110100000011001000111110000110001011100110101000100000000000000000000000000000000000000
10110100011000100000000100010011110111010111100110001000000000000000000000000000000000000
1111111111100110110000000001101110001010110000110001001010010101000000000000000000000000000000000000
100111111001010011110000111010101110111001011000000100000000000000000000000000000000000
1111111111101000011100000010011110011111110100000111111010010001000000000000000000000000000000000000
1111111111010111100110000111100001011001000001110010111000101110000000000000000000000000000000000000
1000000000000110001010101000100011101010010111101101100000000000000000000000000000000000000
1111111111111101110011010101000100111010010010011100000110111101101000000000000000000000000000000000
1000011110001111000100110010010101001111110100010010000000000000000000000000000000000000
1000010100100100000100000101110011111100100111110101100000000000000000000000000000000000
11111000001100100010010111101001111111011110101101011000000000000000000000000000000000000
1111111111000111111110011000101001010110001000111111011100000010000000000000000000000000000000000000
1101010101101111110100000000101111000100001101100011000000000000000000000000000000000000
1000001001110111010110101010100000000001000011100111100000000000000000000000000000000000000
1111111111101100101001100011001100100100101000010010111010100000000000000000000000000000000000000000
1111111111001010011000000100110000101101001000110001000111110010000000000000000000000000000000000000
1111111111110111111011110111111110100011001110100000011100000000100000000000000000000000000000000000
10010000011011000001000010101011001000110101010010010000000000000000000000000000000000000
1111111111011011011000100101100100111110001001110000100010101000000000000000000000000000000000000000
1111111111011000011010011000010001100110101001000110100101100100000000000000000000000000000000000000
1111111110111111111010100110111000111101001000111111000101111100000000000000000000000000000000000000
1111111111100011010110101000011011011100100001001110011001100001000000000000000000000000000000000000
1111111111110001000111010010110110001010001001010110111100011110000000000000000000000000000000000000
1111111111111000011111000001010110101111110100111010010101110100000000000000000000000000000000000000
10100100101010111111101111110101001001010111010001000000000000000000000000000000000000
1111111111110111111001100000001111110110101100100101111010110001000000000000000000000000000000000000
1111111111100011100010010101001111101011000110010101111001000011000000000000000000000000000000000000
1111111111101100100100101010100111001111010010110111100110001000000000000000000000000000000000000000
1111111111100100101001111101011010110101111100011001110111101100000000000000000000000000000000000000
110000001110011011011010110001010111000111000001010100000000000000000000000000000000000000
1111111111100110000110000110111100011110011101011000110100001011000000000000000000000000000000000000
1111111111111011011001011010000001110010001000001010010110001110110000000000000000000000000000000000
100001010010101011000011011001010011100000000100100010000000000000000000000000000000000000
110100100100111111010011000110011010001010001010101010000000000000000000000000000000000000
1111111111110111010100001110101001010110001011010111001001101111100000000000000000000000000000000000
1111111111000101001000100011011011010111011101101101111001011010000000000000000000000000000000000000
1001111110111000111000111001100000010101001010010111100000000000000000000000000000000000000
10110110001001000110010000000111111101001111100010110000000000000000000000000000000000000
1111111111011010100101110011101100101001110101110000100000001110000000000000000000000000000000000000
1111111111001101101110110000111010001110110001101001001100111110000000000000000000000000000000000000
1001100001111011111001000101010000111100100100110001100000000000000000000000000000000000
1111111000111111001010110001010111101001011101111111000000000000000000000000000000000000
1111111111110001100100100010101000011000011100110100101110111001000000000000000000000000000000000000
100101001110111011000111001010010100111000001101010010000000000000000000000000000000000
11111101101101010111100111110000111110100001000110001000000000000000000000000000000000000
10100101011111110110110001010011001010001010000110100000000000000000000000000000000000000
1111111111101000111110111100101011111110100110011110000110101110000000000000000000000000000000000000
1111111111010000010111010101010101010010001000111100100001001010000000000000000000000000000000000000
1100011110100011011000010010010001010101001011111111000000000000000000000000000000000000
1000101001100000100100011111000101011110010100010000100000000000000000000000000000000
1111111111111101000101100010101000101001111100101010000110111111010000000000000000000000000000000000
10011001101101110001111001101100101110001111000000001000000000000000000000000000000000000
10101010100111001111111001010000100111010110010100111000000000000000000000000000000000
100101011000001111101100110010000010111001010001010110000000000000000000000000000000000000
0
1111111111111110101001100101010100110000011100111100001010100100111000000000000000000000000000000000
1111111111110101000110100111101000010010110000001110001011001001100000000000000000000000000000000000
1111111111110000011100000111101010011110110010000101010110111001000000000000000000000000000000000000
100111011010011001111111001110111011010011111110011000000000000000000000000000000000000000
1111111111100111001000010111101100100001000000101100001001100010000000000000000000000000000000000000
1111111111100101111001101001011101000010000010110001011011101010000000000000000000000000000000000000
100010101000100110110111100110011010010010110111111000000000000000000000000000000000
1111111111111110110101101101111000111110111011110100011110111101010100000000000000000000000000000000
1111111111011010000001001000110000110001111000011110101010100110000000000000000000000000000000000000
100011001010100111110010111111001001010001111011100000000000000000000000000000000000000000
1000100110110011110110011000000001110010111010101100100000000000000000000000000000000000
100010100110011101001100100000000110001111100111011010000000000000000000000000000000000000
1011110100111110100010001111000101010101100001101010100000000000000000000000000000000000
11011000000100101010010010110111111010011101001011000000000000000000000000000000000000000
10111110001000011010000010110111000010001111011010100000000000000000000000000000000000000
10101100110001000111110101000011111110111101011001000000000000000000000000000000000000000
1111111111110011100110100011000010100010111111000000001111000000000000000000000000000000000000000000
100100110011100100100111001110011001000100110101011000000000000000000000000000000000000000
1111111111001110001100000010100100110001111111110100001101110000000000000000000000000000000000000000
100100101100111010001001011001000111101111011111001010000000000000000000000000000000000000
110011101010001010011101010010010110101101101000000110000000000000000000000000000000000000
11000100110111011001011000011101111100000111011001000000000000000000000000000000000000000
100101111100101000011011000000001111100011000010000100000000000000000000000000000000000000
111101101001000101111100110111001100110100100010010110000000000000000000000000000000000
1111111111011011101011001001111111100111011000010001101010100000000000000000000000000000000000000000
11001101100111010100110011111010000010010001000001001000000000000000000000000000000000000
1111111111101100011101111110100101101011101010010100101110100001000000000000000000000000000000000000
101011011001011110010010110111001110110010110000010010000000000000000000000000000000000000
10001010010100100111010100011101001100111100111111000000000000000000000000000000000000000
10010100101101001010010011110100010010100000011101101000000000000000000000000000000000000
101001010101010100010100111101010011110110011101110100000000000000000000000000000000000
1111111111110110010010001100101011110010011110100110011101111000100000000000000000000000000000000000
1111111111011110011001011010010010101000001110101110101111110010000000000000000000000000000000000000
1111111111010001111011001001110100010110000010011100011110010100000000000000000000000000000000000000
100000100111001010110010001111111111001111010000100000000000000000000000000000000000000000
1111111111111010010100110100100001011100111100001111100100110010110000000000000000000000000000000000
100001110110100010001110110000010010011010100010001010000000000000000000000000000000000
1111111111111100110011010010100010100100110101101000100101110000010000000000000000000000000000000000
1111111111111001010000100100110110101000001110010101011101110111110000000000000000000000000000000000
110001100000010110111011101111011101011001010110000110000000000000000000000000000000000000
100010100001000100110010101101010100110110101111100100000000000000000000000000000000000000
1111111111010001100100000111010111100010001001010101101111101110000000000000000000000000000000000000
1111111111101111111100000001001110100100110011101110011111010010000000000000000000000000000000000000
101010000001100010101000111101111101101111001000011010000000000000000000000000000000000000
1111111111110000110001001001101010001110101100111101010010100010100000000000000000000000000000000000
1111111111010010100111010001001111101000100000000010001110110000000000000000000000000000000000000000
100001110001011000100101011100110001100110000100100110000000000000000000000000000000000000
1111111111110010001100010010110000011011000011100001010011110011100000000000000000000000000000000000
1111111111110110101111000000010011101010011110100001100010100110000000000000000000000000000000000000
1111111111001101001000111000011001011011001001001011001111010110000000000000000000000000000000000000
110000001001000110100010001000010011101011100010001010000000000000000000000000000000000
10100010011000111001101001000011010000101000011111010000000000000000000000000000000000000
1111111111001100101100101001010101101101110110110110001101101010000000000000000000000000000000000000
1111111111101001010001111110100010100111010000111110101111101101000000000000000000000000000000000000
1111111111011101001111011111010110000110001101100110100001110100000000000000000000000000000000000000
100011010000011111111001110000001111101011001111011000000000000000000000000000000000000000
10110011101100011101000010101000111011010000010111100000000000000000000000000000000000000
1111111111100101001001010110100100001111101101111110011110000100000000000000000000000000000000000000
1111111111001000100001010101100010001100111100000000010100011000000000000000000000000000000000000000
1110101100000101101101111011010110000011001110011100100000000000000000000000000000000000
1111111111110111010010110001111001001101000000011101110111011001000000000000000000000000000000000000
110101110101101110011010101011000110101100111111110000000000000000000000000000000000000000
101011111111111010011011110111000001111100111100000100000000000000000000000000000000000
101010010111100000011001100111011010011100010010111110000000000000000000000000000000000000
11110000011010100000011111111100111000100001010011111000000000000000000000000000000000000
1111111111110011001011001111010100100110110100010100101101110010100000000000000000000000000000000000
100000000001001000011110100100110010111011101010000000000000000000000000000000000000000000
1111111111100111010111111110101110101000110101111011101010100001000000000000000000000000000000000000
11100111111111001010001101000110010001010111101111100000000000000000000000000000000000000
1111111111101000010000101000001111101001101001001011100101001010000000000000000000000000000000000000
1111111111111010111010011011100011110111011100011101110111010100100000000000000000000000000000000000
1111111110111011000110100110101010010100101001000001011011110000000000000000000000000000000000000000
1001010001101000101100111001010010100100000010000101000000000000000000000000000000000000000
10010000101110100001100000111010011010010001010010001000000000000000000000000000000000000
1001101011011000100001011000010111011011101110001110100000000000000000000000000000000000000
10101111110100011110110110001111011100001001111100000000000000000000000000000000000000000
1111111111111001000011011010100100100110111001011111100101001110000000000000000000000000000000000000
101001000011111111100100000000101110101100111001000100000000000000000000000000000000000000
1111111111101100101000111110010011100011101010011001001101001110000000000000000000000000000000000000
100010010010101011110100100001011101001000101100001010000000000000000000000000000000000000
1001001101110101000100110100010111011111001010101111100000000000000000000000000000000000000
1111111111101100011000111011100101101010001001101010111010110100000000000000000000000000000000000000
110101010001011110110010110001101100111100101110110000000000000000000000000000000000000000
1111111111101011100010001000001010111001000000001101011001101100000000000000000000000000000000000000
110000100111011100011101110011101101110010100110010000000000000000000000000000000000000000
110111100100101110011001111001110101101000010010010000000000000000000000000000000000000000
1111111111101001101010111101011001010100110100010010111101001101000000000000000000000000000000000000
100110110111111110001001101110001000100011100110000000000000000000000000000000000000000
1111111111001001101101001110100111010111001000011111101111101010000000000000000000000000000000000000
100011000111011111000101111101011110110001111110010100000000000000000000000000000000000000
1110101110111110001011101101110101000111000001110101100000000000000000000000000000000000
10110000001010011101010110010101111001101110100101111000000000000000000000000000000000
10110100000011100110111001000000101110101000010100011000000000000000000000000000000000000
111011110000001010111110000101000111010111001001111100000000000000000000000000000000
1111111111100111110100011100011110101111111000100010110110111110000000000000000000000000000000000000
110001110111110010101001111000110111101001011000010010000000000000000000000000000000000000
101010101100000000100111110010001010111111001101011000000000000000000000000000000000000000
1111111111100110001010011010011111011111001010011010110001001000000000000000000000000000000000000000
1111111111101001000000010101111100110110111000010001111000000110000000000000000000000000000000000000
1111111111101111100010011101101111010000011110000101110101110111000000000000000000000000000000000000
1111111111111000011011110101010011100100101011010101011100000110100000000000000000000000000000000000
1111111111000010001101111000010110001111100001010001101001001110000000000000000000000000000000000000
1111111110110111000010001101010001000001000000001000100001110100000000000000000000000000000000000000
1111111111101000000100010010010011001100011011111100000101110110000000000000000000000000000000000000
1111111111001000100101101100100011111100100001001000000100101000000000000000000000000000000000000000
100010100110001110000111000111010100101100011011000100000000000000000000000000000000
100010110110111100101010000111000000011110010111111110000000000000000000000000000000000
1011100111110100110101111001010001001100101110110011000000000000000000000000000000000000
111100010111001000101000110011111001000001111010000010000000000000000000000000000000000
111001110001011010010101010000001001101010010010001010000000000000000000000000000000000000
11010101010101001000000111011110000000011101111101101000000000000000000000000000000000000
1111111111010011000011100010111111101110111110011110100011110010000000000000000000000000000000000000
1111111111011110110011011000010001001111110001110101110001010000000000000000000000000000000000000000
1100001011111011101101000111001110000001110000011100100000000000000000000000000000000000000
0
110001001010011101000000110010001000111101100111011000000000000000000000000000000000000000
1111111111001111000010100011011100111111110000111001000000000000000000000000000000000000000000000000
1111111111100111010111001100101011111000010011100111000001001011000000000000000000000000000000000000
1111111111011110111000000010101010000010001101110101000001010100000000000000000000000000000000000000
110010000010011100011110010100111111111111000100100110000000000000000000000000000000000
1111111111011110100001101101010001110101100111001001010010101000000000000000000000000000000000000000
100010111011000011100101111000100000000011101000000000000000000000000000000000000000000000
100101111100000111110010101111111000000110110010000110000000000000000000000000000000000000
1000110001001010011010000110011011011011001100100011100000000000000000000000000000000000
1111111111101111110111110101101011110001110000001010000110111110000000000000000000000000000000000000
1111111111100101111001011011110000110011010011101110001000011010000000000000000000000000000000000000
1111111111011110100010100100110100100001110110100010001110010010000000000000000000000000000000000000
0
1111111111010010100011001100100110101111000011100000100101010110000000000000000000000000000000000000
1001110101100110101000100010011101000111000110101000000000000000000000000000000000000000
1111010110101011111101111010100101100001011011001001000000000000000000000000000000000000
1111111111100001000001111010111111111000100001010101011000100100000000000000000000000000000000000000
10000001100110111000010000101101000110110000111101011000000000000000000000000000000000000
1111111111100010000111001011001011000001011111110000011000010011000000000000000000000000000000000000
1111111111100011100100110111011100011001011101100111101001000101000000000000000000000000000000000000
1111111111011010111110101011011110111100110110111001101100000110000000000000000000000000000000000000
111110001000100100111101001010110001000100111100001100000000000000000000000000000000000
100010111110101011110001010000111011000010001110111100000000000000000000000000000000000
110111011001010011010011011010111111000000000001110000000000000000000000000000000000000000
11101000010110110010010100101111100000000011000000101000000000000000000000000000000000000
1111111111101000011011100110110000011111110111101111000101111100000000000000000000000000000000000000
10010001001101101010110010111101010110011111010101001000000000000000000000000000000000000
1111111111111110111010111111101100101100111101110110100010010101011100000000000000000000000000000000
1110000001001000010011110010101001010101111100100001100000000000000000000000000000000000
101000010001110110011011001001011110100111011010001110000000000000000000000000000000000
1111111111100100011110110101111101011110001001110111011001000100000000000000000000000000000000000000
1001001111000111100011001001101011111000101101100000000000000000000000000000000000000000
1111111111110101001000000100111001100001000011001110011000101110100000000000000000000000000000000000
1111111111100111111110110010011000110010110010101000001100110111000000000000000000000000000000000000
1111111111111110111101011110001101101101101011011001001111001000011100000000000000000000000000000000
10100011010000100001001001101101001000010001011100110000000000000000000000000000000000000
11111010011001101111010111000010010111110111100101000000000000000000000000000000000000000
1111111111111111000000110000001001111101010010000001001100101001010010000000000000000000000000000000
1111111111011101110001111000111011110011000111101101111001011100000000000000000000000000000000000000
100100111111000100100000100001000110101100111101001000000000000000000000000000000000000000
1111111111101101100010010100100010100101100110100010110111111110000000000000000000000000000000000000
1001010100110111100001001110010110111101101111110110100000000000000000000000000000000000
101011100101100011101001010011011010011011100111110100000000000000000000000000000000000000
11101010110000011111100000111011000000011010111101001000000000000000000000000000000000000
10101010010001001101000000011110101001101101011111011000000000000000000000000000000000000
1111111111101110000011010100000000111111111010110110111000000010000000000000000000000000000000000000
10100000101110001011010010001111000100110110111101101000000000000000000000000000000000000
1111111111101001000010111100011001011001000110111110001101101011000000000000000000000000000000000000
110100001110000010011000010101100011000111110101010100000000000000000000000000000000000
1111111111110001100010110010000101000010001101101010101011110001000000000000000000000000000000000000
10101101100001101100000010001111111001111000110100110000000000000000000000000000000000000
1111111111100011001101000110101000001000111101001100011010101010000000000000000000000000000000000000
1111111110110000010000000000010101000001111101110100000010101100000000000000000000000000000000000000
1111111111101010001101000011111111010010011110011001001100101111000000000000000000000000000000000000
1100110001100010110111001110100111111001001010001111000000000000000000000000000000000
11000000011110011000000111000010000010000000010111010000000000000000000000000000000000000
101101101000001010001100000110111010011110010010010110000000000000000000000000000000000
1111111111011110011011110100101000111101111100001101011000011000000000000000000000000000000000000000
1111111111111010010110100000011111101000011101011100111001101000100000000000000000000000000000000000
10000111000101011001111110000000010011000001111011100000000000000000000000000000000000000
1111111111001001111110100011100001010010001010011011010000010000000000000000000000000000000000000000
100010100110101101011100111100100010001101111000111010000000000000000000000000000000000000
1011011001100011100110111010001101011011110111111110100000000000000000000000000000000
1111111111110000110111100010101011001011110010011011100111001011000000000000000000000000000000000000
1111111111100111111111001110100000110100100000001000100000000011000000000000000000000000000000000000
10001000000110011000100101001011110100010010001101101000000000000000000000000000000000000
1111111111010110100100011111000111000111110000011001111100001100000000000000000000000000000000000000
1111111111100110011111111111111011110110100111110110000011100010000000000000000000000000000000000000
100011111001001001100011001110010110010010011000011000000000000000000000000000000000000000
1001111000010110010000100111010000110101011101110010100000000000000000000000000000000000
1111111111011110111000111100010101111011000110000110111001100100000000000000000000000000000000000000
100100100010011111011001111101101100101100111011100010000000000000000000000000000000000000
1111111111111000000110000011110111011100101010000101001111100101100000000000000000000000000000000000
1111111111111111010010000011110100001010110010110001111111110001010010000000000000000000000000000000
110111101110101101101111101101010101011100000000011000000000000000000000000000000000000000
1111111111100011100110101000011011110000001110111101001010010100000000000000000000000000000000000000
1111001101011101001001110010110110010110100101001001100000000000000000000000000000000000
101011110111010111101100111011001001000010000011101000000000000000000000000000000000000000
1111111111111101110111000011110010100011111111011111000011101100000000000000000000000000000000000000
110111100000101111101000110010100001100101110011010000000000000000000000000000000000000
11010111011000101010101010011100000000001110111000011000000000000000000000000000000000000
1111111111111110101111111100101100110001100101000011101010111110111000000000000000000000000000000000
11010110001000011110100100000110010010111000011110010000000000000000000000000000000000000
0
11010100110101111101010000001111001100001110010111111000000000000000000000000000000000000
11001110010100001101011000101000000001101110011100100000000000000000000000000000000000000
1111111111000010010010001001101001001101010100010000100101010100000000000000000000000000000000000000
1111111111110011000011100101011101100011101000101010111110001110100000000000000000000000000000000000
1000000000011100101000000111010110011111010000011001000000000000000000000000000000000000
1111111111100011110010100010000010001010110110110001101001000111000000000000000000000000000000000000
1111111111110011100111110001010000000010101001101111110101010000100000000000000000000000000000000000
1111111111010100001111010010001001111100111100101101111110100000000000000000000000000000000000000000
1010100011101001000110100011101000111101100101011000000000000000000000000000000000000000000
1111111111011111110101111010111100101001011110110011011111000100000000000000000000000000000000000000
1111111111101101010100110111101011100001110101100100000110110100000000000000000000000000000000000000
1111111111111100000011010010100100011010110000101110101000011001000000000000000000000000000000000000
1111111111111111100011001110011011110111100101000001010101011111001110000000000000000000000000000000
100001000011101110111101111010010000111100011111011110000000000000000000000000000000000000
11000111101010110110011110101001001001110001010101010000000000000000000000000000000000000
1111001001000101010011100000000111101110011101111010000000000000000000000000000000000000
1111111111101010110110000111111010101001000000100010111110111110000000000000000000000000000000000000
101000001011001111010000111000110100101001110111110100000000000000000000000000000000000000
1111111111000111011101111000111000001010101101001111001110101000000000000000000000000000000000000000
10101101101001010110101001010101100100010010010111000000000000000000000000000000000000000
11010111111101001110000101110000000110111001101100000000000000000000000000000000000000
1111111111011110111110010001111111010001001001011010111011101110000000000000000000000000000000000000
1101101100011001001000010111001100000100111111011101100000000000000000000000000000000000
1111111111010011111101000000000010011010110101100110010110011100000000000000000000000000000000000000
100101000101100110001001010110110101001011000101011000000000000000000000000000000000000000
1111111111011100101010010100000010100110011111110010101100000010000000000000000000000000000000000000
1111111110111001001100011101101011110100110001010000111001000000000000000000000000000000000000000000
1111111111011000100010011110010001111110011001010010001010110100000000000000000000000000000000000000
1111111111011100000110000110011011000110000100101110011001101000000000000000000000000000000000000000
1111111111100110111001011000010010000001100000100000001010001010000000000000000000000000000000000000
11011011111001100111110010010100111010101101100001101000000000000000000000000000000000
11010010101111100011010000000100101110111100100111000000000000000000000000000000000000
1101111010110111100010011000000010000100001001101100000000000000000000000000000000000000
1111111111010110010010110111100000110000011110010101001101001010000000000000000000000000000000000000
10000100010001010000100010001100100010001000000000111000000000000000000000000000000000000
1111111111011000001010011000110110011110011111111011011100001010000000000000000000000000000000000000
1111111111011001101000001011110101100001101010110111000000111010000000000000000000000000000000000000
1111111111110011101100111101101001010001011001001111101010000101100000000000000000000000000000000000
110010011100000011110001101101010011110111001011100110000000000000000000000000000000000
1000001101110110000100000101111110100100011110101011000000000000000000000000000000000000
1111111110110100100110111010011101000110111111011001100010111100000000000000000000000000000000000000
1111111111011111110110001101110000100001001010010100010111011100000000000000000000000000000000000000
10001101011011001101010000101111101110001010001100100000000000000000000000000000000000000
1111111111110110101000011100001010000000100101010000100101111100000000000000000000000000000000000000
1111111111110111001000110111010010110100101000111100011111111111100000000000000000000000000000000000
1111111111111110100011010100101111011110110110010001010101001101000000000000000000000000000000000000
1111111111110111001101111000111000100010110101111011010111011100100000000000000000000000000000000000
111111001001110011010111111001101100101001110010011100000000000000000000000000000000000
10011111001010101011001001101011101110111111000101010000000000000000000000000000000000000
1111111111100110110100001011110101111100010001001101000000011101000000000000000000000000000000000000
1111111111110001100010011001010111100101000000011100011011101111000000000000000000000000000000000000
101001001111111100101000011011000110001110101011011000000000000000000000000000000000000
0
1111111111010000010001001100011000100110001110111110101110110100000000000000000000000000000000000000
1000000010101001101110110010000001011101101111111010000000000000000000000000000000000000000
1010111001010011011111001001110001100110011010011001100000000000000000000000000000000000000
110011011001101000111101011101000111111010001011100110000000000000000000000000000000000000
1111111110111111111011101110110010010100110101111001101101010100000000000000000000000000000000000000
10011100011111011001000100011001011000001111000011000000000000000000000000000000000000000
1111111111111011011011100101111110011111010000110011101011000110110000000000000000000000000000000000
1111111111101001111010100110000100001000111011010100001001110110000000000000000000000000000000000000
1001101101101010100100100001110111011111100100110100000000000000000000000000000000000000
1111111111101100111101110101101001110011111011010100101110001011000000000000000000000000000000000000
10110100111100010000111111101010010000011000100100110000000000000000000000000000000000000
100011000111001110010010100011100100101011101101011110000000000000000000000000000000000000
11100111111010010000011110100011101001000111000100000000000000000000000000000000000000000
110011100110010010001101101000000010110101110101110010000000000000000000000000000000000000
1111111111101010101111110001111100101100000000000011100111000100000000000000000000000000000000000000
1111111111100000000100011110100000001110111011101010010111100110000000000000000000000000000000000000
1111111111010100001100010110000101011111010110100000000010100000000000000000000000000000000000000000
1010010110111000111001001011110011111001110001110011100000000000000000000000000000000000000
1111111111111110000111001001100001100001100100000111100011011001101000000000000000000000000000000000
110100010010100001100011101001010000100111100000001110000000000000000000000000000000000000
100001100110001000010110111110110001001110101001110110000000000000000000000000000000000000
100101101000000110001100001110111100001000001000110110000000000000000000000000000000000000
11010100000001110100011111110110110011000110011000110000000000000000000000000000000000000
11011111011101011101111000001000101010010010001011100000000000000000000000000000000000000
1111111111101000001010000001000000100110101000100111110011100111000000000000000000000000000000000000
1111111111101010011010000111010101011001010101101111110010110000000000000000000000000000000000000000
1111111111011010101001100000101011110110110011011111101110001010000000000000000000000000000000000000
1111111111011011000001010100110100011110110110001110010010000010000000000000000000000000000000000000
100010110000000101010010011010111101010001010011101000000000000000000000000000000000000000
1111111111010110111011100001110111011110010100110001101011011000000000000000000000000000000000000000
1111111111101010000010000001110000111101000100010110011101111101000000000000000000000000000000000000
1111111111011001101100110100101111100110010011111100011111110000000000000000000000000000000000000000
100101000001100111000110100010010100111111001110101000000000000000000000000000000000000000
1111111111011010111111111111011000000100011011100110101001100000000000000000000000000000000000000000
100101001010111011010000001000110101110101110011110000000000000000000000000000000000000000
100100011010011001101010110110101001101001110101011010000000000000000000000000000000000000
1100100001000110001010110001001011111000101010111100100000000000000000000000000000000000
10011000101000111101111010101010010111010010010010101000000000000000000000000000000000000
1111111111001110111011101101101111100100011000110110001000001100000000000000000000000000000000000000
1111111111100101110001011011101000110101110110001011110100100010000000000000000000000000000000000000
1111111111111111011111110100101101010000101000111011001101001100111010000000000000000000000000000000
1111111111110100110011110111001110101000100100100111111110100100100000000000000000000000000000000000
1011011101010001011001110010110011001100101100110000100000000000000000000000000000000000
1111111111001000101010110110001010011111001100111011100010010010000000000000000000000000000000000000
11110101001110010110011000101010000001010001110000101000000000000000000000000000000000000
10001010011000000011111010000111111101000001001110100000000000000000000000000000000000000
1111111111111000001110011010100011110000000011000101010001001111110000000000000000000000000000000000
1111111111101110101110111011000011001000111110110110001011110110000000000000000000000000000000000000
11001000011101001110001001110100010110011110000101001000000000000000000000000000000000
1111111111101111110110011111110001101111000011000011100011001000000000000000000000000000000000000000
10101101000101111100100100001000101110000101011100101000000000000000000000000000000000000
101011011110110100000011001100111011110111101001100100000000000000000000000000000000000
110010010111110111000011111011010001111100010101101110000000000000000000000000000000000000
1001000001111100111111010001100100010111101110001100100000000000000000000000000000000000000
1111111111101011110100110100111101010110010001110010011000001110000000000000000000000000000000000000
1111110011111011111010101110100010100010000010100011000000000000000000000000000000000000
1111111111110110000110011100010000101111111111001011110100010010000000000000000000000000000000000000
11001111010100101111110101011011010010101011010011001000000000000000000000000000000000000
1111111111100010110000110001011101011001000110101010000011111111000000000000000000000000000000000000
1111111111111011111001111010000101011010011001100111000110001100100000000000000000000000000000000000
10010010110101000110011101101100110010100001011100110000000000000000000000000000000000000
1111111111111010101000000110101101110111101101100111011100101111010000000000000000000000000000000000
0
1111111111110000010100111010100111110101010111100001110001000110100000000000000000000000000000000000
1111111111110111011110101010010100110001000010101100101111110100100000000000000000000000000000000000
1111111111100000000001111111000100110111101000111010011111101110000000000000000000000000000000000000
1111111000000001111101111001011000010001000110010111000000000000000000000000000000000
1111111111010110011001110101011101110101000001111000011001011100000000000000000000000000000000000000
101000001111011111111101010101010010110001001110110100000000000000000000000000000000000
11100110010111110110000100011001100000001100101000101000000000000000000000000000000000000
101001100010001110110110101010111010111011110111011000000000000000000000000000000000000000
1111111111110010111110000001001011100100110011000100001001000111100000000000000000000000000000000000
1111101001011111000010000100100011010101100110001100000000000000000000000000000000000000
1111111111000011000110111001000010010001110010001010110111101110000000000000000000000000000000000000
100000010110101010011011100010010101001111111011111100000000000000000000000000000000000000
1111111111110010101000011100111011111111001010000001101111101100100000000000000000000000000000000000
1111111111001101001010101111011000010110001000110111010110100000000000000000000000000000000000000000
110001110111011000010101101010110000001101110101100010000000000000000000000000000000000000
101100000011001101101001011011010100100001110010010010000000000000000000000000000000000000
11111011010111110011010010010010001101110001011111001000000000000000000000000000000000000
1111111111101001011110111101100011101011111111111111010101011000000000000000000000000000000000000000
1101011100110011010110110001111111111110000101011110100000000000000000000000000000000000
1111111111101010011001011001101000101111101111101011111100101011000000000000000000000000000000000000
1111111111110010100101100100000011011001101110011101100010111010000000000000000000000000000000000000
1111111111110111100110001001101010101011010000111011110100011110000000000000000000000000000000000000
1110011000000001111111001100001100101001100001100000100000000000000000000000000000000000
101011101111001000001100110000111001010000111100111000000000000000000000000000000000
1111111111111100010101010000110110001101111001011011110101111000111000000000000000000000000000000000
10100100000011100111101000110100111100110100011110011000000000000000000000000000000000000
11100101111011111000000010111110010111101110010101100000000000000000000000000000000000000
1000001011011110001100111011000111101001101010101001000000000000000000000000000000000000
11101100110100011010000100111111001000010101010000011000000000000000000000000000000000000
1111111111110111011000000010011010010011010100100010011010110010000000000000000000000000000000000000
1101000010111010000001011101111010010100101000010010000000000000000000000000000000000000
1000100010101001010101011000000100011100010010000001000000000000000000000000000000000000
1111111111101101100001011011011101111100110111000111001110101110000000000000000000000000000000000000
1111111111100100110000001010010001010000011110110000110111110000000000000000000000000000000000000000
1111111111100000000000010111110100011001011110001000001111110011000000000000000000000000000000000000
1011100111110001010110110111100001111010001111111110000000000000000000000000000000000000
100100010111101110100010000000001110010111001110100010000000000000000000000000000000000000
1010011100111100111001110001100010000100010010001011100000000000000000000000000000000000
1111111110101010101100111001010000011101001000101011010011110100000000000000000000000000000000000000
11101101100110111001000110111011110111100010111000001000000000000000000000000000000000000
1111111111000100001110010111000011010101111110010000110101011100000000000000000000000000000000000000
100001011000110101111110011101010110010011001000010000000000000000000000000000000000000
11000100110100010100100110110010000000111010110000010000000000000000000000000000000000000
1111111110110110100000010001101111000000101010110100101001100100000000000000000000000000000000000000
1000000010011001011101010011101110111000110010010010100000000000000000000000000000000000000
1111111111000011101001100100101000100100111001100001001011100100000000000000000000000000000000000000
100110101011111000000100111100100000110100001010100010000000000000000000000000000000000000
10111011011101110010000111100001001000001110110100010000000000000000000000000000000000000
1111111111011001001010010011000110010011001111011010100111010110000000000000000000000000000000000000
1111111111011011111100010111101110000101111110001110011000000000000000000000000000000000000000000000
1111111111101110111111001001011011100000000011011000011100001101000000000000000000000000000000000000
1111111111010001100110001001011001001110110101000111011110001010000000000000000000000000000000000000
1011011111011111011010110111101001010101000100000001100000000000000000000000000000000000
10100001011101001011110100111111101011110101010000100000000000000000000000000000000000000
101001111110000011001110110101000011100010110111110000000000000000000000000000000000000000
10001010000100010011101001000111011000001011110101111000000000000000000000000000000000000
101110100110111110001000010110001101110011011110010100000000000000000000000000000000000000
101100100010001111101100100000001011010111000011010100000000000000000000000000000000000
111111100001101101100000000110101000110110111001101110000000000000000000000000000000000000
11111001111111001101101011111100101111111001000101010000000000000000000000000000000000000
11101000000100011010111001111011001010000010000011011000000000000000000000000000000000000
111110011101010010110001100010100011101101001101110110000000000000000000000000000000000000
1001011011111100101100010111101111111111010110110000000000000000000000000000000000000000
1111111110111010111100110101101001101000110100100010000000000100000000000000000000000000000000000000
1111111111100001001000111100011101010100110110101010101010011110000000000000000000000000000000000000
1111111110110111010111001001010100010100111000010000110000101100000000000000000000000000000000000000
1010011100010001001100100010101010001110010000000011000000000000000000000000000000000000
1000011000101001100110010111010011011001001001111011000000000000000000000000000000000000000
10100110001000101110101000100110001000111101010010101000000000000000000000000000000000000
10100111111111110000100010010000100011111101001111111000000000000000000000000000000000000
1111111111011000100011011111010001000001100010101100100000001010000000000000000000000000000000000000
1111111111101100000110100000001011000111101101011001100000111001000000000000000000000000000000000000
1111111111010011001101010101011010011001000100010001110000100000000000000000000000000000000000000000
100001011100001111110101111100100100011100101001000110000000000000000000000000000000000000
1000000000111100100010100100010001000110011110100000100000000000000000000000000000000000000
1111111111110001111100110011011010100001000011010111010101100011100000000000000000000000000000000000
1111111111100100110000101011010010110011001001101010010110111011000000000000000000000000000000000000
100000110001000110011000101000100110101001000111000010000000000000000000000000000000000000
11010001110111011101110100011101010110100010100101101000000000000000000000000000000000000
1111111111101000000010101001111001011101111011000011111111110010000000000000000000000000000000000000
1111111111011000111011000000101101111000010001011001011011011100000000000000000000000000000000000000
0
11011111111101000000110010111011100100100110010001001000000000000000000000000000000000000
111000101000001110111110111001011100011110000010001000000000000000000000000000000000000
1111111111110101111100010101101000100010101111001011011100110010000000000000000000000000000000000000
1111111111010101010000000101111100100010010100000101011110100110000000000000000000000000000000000000
1111111111110111010100110100001110101011000100001000111010001110100000000000000000000000000000000000
1111111111110011011100110010110011010110110011010011111000010111100000000000000000000000000000000000
101001101110011001001010100110011011111011001101001110000000000000000000000000000000000
1111111111111001100001000111010101101111111101100011101110000010010000000000000000000000000000000000
1111111111101110101100011010000001111011100101110010110010110111000000000000000000000000000000000000
1011000110000000011100001110001111101101001101110101000000000000000000000000000000000000
10010110101001011010000011001000100111010101010000001000000000000000000000000000000000000
1111111111101100100000001110010000010111000011101010110111110001000000000000000000000000000000000000
100111111101010110011100001101100001111001110010010110000000000000000000000000000000000000
1111111111111000100100001111000010011111001101100000011111001110110000000000000000000000000000000000
1111111111110100100111011100011111110110111011011100101001010101100000000000000000000000000000000000
1111111111010100111010001101111011100011110000101110101100000000000000000000000000000000000000000000
1010101110100110110011100000111010001110110110100000100000000000000000000000000000000000000
1111111111100111010111001001100100010110001101101011001110000001000000000000000000000000000000000000
11010011101010010001001111000011111101110011011111011000000000000000000000000000000000000
1111111111110110101001000011110111110011010101110010011001000000100000000000000000000000000000000000
1101100100001111110100101111111111101100110011100011100000000000000000000000000000000000
1111111111101000001100110111010111101001001001110100000001000001000000000000000000000000000000000000
1111111111111010001011110001111001101111000110010011001100100111110000000000000000000000000000000000
100000101101001010010010111000011001011001101010100000000000000000000000000000000000000
1111111111110010001111000100000000000010110011101011110101001110000000000000000000000000000000000000
1111111111110111111010010001010011111111100001100101011000101011100000000000000000000000000000000000
1110111111010110001111000100111001111101000100011010000000000000000000000000000000000000
1011111100101111100011011011110110010101010101111111000000000000000000000000000000000000
10001100000101000011001100000001010111111000101011011000000000000000000000000000000000000
10100110101011111001110010110101111111110101101110011000000000000000000000000000000000000
10101101011000000110001001101010111100010011011001000000000000000000000000000000000000
11010000001101010000101010010010000111101000011111100000000000000000000000000000000000
1111111111111110000010110101101111100110111010010110100110001011010000000000000000000000000000000000
1000010001111110010011011000111100011011011011110110100000000000000000000000000000000000
11011111010001101101000100101001100000111011001000001000000000000000000000000000000000000
11111001101010100001100000001110011001010100010001000000000000000000000000000000000000000
11010101011010110100010000111101110001000101100010111000000000000000000000000000000000000
1000110100101110010110000111100100001011101001000010000000000000000000000000000000000000
1010010111101000011000110010111000010010010011101011100000000000000000000000000000000000000
1111111111110011110001110111011011011100011111000000011011001000100000000000000000000000000000000000
1111111111110011011111100110010011110000001011011111111010011111100000000000000000000000000000000000
1010000000011011110111011111111110001101111010010011000000000000000000000000000000000000000
0
1010000010011110100001110011010011110001110100111101000000000000000000000000000000000000
1111111111101100100000011101001111101100111011110100000010101110000000000000000000000000000000000000
1111111111110011101001100110101000010000100000000000001110001001000000000000000000000000000000000000
10110100100011100101001001001000110000100100011001101000000000000000000000000000000000000
1111111111100001110110010010011111001011010001010111111010111110000000000000000000000000000000000000
1111111111111010001010011100111000010100011001001110010011000111100000000000000000000000000000000000
1111111111001010010101001011011110111000010101001010000100101110000000000000000000000000000000000000
1111111110110101001111100000010000110101011100011111110000001000000000000000000000000000000000000000
1111111111011000010100010001111110100011001011111100010010100000000000000000000000000000000000000000
1111111111010011100001110101100101100110001111001111101011101110000000000000000000000000000000000000
1010101111101001001000010011110010100111011010011000100000000000000000000000000000000000
1111010010001001100101101001010011001011111110011111100000000000000000000000000000000000
10111101111000101010101011000111011111111011101111110000000000000000000000000000000000
1111111111101101100110110010010001000001010111100001110001010001000000000000000000000000000000000000
10101111000110001001100011111100111111001000111011001000000000000000000000000000000000000
1100100000111001000111100110011011000001001000010000000000000000000000000000000000000000
111101110110010010010001001001110110101011011111111000000000000000000000000000000000000
111100001111010000100000100011111011011111011000100000000000000000000000000000000000000
100011100010110111010101111011111010110101111100010100000000000000000000000000000000000000
111011001101010111101100100010011111101101101100001010000000000000000000000000000000000000
1111111111110011011010010111000000010110110000001011101111000100000000000000000000000000000000000000
11100010001111111100110110011101010000100100100011101000000000000000000000000000000
101011001010011111010001001110010101101010101000011100000000000000000000000000000000000
