11010000
10011010
1000
1111111100101000
1111111010000000
1100001
1111111011011011
10101101
11011000
1111111010110010
1110100
1111111010100100
1000
1111111100000000
1111111100110011
1111111101100100
1111111111011011
1111111110100110
1111111101100110
1000100
1001011
10011100
1111111010111000
1111111010100110
10010010
1111111001001001
1111111001101001
1111111000111010
10000010
1111111000111011
1111111001011010
1111111100100011
1111111111011001
10110
1111111100110110
1111111100101010
1111111100011001
1111111101001001
1110100
11001110
1111111011010101
1111111011001010
1111111111101110
1101101
11111
1010011
1111111101010111
1111111010000000
1111111101100000
1111111101111100
1111111101010011
11011100
10110111
1111111010101011
1111111011100011
11010100
1111111010100111
1111111110001000
1111111111010101
1111111001100111
1100001
10101001
100100
1111111101001101
1100111
1111111010100101
1111111100101010
11011111
1111111100011011
1111111010000000
1111111001010101
1111111100110111
100101
100001
1110110
1111111010010010
1111111101110011
1111111001100010
1111111101000101
10110110
1111111111001100
1111111010100010
1111111001001110
1111111110000011
1111111100001111
1111111101100011
1111111001010100
1110010
10011100
1111111110101100
111100
111111
1111111110011110
1000010
1111111001001000
11000110
1111111101010010
1111111100100010
10001
1111111011010110
1111111010100001
1111111000111010
1111111111110001
1111111111111101
1011001
1111111111000011
1111111010110000
101100
1111111100000101
1111111111001011
1011100
1111111100001010
10110010
10111110
111011
10111010
1111111110011111
1111111010100111
1111111111011111
10011
1111111101000101
1111100
1111111110100000
1111111010000110
1111111100000011
1111111100100001
0
1111111010101001
110000
1111111110110100
1111111011110111
1111111111110000
1101011
10001110
1111111011011011
1111111011011011
111100
1111111100111110
1111111010011110
1111111110010001
1111111001000100
11010011
10
1111111101001111
1111111001100011
111
11000110
1111111011000111
10111
1111111101100110
1111111110001011
1111111001001010
1111111000111111
10101111
11101110
1111111101110100
1111111110001101
1111111100100100
1111111110011011
1111111111011001
1111111001101000
1
10010110
1111111111100101
1111111110111110
1111111111001100
1111111101101000
11100
1011010
11001000
11100000
1111111011011010
1111111110111010
1111111111000111
1111111001100010
1111111001110001
1111111111111100
10011011
11010
1111111001001101
1111111101000000
1111111010100100
1111111101000100
1111111101111111
1111111110101010
1111111100111111
1111111110011010
1111111000111011
1111111101000001
100000
1001
1111111100100010
11101001
1100111
1111111011100100
1111111010010100
111010
1111111110111010
1100001
1111111100100000
1111111110011010
1111111011000110
10100110
1111111101100011
1111111001101011
1111111010101000
111010
1111111111011001
1111111010111100
10011111
1111111110000111
1111111101111100
1111111010011110
1111111100101110
1111111100110100
1110000
1111111011001000
100111
1111111100000011
10110101
101110
1111111101011101
1011011
1111111011101110
1001011
1111111101110101
1111111100000000
1111111111000010
1111111010111000
1111111001110001
1111111001000011
1111111101011100
1111111100000111
1111111111100010
1010
1111111000111111
1111111011001110
1111111100011110
1111111001000000
1111111010110110
1111111101110000
1111111001110001
1111111001100110
1111111000111011
100111
1111111111011011
1111111100100111
1111111011010000
11100001
1111111100000000
10110101
1111111001100000
1110
10010101
1111000
1011011
1111111101100010
110111
1111111111011011
11100001
1111111111111011
10010100
1111111111110101
1111111100110011
1111111001101110
1111111011111111
11110011
1111111001111000
1111111101001101
1111111111010110
10
10111000
10110101
1111111000111100
1111000
1111111011010001
10010
1111111110010000
11001
1111111111101110
11001110
1100110
1111111101100000
1111111100011110
1000
1111111110000000
1111111010010100
11100100
1111111011101110
1010010
1111111011110011
10000011
10000101
1000010
1111111110111111
1111111010111011
1111111010101111
1111111001110110
10000000
1111111110000001
1111111100111000
1111111011000010
1111111010100011
1111111111101101
1111111111111001
1111111100101000
1111111010000010
1111111010000101
1111111100010001
10110111
11101011
1111111010011011
1111111111101111
1111111100011110
11000000
1111111001101100
11000011
10001010
1111111101010111
1111111001101001
110010
1111111001100110
1111111100101010
110100
1111111011100110
11010
1010000
111110
1111111110010110
1111111111100001
1111001
10001111
1111111100010000
1111111011100100
1000101
1111111100001010
10010110
101000
1111111011011000
1111111100000110
1111111011111000
1111111001101010
1111111101011100
1111111010001110
1111111110001011
1111111111010010
11011011
1111111110111110
10001011
1110110
1111111110100101
1111111011001100
10111100
11010110
1111111010110000
1011101
1001110
1111111101010001
1001101
1101111
1111111110101111
1111111010000010
110110
1111111001010110
1010101
1111111110011001
1111111011111111
1111111010111011
1111111110001011
11001001
1111111111000100
1111111101101110
11010101
1101
1111111010101001
1111111011001101
1111111100010101
1111111111111000
1111111111011000
1111111011100000
10011011
1111111111101010
1101101
1111111011011010
1111111100000111
1111111001110011
1111100
101010
1111111101001011
1111111011101100
11010001
110110
1111111110011011
1111111111100101
1111111111001000
1111111010001110
1111111110110111
1111111100011111
1110001
11001110
1111111011001011
1111111001110111
1010000
1111111110101001
1111111011000011
1111111011011101
10001011
10101011
1111111010011111
110
1111111111110100
1111111011000100
1111111101000011
1111111101100000
1111111110010000
1111111011011110
1111111010011110
1111111010111011
1101101
1111111001110110
1111111010000101
1111111101001110
110001
1111111110010111
1111111110001010
1111111110110100
11011011
10101100
1111111001110001
1111111100111010
1111111101100011
1111111001001111
1111111110001111
11001110
1111111001100110
11001011
1000101
11110010
1111111011001011
1001111
1111111010001101
1111111110010101
1100110
1111111100010101
1111111110011101
1111111110111111
1111111011101111
1111111111110100
1111111010011000
1011101
1111111111011101
110011
10110000
1111111110101101
1111111010000111
1111111111000011
10100010
11010111
1111111001010011
1010010
1111111100100111
11100111
10010111
111101
1111111000111011
101110
1111111111100101
11001011
1111111110001110
1111101
10101110
1111111101101001
10001000
1111111011001111
101000
1111111011000101
1111111001110110
1111111001000110
11101100
1111111010001000
1111111011100010
1111111101001011
11011100
1101010
10001000
1010001
1111111101100001
1111111100100011
10110110
11100010
1111111000111111
1111111010111101
1111111111110101
1111111100110101
1111111110011011
1111111101001101
1111111010010111
1010011
1111111010011010
10110011
1111111100101100
1111111100010111
1111001
1111111011111001
1111111100000001
1000011
1111111110001100
1111111010101110
1111111110111010
11110010
1111111010001010
1100000
10111110
10000000
1111111100111110
11001001
1111111110100011
1111111011010110
1111111101111011
1111111010010001
1111111111010101
1111111101111101
1111111011001111
11011110
1111111001110010
1111111110111010
1111111110000101
1111111011100110
10110101
111011
1111111101100110
1111111001010001
1111111100011001
101001
1
1111111110111111
1111111110001111
1110001
101101
1111111110001001
11100101
1111111010100011
1111111001011101
111011
11011
1111111100011111
1111111100010001
11001100
1111111001001001
1111111111111011
1010111
110110
1101111
110111
1100
111001
1111111101001010
101
1111100
1111111011000010
1101101
1111111100110001
1111111010111100
1111111100110000
1111111110010101
1111111010000001
11010011
1111111001110001
1111111101010000
11101111
1111111100001100
10110011
1111111001100010
1111111001111111
1111111110001001
1111111110100111
1111111111100010
1100001
1111111110100100
11010
1111111110100111
10001011
1111111110101001
1111111001111010
1111111101101010
10110101
1111111110100101
11010000
1110111
1111111111011000
111010
1111111101000111
11101101
1111111100100101
1111111010111000
1111111001001000
1111111101110110
1111111011000001
1111111010000011
10110101
1111111010101011
1111111100001101
11110011
1111111001100110
1111111011000100
1111111011010011
1111111011000110
1001011
1111111011001100
1111111001011000
1111111001010001
1111111001111010
1111111100011111
1111111111110011
11001010
1111111010011100
1111111001110100
11101100
10011111
1111111100101000
1111111111101110
1111111100010110
1111111110100110
1111111010010101
1101111
10101011
1111111010011001
1111111111010010
1111111110101110
1111111111111000
11000110
11101001
110110
10101011
1111111100000111
1111111100010011
11010101
1111111111110101
1111111101000001
1111111001001111
1111111101110010
1111111110001110
1111111010100110
1111111010110011
1111111111110000
1111111010000110
1111111010010110
1111111111001001
10000110
1111111001011010
11100110
10001100
10000010
1111111111101001
1111111101100101
1111111010110000
1111111110110001
11011101
1111111101011100
1111111100100010
10111111
1111111001001010
1111111101001011
1111111011110111
1111111010001001
1111111111011100
1111111100111011
1111111110000100
1111111111110101
1111111011101001
1000110
10001
10110011
1011101
1111111110111111
1011011
1111111001100010
1111111011101111
1111111101001111
10100001
110101
10110010
11001010
1100011
1111111010010001
1111111110010100
11101110
1111111011010000
1111111011001111
1111111000111001
100011
1111111010010011
1111111111000110
1111111111001101
1111111010001111
1001010
11110000
1111111001001011
1111111111001100
1111111011101111
11100000
1111111100110010
1111111101010010
1111111111100101
11011111
1111111001100100
1111111011100011
11100001
1111111110111101
1111111100110011
11111
1111111001001010
1111111101101001
1111111111101000
1111111011110111
1111111001100010
1111111011110101
111100
11010101
1111111001010111
11110101
1111111010010010
1111111110111111
1111111010100001
1111111010000010
1111111010000011
1111111000111010
100000
1111111001000001
1111111101010011
1111111100011111
10111000
1111111001010100
1111111110000100
1111111100110000
11000110
1111111001001101
11110011
1110010
10011011
1110110
1111111101111110
1100100
10110001
1111111100001101
1111111101001101
1111111011001000
1111111110111101
1111111011111000
101
1111111001101110
1111111101101010
10000010
1111111001101100
11001110
11010101
11100011
1111111011110000
1111111101011010
11010011
1111111101110111
1011110
1111111111001001
11010101
11100010
1111111100100110
1111111111111101
10010110
1100111
1111111001100001
11111
1111111010011101
1111111010110110
1111111100000110
11100110
1111111111001111
11010111
1111111011010010
1111111010000011
1111111010111011
1111111010011111
1111111101101010
1111111001110010
1111111011100001
