1110111001010011111000110000000000000000000000000000000000000000000000000000000000000000
101001111101011011111111000000000000000000000000000000000000000000000000000000000000000000000
10111011110101001011101000000000000000000000000000000000000000000000000000000000000000000000
100000110010000101110101000000000000000000000000000000000000000000000000000000000000000000000
11111101000100110010000000000000000000000000000000000000000000000000000000000000000000000000
1111111101101111001100100100110100000000000000000000000000000000000000000000000000000000000000000000
1110010110000110011001010000000000000000000000000000000000000000000000000000000000000000000
1111111110000001001010010110100010000000000000000000000000000000000000000000000000000000000000000000
11111010100000011000110100000000000000000000000000000000000000000000000000000000000000000000
1111111100100110011011110001011100000000000000000000000000000000000000000000000000000000000000000000
1111111111010010110111001000010000000000000000000000000000000000000000000000000000000000000000000000
11101110100001100101011000000000000000000000000000000000000000000000000000000000000000000000
100001111101110111110100000000000000000000000000000000000000000000000000000000000000000000000
110000010001001101111101000000000000000000000000000000000000000000000000000000000000000
1110010111001011110011100000000000000000000000000000000000000000000000000000000000000000
10101110111100110111110100000000000000000000000000000000000000000000000000000000000000000000
1001111010101011110010100000000000000000000000000000000000000000000000000000000000000000000
1111111101010010010010000011100000000000000000000000000000000000000000000000000000000000000000000000
1101000001110101011001100000000000000000000000000000000000000000000000000000000000000000000
100001010000000000011011000000000000000000000000000000000000000000000000000000000000000000000
1111111111111110010100000010110100000100000000000000000000000000000000000000000000000000000000000000
11011100001010000011111100000000000000000000000000000000000000000000000000000000000000000000
1111111100110001000110110001100100000000000000000000000000000000000000000000000000000000000000000000
1111111111010001000001101000010101000000000000000000000000000000000000000000000000000000000000000000
1111111111000001110000010011000011000000000000000000000000000000000000000000000000000000000000000000
10111101111100101100010000000000000000000000000000000000000000000000000000000000000000000000
1111111110001010011111101110011110000000000000000000000000000000000000000000000000000000000000000000
1011101011011010000100100000000000000000000000000000000000000000000000000000000000000
11110000001000001001110100000000000000000000000000000000000000000000000000000000000000000000
1111111111110100000100000000001111100000000000000000000000000000000000000000000000000000000000000000
110100101000010101010100000000000000000000000000000000000000000000000000000000000000000000000
110010001110110000101100000000000000000000000000000000000000000000000000000000000000000000000
10101000011001110010010000000000000000000000000000000000000000000000000000000000000000000000
1111111111100110110111100011111101100000000000000000000000000000000000000000000000000000000000000000
10001001000111111100010100000000000000000000000000000000000000000000000000000000000000000000
1111111111011000000011010000100011000000000000000000000000000000000000000000000000000000000000000000
1111111101110011111101010011111100000000000000000000000000000000000000000000000000000000000000000000
1111111101010001011110001101010100000000000000000000000000000000000000000000000000000000000000000000
100111011100001101110000000000000000000000000000000000000000000000000000000000000000000000000
110001110111111000110110000000000000000000000000000000000000000000000000000000000000000000000
1111111111101001011111110111101010000000000000000000000000000000000000000000000000000000000000000000
1111111101110001000111110001010100000000000000000000000000000000000000000000000000000000000000000000
110010011010111110100100000000000000000000000000000000000000000000000000000000000000000000000
1111111011000010101011100000000000000000000000000000000000000000000000000000000000000000000
1111111100100100111111101010101100000000000000000000000000000000000000000000000000000000000000000000
1111111101010011010101111010111000000000000000000000000000000000000000000000000000000000000000000000
1011000110000100101001000000000000000000000000000000000000000000000000000000000000000000000
1111111101000111100011101000100000000000000000000000000000000000000000000000000000000000000000000000
101101011111011101000010000000000000000000000000000000000000000000000000000000000000000
1111111100100110011111110101101000000000000000000000000000000000000000000000000000000000000000000000
10100100000101100011100100000000000000000000000000000000000000000000000000000000000000000
11010111011111001001110100000000000000000000000000000000000000000000000000000000000000000
100100010001010000100111000000000000000000000000000000000000000000000000000000000000000000000
1111001111100000111110000000000000000000000000000000000000000000000000000000000000000000000
1111111101110111110101110100001000000000000000000000000000000000000000000000000000000000000000000000
1111111101101010000010111000111100000000000000000000000000000000000000000000000000000000000000000000
1111111111000010010011000101110100000000000000000000000000000000000000000000000000000000000000000000
11010000111001111011000100000000000000000000000000000000000000000000000000000000000000000000
11110111100101000111111100000000000000000000000000000000000000000000000000000000000000000000
1111111100101110101101111111100000000000000000000000000000000000000000000000000000000000000000000000
1001010101000000010101000000000000000000000000000000000000000000000000000000000000000000000
11010000110111011111110100000000000000000000000000000000000000000000000000000000000000000000
10000010111001011100100100000000000000000000000000000000000000000000000000000000000000000000
1001100100101001110110010000000000000000000000000000000000000000000000000000000000000000000
1000000111011110011101000000000000000000000000000000000000000000000000000000000000000000
100101001011111011101011000000000000000000000000000000000000000000000000000000000000000000
110011101110111011011010000000000000000000000000000000000000000000000000000000000000000000000
11010100101010110110111100000000000000000000000000000000000000000000000000000000000000000000
100000011000000001111001000000000000000000000000000000000000000000000000000000000000000000000
101000010100101111111010000000000000000000000000000000000000000000000000000000000000000000000
10001101011100110101011100000000000000000000000000000000000000000000000000000000000000000000
1111111111100100100000100110011100100000000000000000000000000000000000000000000000000000000000000000
101111101010001010110110000000000000000000000000000000000000000000000000000000000000000000000
1111111101010111000100011101010100000000000000000000000000000000000000000000000000000000000000000000
110001111011001111010101000000000000000000000000000000000000000000000000000000000000000000000
100001000001111000011001000000000000000000000000000000000000000000000000000000000000000000
1111111111111101111010111101001001100100000000000000000000000000000000000000000000000000000000000000
110001000001100011010110000000000000000000000000000000000000000000000000000000000000000000000
101010000010101010101011000000000000000000000000000000000000000000000000000000000000000000000
11000001111100111010111100000000000000000000000000000000000000000000000000000000000000000000
100100101110110100110111000000000000000000000000000000000000000000000000000000000000000000000
101111001100111001101010000000000000000000000000000000000000000000000000000000000000000000000
1111111100011010101001100000111000000000000000000000000000000000000000000000000000000000000000000000
101110010111001111101010000000000000000000000000000000000000000000000000000000000000000000000
110001111011111001111110000000000000000000000000000000000000000000000000000000000000000000000
101010110011100110111001000000000000000000000000000000000000000000000000000000000000000000000
100111100011111000100011000000000000000000000000000000000000000000000000000000000000000000000
101101010100100000010101000000000000000000000000000000000000000000000000000000000000000000000
1111111111001000111001111110111001000000000000000000000000000000000000000000000000000000000000000000
1111111101010011000111001100000100000000000000000000000000000000000000000000000000000000000000000000
1111111110100000101011101010010100000000000000000000000000000000000000000000000000000000000000000000
100011001100010111011000000000000000000000000000000000000000000000000000000000000000000
100000110001111011110011000000000000000000000000000000000000000000000000000000000000000000
110001110110100111101110000000000000000000000000000000000000000000000000000000000000000000000
100001001001111110110010000000000000000000000000000000000000000000000000000000000000000000000
1111111100110000000010100111010000000000000000000000000000000000000000000000000000000000000000000000
1111111100101000011010100110110000000000000000000000000000000000000000000000000000000000000000000000
1111111110100011001011001000111010000000000000000000000000000000000000000000000000000000000000000000
101111010110001001111110000000000000000000000000000000000000000000000000000000000000000000000
110101101010111100101111000000000000000000000000000000000000000000000000000000000000000000000
100011110111111001101011000000000000000000000000000000000000000000000000000000000000000000000
11011001000010010011010000000000000000000000000000000000000000000000000000000000000000000000
1111111101111110001010110001111100000000000000000000000000000000000000000000000000000000000000000000
1111111101110010001101101001000000000000000000000000000000000000000000000000000000000000000000000000
10100011100001011011111100000000000000000000000000000000000000000000000000000000000000000000
1111111111001011100000011010000001000000000000000000000000000000000000000000000000000000000000000000
110000011010000001001110000000000000000000000000000000000000000000000000000000000000000000000
1111111101011011001011111011110000000000000000000000000000000000000000000000000000000000000000000000
1111011100010110111110100000000000000000000000000000000000000000000000000000000000000000000
100110111101001010000100000000000000000000000000000000000000000000000000000000000000000000
10110010001110111011000100000000000000000000000000000000000000000000000000000000000000000000
1111000100110010001010000000000000000000000000000000000000000000000000000000000000000000000
110000010010111111010101000000000000000000000000000000000000000000000000000000000000000000000
1111010100011100000101000000000000000000000000000000000000000000000000000000000000000000
10011111001101001100000000000000000000000000000000000000000000000000000000000000000000000000
11001111110001010000100000000000000000000000000000000000000000000000000000000000000000000
11110100000000110000001000000000000000000000000000000000000000000000000000000000000000000000
11111110011111110101011000000000000000000000000000000000000000000000000000000000000000000000
1011111110011011001111100000000000000000000000000000000000000000000000000000000000000000000
101110001001000111000000000000000000000000000000000000000000000000000000000000000000000000
1010100011110001110011110000000000000000000000000000000000000000000000000000000000000000000
100111001111001100001100000000000000000000000000000000000000000000000000000000000000000000000
100110101111010110001001000000000000000000000000000000000000000000000000000000000000000000000
111110000010111101000000000000000000000000000000000000000000000000000000000000000000000000
100010100011101110010000000000000000000000000000000000000000000000000000000000000000000000000
10011010001001000110000000000000000000000000000000000000000000000000000000000000000000000000
1111111101101010101111100111010100000000000000000000000000000000000000000000000000000000000000000000
1011110110100111111000100000000000000000000000000000000000000000000000000000000000000
1111111111100010100011100110100011000000000000000000000000000000000000000000000000000000000000000000
1111111111000001010001011110100100000000000000000000000000000000000000000000000000000000000000000000
100011011101100000100010000000000000000000000000000000000000000000000000000000000000000000000
10101001001111100011111100000000000000000000000000000000000000000000000000000000000000000
1111111111100100000111011001000110100000000000000000000000000000000000000000000000000000000000000000
11100010011001111111000000000000000000000000000000000000000000000000000000000000000000
1001101011101110100010110000000000000000000000000000000000000000000000000000000000000000
101111001111011010111100000000000000000000000000000000000000000000000000000000000000000000000
1111111100110100110111110111011000000000000000000000000000000000000000000000000000000000000000000000
10011000001111000111000100000000000000000000000000000000000000000000000000000000000000000000
1111111111011111000100011111011110000000000000000000000000000000000000000000000000000000000000000000
1101000110000000101101000000000000000000000000000000000000000000000000000000000000000000000
1111111110011101110001010011110010000000000000000000000000000000000000000000000000000000000000000000
1111111111100011100101011110001100100000000000000000000000000000000000000000000000000000000000000000
1101100100011011001011100000000000000000000000000000000000000000000000000000000000000000000
101111011010101001110101000000000000000000000000000000000000000000000000000000000000000000
1111111110010101101001100111111110000000000000000000000000000000000000000000000000000000000000000000
100001000000000011110111000000000000000000000000000000000000000000000000000000000000000000000
1111111101111010000100100101101100000000000000000000000000000000000000000000000000000000000000000000
1111111100100000000100001001110000000000000000000000000000000000000000000000000000000000000000000000
1111111110000110101000000111001100000000000000000000000000000000000000000000000000000000000000000000
1011000010110010101111110000000000000000000000000000000000000000000000000000000000000000000
101101001011110000111110000000000000000000000000000000000000000000000000000000000000000000000
100100010101110001101111000000000000000000000000000000000000000000000000000000000000000000000
1110111101101110001011100000000000000000000000000000000000000000000000000000000000000000000
101100110100100111001110000000000000000000000000000000000000000000000000000000000000000000000
101001011010110101111100000000000000000000000000000000000000000000000000000000000000000000
1111111111010101010000111101010100000000000000000000000000000000000000000000000000000000000000000000
10001111111001000110010000000000000000000000000000000000000000000000000000000000000000000000
110100111111101010101000000000000000000000000000000000000000000000000000000000000000000000000
1111111101110111011101101101111100000000000000000000000000000000000000000000000000000000000000000000
1001011000100110101011010000000000000000000000000000000000000000000000000000000000000000000
1111111100110000011011001110011000000000000000000000000000000000000000000000000000000000000000000000
11001001011111010111110000000000000000000000000000000000000000000000000000000000000000000
1111111101110010101010000011001000000000000000000000000000000000000000000000000000000000000000000000
1111111101010001011101110111111000000000000000000000000000000000000000000000000000000000000000000000
1000111101101111010101110000000000000000000000000000000000000000000000000000000000000000000
110100100000001001100001000000000000000000000000000000000000000000000000000000000000000000000
1111111111110111100111011110100011010000000000000000000000000000000000000000000000000000000000000000
1111111101000011111110110111100100000000000000000000000000000000000000000000000000000000000000000000
101000001110110001111100000000000000000000000000000000000000000000000000000000000000
1111111101101000010010010000011000000000000000000000000000000000000000000000000000000000000000000000
1101000101111000101101100000000000000000000000000000000000000000000000000000000000000000000
10110100100011101110111000000000000000000000000000000000000000000000000000000000000000000000
1100101101111100011110110000000000000000000000000000000000000000000000000000000000000000000
10111100011010111101111100000000000000000000000000000000000000000000000000000000000000000000
1110001100100101001001010000000000000000000000000000000000000000000000000000000000000000000
101111111011011001011111000000000000000000000000000000000000000000000000000000000000000000000
110110001100001000000110000000000000000000000000000000000000000000000000000000000000000000000
1111111110111111011101100011010100000000000000000000000000000000000000000000000000000000000000000000
1111111111111011101110100010111001110000000000000000000000000000000000000000000000000000000000000000
1111111111000110101000100010111110000000000000000000000000000000000000000000000000000000000000000000
10101110011010111010001000000000000000000000000000000000000000000000000000000000000000000000
1111111111000101101101010001010010000000000000000000000000000000000000000000000000000000000000000000
1111111111101100110011100010110010000000000000000000000000000000000000000000000000000000000000000000
1111111111000100100110110101001010000000000000000000000000000000000000000000000000000000000000000000
1111111100101110010100001011100100000000000000000000000000000000000000000000000000000000000000000000
10001011111000101010000100000000000000000000000000000000000000000000000000000000000000000000
100101111001110000000000000000000000000000000000000000000000000000000000000000000000000000000
1111111110010111001011010111110100000000000000000000000000000000000000000000000000000000000000000000
1111111110000101110100101110101100000000000000000000000000000000000000000000000000000000000000000000
10000000110011010101000000000000000000000000000000000000000000000000000000000000000000000000
1100110000001101011100000000000000000000000000000000000000000000000000000000000000000000000
101110011000110101100111000000000000000000000000000000000000000000000000000000000000000000000
1111111110000111000011001000110110000000000000000000000000000000000000000000000000000000000000000000
1111111110101101010101010111010000000000000000000000000000000000000000000000000000000000000000000000
1111000000001001101000000000000000000000000000000000000000000000000000000000000000000000
1111111101110001111011110100010100000000000000000000000000000000000000000000000000000000000000000000
1111111110000111110010010000101000000000000000000000000000000000000000000000000000000000000000000000
100100111110110011101010000000000000000000000000000000000000000000000000000000000000000000000
1111111111110101011100100001101110100000000000000000000000000000000000000000000000000000000000000000
1111111100101000101001011001100100000000000000000000000000000000000000000000000000000000000000000000
1101010111111101011010000000000000000000000000000000000000000000000000000000000000000000
11000110100011010000101000000000000000000000000000000000000000000000000000000000000000000000
1011001111100010000110010000000000000000000000000000000000000000000000000000000000000000000
1001010111101110100000000000000000000000000000000000000000000000000000000000000000000000000
1001010000010100010101110000000000000000000000000000000000000000000000000000000000000000000
10100110111101010010110000000000000000000000000000000000000000000000000000000000000000000000
1111111110111101010000111001010010000000000000000000000000000000000000000000000000000000000000000000
100000110001011000101001000000000000000000000000000000000000000000000000000000000000000000000
101111110101010110100011000000000000000000000000000000000000000000000000000000000000000000000
110001000010000001100010000000000000000000000000000000000000000000000000000000000000000000
1110100110001000110100000000000000000000000000000000000000000000000000000000000000000000000
1111111111110001100110000000100001100000000000000000000000000000000000000000000000000000000000000000
100110011011111100101111000000000000000000000000000000000000000000000000000000000000000000000
11100000100000100111110100000000000000000000000000000000000000000000000000000000000000000000
11000100001110101000111000000000000000000000000000000000000000000000000000000000000000000000
1001110110001110100001000000000000000000000000000000000000000000000000000000000000000000000
1111111111011111111100101010010110000000000000000000000000000000000000000000000000000000000000000000
101000100001100000010000000000000000000000000000000000000000000000000000000000000000000000000
1111111111110010110100001111101111100000000000000000000000000000000000000000000000000000000000000000
1010011101000001011101100000000000000000000000000000000000000000000000000000000000000000
1111111110010000010100010110101010000000000000000000000000000000000000000000000000000000000000000000
1111111110001100111101111001010100000000000000000000000000000000000000000000000000000000000000000000
1010011011010001110011100000000000000000000000000000000000000000000000000000000000000000000
110100011110001011000110000000000000000000000000000000000000000000000000000000000000000000000
1111111100100100101000110101101000000000000000000000000000000000000000000000000000000000000000000000
11101111110111110100011000000000000000000000000000000000000000000000000000000000000000000000
11101101000101010000010000000000000000000000000000000000000000000000000000000000000000000000
110011000101100111001101000000000000000000000000000000000000000000000000000000000000000000000
1111111111111100100010011000111111101000000000000000000000000000000000000000000000000000000000000000
111111100001000111010011000000000000000000000000000000000000000000000000000000000000
100101100011101100011110000000000000000000000000000000000000000000000000000000000000000000000
110000111010001100100001000000000000000000000000000000000000000000000000000000000000000000000
1111111111010011111000110011000111000000000000000000000000000000000000000000000000000000000000000000
1111111111001110100011010010001110000000000000000000000000000000000000000000000000000000000000000000
1111111111110100000111000110111010100000000000000000000000000000000000000000000000000000000000000000
1100000100110100110111010000000000000000000000000000000000000000000000000000000000000000000
10011100100100110000000000000000000000000000000000000000000000000000000000000000000000000000
1110000000010010110001010000000000000000000000000000000000000000000000000000000000000000000
1111111111010110101000000000101100000000000000000000000000000000000000000000000000000000000000000000
10101111001011101110100100000000000000000000000000000000000000000000000000000000000000000000
1111111111111010111101010100110100111000000000000000000000000000000000000000000000000000000000000000
1111111111010011001010010010000011000000000000000000000000000000000000000000000000000000000000000000
1111111110100010111011111001000110000000000000000000000000000000000000000000000000000000000000000000
11100110000000011010100100000000000000000000000000000000000000000000000000000000000000000000
1111111111010011011010111101010100000000000000000000000000000000000000000000000000000000000000000000
100101101111000110110100000000000000000000000000000000000000000000000000000000000000000000000
101011111110111000010000000000000000000000000000000000000000000000000000000000000000000000000
1111111101110100011110100010110000000000000000000000000000000000000000000000000000000000000000000000
100000011111011101100100000000000000000000000000000000000000000000000000000000000000000000000
101101101111000011000111000000000000000000000000000000000000000000000000000000000000000000000
1111111101000011101011111001110100000000000000000000000000000000000000000000000000000000000000000000
110001111001010000011000000000000000000000000000000000000000000000000000000000000000000000000
11000010011001110011101000000000000000000000000000000000000000000000000000000000000000000
100001111000100011001101000000000000000000000000000000000000000000000000000000000000000000
100100010101001101011010000000000000000000000000000000000000000000000000000000000000000000000
101000011110100101000101000000000000000000000000000000000000000000000000000000000000000000
11010111001010010101001000000000000000000000000000000000000000000000000000000000000000000
1111111100011100010100011000101100000000000000000000000000000000000000000000000000000000000000000000
1011011111011010101101110000000000000000000000000000000000000000000000000000000000000000000
110101010000100000010100000000000000000000000000000000000000000000000000000000000000000000000
101111111101011100001000000000000000000000000000000000000000000000000000000000000000000000000
111001101011001100001110000000000000000000000000000000000000000000000000000000000000000000
101110111100010001110010000000000000000000000000000000000000000000000000000000000000000000000
110110001110011000001101000000000000000000000000000000000000000000000000000000000000000000000
1111111111010111110110101111101110000000000000000000000000000000000000000000000000000000000000000000
100001001110000000100110000000000000000000000000000000000000000000000000000000000000000000000
101010001110100000111001000000000000000000000000000000000000000000000000000000000000000
1111111111000001110101000111110110000000000000000000000000000000000000000000000000000000000000000000
11010000011110111111001000000000000000000000000000000000000000000000000000000000000000000000
11111010111111111001010000000000000000000000000000000000000000000000000000000000000000000000
1111111111100011010100110010001011100000000000000000000000000000000000000000000000000000000000000000
100010110000110010000010000000000000000000000000000000000000000000000000000000000000000000
11110100011101001110010100000000000000000000000000000000000000000000000000000000000000000000
10100111110011110000111000000000000000000000000000000000000000000000000000000000000000000
101110010110111001000010000000000000000000000000000000000000000000000000000000000000000000000
10110010010011100001000000000000000000000000000000000000000000000000000000000000000000000000
1111111111001001101011100101110001000000000000000000000000000000000000000000000000000000000000000000
101101100101000110111000000000000000000000000000000000000000000000000000000000000000000000000
1111111111001000111011101111100010000000000000000000000000000000000000000000000000000000000000000000
100011100010011101001011000000000000000000000000000000000000000000000000000000000000000000
1111111101100000011100110001001000000000000000000000000000000000000000000000000000000000000000000000
10111010110111001111011100000000000000000000000000000000000000000000000000000000000000000000
101110111001101110000110000000000000000000000000000000000000000000000000000000000000000000000
11010101110101101110001100000000000000000000000000000000000000000000000000000000000000000000
100110101011011101010010000000000000000000000000000000000000000000000000000000000000000000000
1111111111010100100111000101111001000000000000000000000000000000000000000000000000000000000000000000
1111111101101111001101000011100100000000000000000000000000000000000000000000000000000000000000000000
101111101000001111111100000000000000000000000000000000000000000000000000000000000000000000000
1111111100001111001111010000000000000000000000000000000000000000000000000000000000000000000
101000011000100010010011000000000000000000000000000000000000000000000000000000000000000000000
11100110100111010000100100000000000000000000000000000000000000000000000000000000000000000000
1111111101001111000111101101100000000000000000000000000000000000000000000000000000000000000000000000
1010011101100000111001100000000000000000000000000000000000000000000000000000000000000000000
110010011110000111001100000000000000000000000000000000000000000000000000000000000000000000000
1111111110110001000000010010110110000000000000000000000000000000000000000000000000000000000000000000
111111110011010111000000000000000000000000000000000000000000000000000000000000000000000000
11100111010100011010101000000000000000000000000000000000000000000000000000000000000000000000
110110001101010110010010000000000000000000000000000000000000000000000000000000000000000000000
1111111100110100110111111000011000000000000000000000000000000000000000000000000000000000000000000000
11001010110001110000110000000000000000000000000000000000000000000000000000000000000000000000
1000010001100011000111100000000000000000000000000000000000000000000000000000000000000000000
1000000010010001111111110000000000000000000000000000000000000000000000000000000000000000
100011011111011010001111000000000000000000000000000000000000000000000000000000000000000000000
110011110010110111111000000000000000000000000000000000000000000000000000000000000000000000000
1111111111010001110010010001001001000000000000000000000000000000000000000000000000000000000000000000
100100001101011010100010000000000000000000000000000000000000000000000000000000000000000000000
101001010101010100011010000000000000000000000000000000000000000000000000000000000000000000000
1110110100011001101001100000000000000000000000000000000000000000000000000000000000000000000
101100001100000010000001000000000000000000000000000000000000000000000000000000000000000000000
1111111110011101110111010100000000000000000000000000000000000000000000000000000000000000000000000000
100010100101101011111110000000000000000000000000000000000000000000000000000000000000000000
1111111111100111011010011101101000100000000000000000000000000000000000000000000000000000000000000000
11111001111011001110101000000000000000000000000000000000000000000000000000000000000000000000
100101001001101100001111000000000000000000000000000000000000000000000000000000000000000000000
101101100101000010010010000000000000000000000000000000000000000000000000000000000000000000000
110100010001111111100001000000000000000000000000000000000000000000000000000000000000000000000
1111111101000100111011111110001100000000000000000000000000000000000000000000000000000000000000000000
110001100000111111101000000000000000000000000000000000000000000000000000000000000000000000000
101001011101010011010001000000000000000000000000000000000000000000000000000000000000000000000
10011110100101010000011100000000000000000000000000000000000000000000000000000000000000000
1000111010100111100111110000000000000000000000000000000000000000000000000000000000000000000
101011101010101010000010000000000000000000000000000000000000000000000000000000000000000000000
101110101101001010100011000000000000000000000000000000000000000000000000000000000000000000000
110101101110011000111111000000000000000000000000000000000000000000000000000000000000000000000
1111111101000011011101100100110100000000000000000000000000000000000000000000000000000000000000000000
10101111100011011110000000000000000000000000000000000000000000000000000000000000000000000000
1001111001110011000101100000000000000000000000000000000000000000000000000000000000000000000
1111111111111110000110100010101010010010000000000000000000000000000000000000000000000000000000000000
1111111101011100011101110100010000000000000000000000000000000000000000000000000000000000000000000000
100011101010011010111000000000000000000000000000000000000000000000000000000000000000000000000
10101011010100110011111000000000000000000000000000000000000000000000000000000000000000000000
11001110010111010011111000000000000000000000000000000000000000000000000000000000000000000000
1101110001100100011110100000000000000000000000000000000000000000000000000000000000000000
11000010010110110100110000000000000000000000000000000000000000000000000000000000000000000000
1111111111011111000000110010011110000000000000000000000000000000000000000000000000000000000000000000
100000110110010011000011000000000000000000000000000000000000000000000000000000000000000000000
110010110101100100101011000000000000000000000000000000000000000000000000000000000000000000000
1111111111111101011000011110001101110000000000000000000000000000000000000000000000000000000000000000
10100110001110101011101100000000000000000000000000000000000000000000000000000000000000000000
110001001010001010110111000000000000000000000000000000000000000000000000000000000000000000000
10001100000110000001001000000000000000000000000000000000000000000000000000000000000000000
110000101000011101100101000000000000000000000000000000000000000000000000000000000000000000000
1111111101111010111000101100010100000000000000000000000000000000000000000000000000000000000000000000
1110110001111110001110110000000000000000000000000000000000000000000000000000000000000000000
110010011100111101011011000000000000000000000000000000000000000000000000000000000000000000000
100011001000001000010001000000000000000000000000000000000000000000000000000000000000000000000
11010000111100110000110100000000000000000000000000000000000000000000000000000000000000000000
100001000011111110110010000000000000000000000000000000000000000000000000000000000000000000000
10101001010111010100000000000000000000000000000000000000000000000000000000000000000000000000
1111111101000010001000101001110100000000000000000000000000000000000000000000000000000000000000000000
101010111101011111110100000000000000000000000000000000000000000000000000000000000000000000000
1111111100110010011111101011010100000000000000000000000000000000000000000000000000000000000000000000
100111001011100101101111000000000000000000000000000000000000000000000000000000000000000000000
1111111110111100110000101100101100000000000000000000000000000000000000000000000000000000000000000000
101101001101001000000100000000000000000000000000000000000000000000000000000000000000000000
101100000010111011101100000000000000000000000000000000000000000000000000000000000000000000000
1111111101001011001010101011111000000000000000000000000000000000000000000000000000000000000000000000
1111111110011110011001110010010000000000000000000000000000000000000000000000000000000000000000000000
11100000111011111111001000000000000000000000000000000000000000000000000000000000000000000000
1111111111111001111110101000010111111000000000000000000000000000000000000000000000000000000000000000
1111111100110110010000100000110100000000000000000000000000000000000000000000000000000000000000000000
10011000001001010111101000000000000000000000000000000000000000000000000000000000000000000000
1111111110010011011011001110101110000000000000000000000000000000000000000000000000000000000000000000
110100101010011100010100000000000000000000000000000000000000000000000000000000000000000000000
1111111100100111001000110001110100000000000000000000000000000000000000000000000000000000000000000000
101100110111010110101011000000000000000000000000000000000000000000000000000000000000000000000
1111111100111111101101000110000000000000000000000000000000000000000000000000000000000000000000000000
1111111100111100001111100011100000000000000000000000000000000000000000000000000000000000000000000000
10011100011010111011110000000000000000000000000000000000000000000000000000000000000000000000
1111111100111100110010000111000100000000000000000000000000000000000000000000000000000000000000000000
1001011110010111111010010000000000000000000000000000000000000000000000000000000000000000000
1111111111100000001111011110010110100000000000000000000000000000000000000000000000000000000000000000
11011100100011111001000000000000000000000000000000000000000000000000000000000000000000000000
101010011100001000000000000000000000000000000000000000000000000000000000000000000000000000000
110000100011111001011110000000000000000000000000000000000000000000000000000000000000000000000
1000011000000111001010110000000000000000000000000000000000000000000000000000000000000000000
100101111100010101000100000000000000000000000000000000000000000000000000000000000000000000000
101000111100011010000111000000000000000000000000000000000000000000000000000000000000000000000
1111111111011101010101101011100100000000000000000000000000000000000000000000000000000000000000000000
101100100001111101101010000000000000000000000000000000000000000000000000000000000000000000000
1111111111000110110101000101011110000000000000000000000000000000000000000000000000000000000000000000
1111111101000111011101001101110100000000000000000000000000000000000000000000000000000000000000000000
1010000000010101010010000000000000000000000000000000000000000000000000000000000000000000000
1111111110111011000011101111110100000000000000000000000000000000000000000000000000000000000000000000
100001110101101011101010000000000000000000000000000000000000000000000000000000000000000000
1111111110010000010101010111000000000000000000000000000000000000000000000000000000000000000000000000
10110100110110000110111000000000000000000000000000000000000000000000000000000000000000000000
110011111101011110010000000000000000000000000000000000000000000000000000000000000000000000000
1111111111011011110000110010101111000000000000000000000000000000000000000000000000000000000000000000
0
11101101010101100101100000000000000000000000000000000000000000000000000000000000000000000000
1111111111001011010111101110101101000000000000000000000000000000000000000000000000000000000000000000
1111111111000110110010000001001101000000000000000000000000000000000000000000000000000000000000000000
1111111101011101101010011001101000000000000000000000000000000000000000000000000000000000000000000000
1111111111100001010111000011010110000000000000000000000000000000000000000000000000000000000000000000
110001110101000110001001000000000000000000000000000000000000000000000000000000000000000000000
110001101011111101011011000000000000000000000000000000000000000000000000000000000000000000000
10010111110001101001000000000000000000000000000000000000000000000000000000000000000000000000
11101001010000001011000000000000000000000000000000000000000000000000000000000000000000000000
11111010011011100010001100000000000000000000000000000000000000000000000000000000000000000000
101110000000001001110100000000000000000000000000000000000000000000000000000000000000000000000
1111111110111010000000001110110100000000000000000000000000000000000000000000000000000000000000000000
110111111101110111001111000000000000000000000000000000000000000000000000000000000000000000
10101111101000100001000000000000000000000000000000000000000000000000000000000000000000000000
10100000011100100111111000000000000000000000000000000000000000000000000000000000000000000000
100111110101101001110111000000000000000000000000000000000000000000000000000000000000000000000
1111111111000000101000000101000111000000000000000000000000000000000000000000000000000000000000000000
10110111111001101100001000000000000000000000000000000000000000000000000000000000000000000000
10001010100110110001011100000000000000000000000000000000000000000000000000000000000000000000
101111010111100101010000000000000000000000000000000000000000000000000000000000000000000000000
1111111111011001100111110000011101000000000000000000000000000000000000000000000000000000000000000000
10111110100101001000111100000000000000000000000000000000000000000000000000000000000000000
101111100100111000111001000000000000000000000000000000000000000000000000000000000000000000000
1111111111001101000010101110100010000000000000000000000000000000000000000000000000000000000000000000
1111111111110000011101101001101111010000000000000000000000000000000000000000000000000000000000000000
100100110111001111110101000000000000000000000000000000000000000000000000000000000000000000000
10100100110101100011100100000000000000000000000000000000000000000000000000000000000000000000
1111111111001001101111010010010111000000000000000000000000000000000000000000000000000000000000000000
11100101100100101001100000000000000000000000000000000000000000000000000000000000000000000000
110001010010110110111000000000000000000000000000000000000000000000000000000000000000000000000
10010011101111000100110000000000000000000000000000000000000000000000000000000000000000000
1111111110110001111001001100100100000000000000000000000000000000000000000000000000000000000000000000
11110001101000000011010100000000000000000000000000000000000000000000000000000000000000000000
10111001110110010010011100000000000000000000000000000000000000000000000000000000000000000000
1111000110001111000001010000000000000000000000000000000000000000000000000000000000000000000
10010110101100110110111000000000000000000000000000000000000000000000000000000000000000000000
1111111100111111101100000010001100000000000000000000000000000000000000000000000000000000000000000000
110011110011111100010101000000000000000000000000000000000000000000000000000000000000000000000
11010001110110010000011000000000000000000000000000000000000000000000000000000000000000000000
1000011100011111000011100000000000000000000000000000000000000000000000000000000000000000000
11010111001010001000111100000000000000000000000000000000000000000000000000000000000000000000
110010100001010110111011000000000000000000000000000000000000000000000000000000000000000000000
1101111000100101011001000000000000000000000000000000000000000000000000000000000000000000000
1111111101001111011011011010101000000000000000000000000000000000000000000000000000000000000000000000
101011011010000101110111000000000000000000000000000000000000000000000000000000000000000000
10110101110110001101011100000000000000000000000000000000000000000000000000000000000000000000
1111111100111110010101111111000100000000000000000000000000000000000000000000000000000000000000000000
1111111101010000011101011001110000000000000000000000000000000000000000000000000000000000000000000000
100101100101111011001110000000000000000000000000000000000000000000000000000000000000000000000
100111000101001110001000000000000000000000000000000000000000000000000000000000000000000
1111111100111011110111011100011100000000000000000000000000000000000000000000000000000000000000000000
11110100100001110001101000000000000000000000000000000000000000000000000000000000000000000000
1111111111011110100110010101010011000000000000000000000000000000000000000000000000000000000000000000
101011110001001100111110000000000000000000000000000000000000000000000000000000000000000000
11010011101010000000011100000000000000000000000000000000000000000000000000000000000000000000
1000100001000110101001100000000000000000000000000000000000000000000000000000000000000000000
1111111110011100111100000001001110000000000000000000000000000000000000000000000000000000000000000000
1111111110111110111010111001111010000000000000000000000000000000000000000000000000000000000000000000
110101110100011110110010000000000000000000000000000000000000000000000000000000000000000000000
1111111110001011111101010100100110000000000000000000000000000000000000000000000000000000000000000000
1111111100110000001101111111110100000000000000000000000000000000000000000000000000000000000000000000
10001101111101110010100000000000000000000000000000000000000000000000000000000000000000000000
1111111110111001001001011011111010000000000000000000000000000000000000000000000000000000000000000000
11000001001000110000001100000000000000000000000000000000000000000000000000000000000000000000
11110010110010001011000100000000000000000000000000000000000000000000000000000000000000000000
101000111000101010111010000000000000000000000000000000000000000000000000000000000000000000
1111111110110010010101000001000010000000000000000000000000000000000000000000000000000000000000000000
110010000000001011001011000000000000000000000000000000000000000000000000000000000000000000000
1111111111010111110000100100101011000000000000000000000000000000000000000000000000000000000000000000
1111111111110110011101010111000001110000000000000000000000000000000000000000000000000000000000000000
100101110011011100100100000000000000000000000000000000000000000000000000000000000000000000000
1110001010101110100101110000000000000000000000000000000000000000000000000000000000000000
10110000011011101101001100000000000000000000000000000000000000000000000000000000000000000
11000111100100011110100000000000000000000000000000000000000000000000000000000000000000000000
1111111111000111100100101000010101000000000000000000000000000000000000000000000000000000000000000000
1111111110101110100011101011110010000000000000000000000000000000000000000000000000000000000000000000
101000111010110000011111000000000000000000000000000000000000000000000000000000000000000000000
1111111100110011010110110100110100000000000000000000000000000000000000000000000000000000000000000000
1111111110110010100001111011011100000000000000000000000000000000000000000000000000000000000000000000
100001111010001110110100000000000000000000000000000000000000000000000000000000000000000000000
11100110100101100000100100000000000000000000000000000000000000000000000000000000000000000000
101110110110100111011111000000000000000000000000000000000000000000000000000000000000000000000
10101000100010101000101000000000000000000000000000000000000000000000000000000000000000000000
110100010001100100110111000000000000000000000000000000000000000000000000000000000000000000000
11010001101100100111001100000000000000000000000000000000000000000000000000000000000000000000
1111111101100111101110010001111000000000000000000000000000000000000000000000000000000000000000000000
100101000010100111000001000000000000000000000000000000000000000000000000000000000000000000000
10100101101001001001111000000000000000000000000000000000000000000000000000000000000000000000
101100110101011001001000000000000000000000000000000000000000000000000000000000000000000000000
1101001010000101010011100000000000000000000000000000000000000000000000000000000000000000000
1011100110011010111100000000000000000000000000000000000000000000000000000000000000000000000
1111111111000100011111100101110010000000000000000000000000000000000000000000000000000000000000000000
110001000110001111100001000000000000000000000000000000000000000000000000000000000000000000000
110011111010001100010110000000000000000000000000000000000000000000000000000000000000000000000
1111111111011011110011001011100001000000000000000000000000000000000000000000000000000000000000000000
110000011011101100000000000000000000000000000000000000000000000000000000000000000000000000000
1111111101000111001100110011010100000000000000000000000000000000000000000000000000000000000000000000
111010001000100001100000000000000000000000000000000000000000000000000000000000000000000000
1111000010000000001001000000000000000000000000000000000000000000000000000000000000000000000
110101000111011110110001000000000000000000000000000000000000000000000000000000000000000000
101110011111001011100011000000000000000000000000000000000000000000000000000000000000000000000
10011001101101101100110000000000000000000000000000000000000000000000000000000000000000000000
101110000100001100010010000000000000000000000000000000000000000000000000000000000000000000000
101001010111100110100110000000000000000000000000000000000000000000000000000000000000000000000
1111111101111010011101001010000100000000000000000000000000000000000000000000000000000000000000000000
1111111110001101000011100010011000000000000000000000000000000000000000000000000000000000000000000000
101010011011110110100001000000000000000000000000000000000000000000000000000000000000000000
1111111100110100000110000111110100000000000000000000000000000000000000000000000000000000000000000000
1111111110101011000000000001011110000000000000000000000000000000000000000000000000000000000000000000
1111111101000111101100100100001100000000000000000000000000000000000000000000000000000000000000000000
110010010000100000110010000000000000000000000000000000000000000000000000000000000000000000000
11011011111000111001111100000000000000000000000000000000000000000000000000000000000000000000
1101110111010111011010010000000000000000000000000000000000000000000000000000000000000000
1111111101111011001111110101101100000000000000000000000000000000000000000000000000000000000000000000
1111111110110111011101110111110000000000000000000000000000000000000000000000000000000000000000000000
1111111101111100010101001010100000000000000000000000000000000000000000000000000000000000000000000000
11010011000100100000101100000000000000000000000000000000000000000000000000000000000000000000
101010000111111111011011000000000000000000000000000000000000000000000000000000000000000000000
11110110101001010111110100000000000000000000000000000000000000000000000000000000000000000000
110100111000101110111001000000000000000000000000000000000000000000000000000000000000000000000
1111111111101100010001010000110110000000000000000000000000000000000000000000000000000000000000000000
1010011100001001110010100000000000000000000000000000000000000000000000000000000000000000000
10101000001111010011101100000000000000000000000000000000000000000000000000000000000000000
11110111100111110011110100000000000000000000000000000000000000000000000000000000000000000000
1111111101100110011010110100100100000000000000000000000000000000000000000000000000000000000000000000
110100010010111110101100000000000000000000000000000000000000000000000000000000000000000000
110100101101100001110001000000000000000000000000000000000000000000000000000000000000000000000
1001101101001100100111010000000000000000000000000000000000000000000000000000000000000000000
101111110001101101011010000000000000000000000000000000000000000000000000000000000000000000000
1111111110111001100010011010110100000000000000000000000000000000000000000000000000000000000000000000
1111111111010001100000100010110100000000000000000000000000000000000000000000000000000000000000000000
10010100010010100101111100000000000000000000000000000000000000000000000000000000000000000000
1110010001101001001111010000000000000000000000000000000000000000000000000000000000000000000
110111010001101101101011000000000000000000000000000000000000000000000000000000000000000000
1111111111110011000110011110111010110000000000000000000000000000000000000000000000000000000000000000
1111111111001000110101111110101110000000000000000000000000000000000000000000000000000000000000000000
1000110001110100011001100000000000000000000000000000000000000000000000000000000000000000000
101100010001001100000111000000000000000000000000000000000000000000000000000000000000000000000
1111111100111100001111101101010000000000000000000000000000000000000000000000000000000000000000000000
1111111101001000110000010110000000000000000000000000000000000000000000000000000000000000000000000000
1111111100101000111011000101001000000000000000000000000000000000000000000000000000000000000000000000
11001100101011000110001000000000000000000000000000000000000000000000000000000000000000000000
1111111111111000110001101100001011100000000000000000000000000000000000000000000000000000000000000000
10101001000111010101001000000000000000000000000000000000000000000000000000000000000000000000
1111111111100101110001010101011011000000000000000000000000000000000000000000000000000000000000000000
1111111110100001110100011011011110000000000000000000000000000000000000000000000000000000000000000000
10010010101001100110110000000000000000000000000000000000000000000000000000000000000000000
110001010010001101101111000000000000000000000000000000000000000000000000000000000000000000000
1100011011111000100100110000000000000000000000000000000000000000000000000000000000000000
10011110000110000101011100000000000000000000000000000000000000000000000000000000000000000000
101011000011100101000110000000000000000000000000000000000000000000000000000000000000000000000
11110110111101100000011100000000000000000000000000000000000000000000000000000000000000000000
101101000010101000100100000000000000000000000000000000000000000000000000000000000000000000000
1100110110010100010100010000000000000000000000000000000000000000000000000000000000000000000
1111111000000000110011100000000000000000000000000000000000000000000000000000000000000000000
1111111100101010111001101011001100000000000000000000000000000000000000000000000000000000000000000000
110010100100100001101110000000000000000000000000000000000000000000000000000000000000000000000
101101001111101110100001000000000000000000000000000000000000000000000000000000000000000000000
100110101110000000100010000000000000000000000000000000000000000000000000000000000000000000000
11101101011101001100101000000000000000000000000000000000000000000000000000000000000000000000
100001101001011001010101000000000000000000000000000000000000000000000000000000000000000000000
1111111100011010100000010101000000000000000000000000000000000000000000000000000000000000000000000000
100001011101001101110100000000000000000000000000000000000000000000000000000000000000000
101011001101100101101000000000000000000000000000000000000000000000000000000000000000000000000
1111111101110011110001011100011100000000000000000000000000000000000000000000000000000000000000000000
1110000101010011110011010000000000000000000000000000000000000000000000000000000000000000000
100001110010100100100110000000000000000000000000000000000000000000000000000000000000000000000
1111111111010010011000010010001011000000000000000000000000000000000000000000000000000000000000000000
1100111000000100111010010000000000000000000000000000000000000000000000000000000000000000000
1111111111100110011010001010111100000000000000000000000000000000000000000000000000000000000000000000
101101010000111100011000000000000000000000000000000000000000000000000000000000000000000000000
1011100010111100000101000000000000000000000000000000000000000000000000000000000000000000000
100111100100110001010100000000000000000000000000000000000000000000000000000000000000000000000
1111111110111111011000111101110000000000000000000000000000000000000000000000000000000000000000000000
111110001100011000000100000000000000000000000000000000000000000000000000000000000000000000
101000100001111001111110000000000000000000000000000000000000000000000000000000000000000000000
1111111101101111101001001001100100000000000000000000000000000000000000000000000000000000000000000000
110000011001101101101000000000000000000000000000000000000000000000000000000000000000000000000
10110001111101111101101100000000000000000000000000000000000000000000000000000000000000000000
1111111101010001101110000010101100000000000000000000000000000000000000000000000000000000000000000000
1110011010010001110100110000000000000000000000000000000000000000000000000000000000000000000
11110110011000001010111000000000000000000000000000000000000000000000000000000000000000000000
1111111110000101001100101010011100000000000000000000000000000000000000000000000000000000000000000000
11001101110111001100011000000000000000000000000000000000000000000000000000000000000000000000
10000010101101000101101000000000000000000000000000000000000000000000000000000000000000000000
1000011101100100011111110000000000000000000000000000000000000000000000000000000000000000000
1111111100100111010111001110010000000000000000000000000000000000000000000000000000000000000000000000
101111000011001000011100000000000000000000000000000000000000000000000000000000000000000000000
11110100110101110110010000000000000000000000000000000000000000000000000000000000000000000000
1111111101001110101110111000000000000000000000000000000000000000000000000000000000000000000000000000
10101110111100101100000100000000000000000000000000000000000000000000000000000000000000000000
1111111111011000101011011110010010000000000000000000000000000000000000000000000000000000000000000000
1111111111011101011100000111010011000000000000000000000000000000000000000000000000000000000000000000
1111111110011010011100010111111100000000000000000000000000000000000000000000000000000000000000000000
10001110110010011100001000000000000000000000000000000000000000000000000000000000000000000000
11100011111110011010101000000000000000000000000000000000000000000000000000000000000000000
110100000011011000001100000000000000000000000000000000000000000000000000000000000000000000000
110010011111011111100011000000000000000000000000000000000000000000000000000000000000000000000
1111111101101110100110101010011000000000000000000000000000000000000000000000000000000000000000000000
1111111110100110100001011111011100000000000000000000000000000000000000000000000000000000000000000000
1111111101011100100000101111101000000000000000000000000000000000000000000000000000000000000000000000
1111111101000011110011101100000100000000000000000000000000000000000000000000000000000000000000000000
110011001111101100101010000000000000000000000000000000000000000000000000000000000000
1111111111110000011111101000011010000000000000000000000000000000000000000000000000000000000000000000
11100000000100011010101100000000000000000000000000000000000000000000000000000000000000000000
110101110011010000111000000000000000000000000000000000000000000000000000000000000000000000000
1111111111011010000111110000101011000000000000000000000000000000000000000000000000000000000000000000
1111111111100100100001101110001011000000000000000000000000000000000000000000000000000000000000000000
101001100000111101010101000000000000000000000000000000000000000000000000000000000000000000000
1111111110111100101110100111101010000000000000000000000000000000000000000000000000000000000000000000
100011101001000011001111000000000000000000000000000000000000000000000000000000000000000000000
1111111111010100101100101100100010000000000000000000000000000000000000000000000000000000000000000000
110101000100000111111010000000000000000000000000000000000000000000000000000000000000000000
1111111101110110100111010010010000000000000000000000000000000000000000000000000000000000000000000000
1111111100100010100000110111010100000000000000000000000000000000000000000000000000000000000000000000
110001100100111100110100000000000000000000000000000000000000000000000000000000000000000000000
10101010010111100000100000000000000000000000000000000000000000000000000000000000000000000000
11010010000001011100101000000000000000000000000000000000000000000000000000000000000000000
1111111101101001101101011010011100000000000000000000000000000000000000000000000000000000000000000000
1111111110100110011111100111111110000000000000000000000000000000000000000000000000000000000000000000
1111111101001000001011100110110000000000000000000000000000000000000000000000000000000000000000000000
100001110100100001010011000000000000000000000000000000000000000000000000000000000000000000000
1111111111011110100101010111100100000000000000000000000000000000000000000000000000000000000000000000
10001111100100101001000100000000000000000000000000000000000000000000000000000000000000000000
110000011000001001010111000000000000000000000000000000000000000000000000000000000000000000000
11010001101001100001000100000000000000000000000000000000000000000000000000000000000000000
1110011100001000100001110000000000000000000000000000000000000000000000000000000000000000000
100001111000111111010000000000000000000000000000000000000000000000000000000000000000000000000
100001111010111111011101000000000000000000000000000000000000000000000000000000000000000000000
1111111101010101101011010000111100000000000000000000000000000000000000000000000000000000000000000000
101011100001001110010110000000000000000000000000000000000000000000000000000000000000000000000
101010110000011011101011000000000000000000000000000000000000000000000000000000000000000000
11011110000101000011100100000000000000000000000000000000000000000000000000000000000000000000
10111110110010000111111000000000000000000000000000000000000000000000000000000000000000000000
1111111111001011000011010110001101000000000000000000000000000000000000000000000000000000000000000000
11100101100010101010001100000000000000000000000000000000000000000000000000000000000000000000
10011010110110110111111100000000000000000000000000000000000000000000000000000000000000000000
100111010101101110011011000000000000000000000000000000000000000000000000000000000000000000000
10010000010100110110111100000000000000000000000000000000000000000000000000000000000000000000
10011111110011000101100000000000000000000000000000000000000000000000000000000000000000000000
1111111110111110111111010011100110000000000000000000000000000000000000000000000000000000000000000000
1111011001001100001101100000000000000000000000000000000000000000000000000000000000000000000
1111111110110100010110111100111010000000000000000000000000000000000000000000000000000000000000000000
100110101000001010010000000000000000000000000000000000000000000000000000000000000000000000000
1111111101001110100010001111110000000000000000000000000000000000000000000000000000000000000000000000
1111111110010010100001111101111010000000000000000000000000000000000000000000000000000000000000000000
10111001101111000001010000000000000000000000000000000000000000000000000000000000000000000000
111101100010110001100111000000000000000000000000000000000000000000000000000000000000000
10000110100100010011001100000000000000000000000000000000000000000000000000000000000000000000
11101101010001001101110100000000000000000000000000000000000000000000000000000000000000000000
1011101101100111100100010000000000000000000000000000000000000000000000000000000000000000000
1011000010011110000100010000000000000000000000000000000000000000000000000000000000000000000
1111111111010011000000100110101100000000000000000000000000000000000000000000000000000000000000000000
10100101010010001100010000000000000000000000000000000000000000000000000000000000000000000000
10000010111000100111011100000000000000000000000000000000000000000000000000000000000000000000
100100010100000111101111000000000000000000000000000000000000000000000000000000000000000000000
101011010101001011111000000000000000000000000000000000000000000000000000000000000000000000000
11011010000101101111110000000000000000000000000000000000000000000000000000000000000000000000
1111011110011011111110100000000000000000000000000000000000000000000000000000000000000000
10000110111000000010100100000000000000000000000000000000000000000000000000000000000000000000
1010101100010001101100100000000000000000000000000000000000000000000000000000000000000000000
110000111000110000001011000000000000000000000000000000000000000000000000000000000000000000000
1111111101001101011111001010101100000000000000000000000000000000000000000000000000000000000000000000
100011010000101101010110000000000000000000000000000000000000000000000000000000000000000000000
101100011100111001011010000000000000000000000000000000000000000000000000000000000000000000000
1111111110101000000000001100010110000000000000000000000000000000000000000000000000000000000000000000
11000100010110100110110000000000000000000000000000000000000000000000000000000000000000000000
10111111000000110101111000000000000000000000000000000000000000000000000000000000000000000000
1111111110011110111000010100010010000000000000000000000000000000000000000000000000000000000000000000
1111111110000001100100000100010100000000000000000000000000000000000000000000000000000000000000000000
1111111111100000110000000011110001100000000000000000000000000000000000000000000000000000000000000000
101111010100000100010100000000000000000000000000000000000000000000000000000000000000000000000
101100111110100100010000000000000000000000000000000000000000000000000000000000000000000000000
1111111111011101010101011000000000000000000000000000000000000000000000000000000000000000000000000000
110000110011100101001001000000000000000000000000000000000000000000000000000000000000000000000
110001110000110101101101000000000000000000000000000000000000000000000000000000000000000000000
100010000101000110100111000000000000000000000000000000000000000000000000000000000000000000000
1111111110101100001110000001010010000000000000000000000000000000000000000000000000000000000000000000
111101100111011010111101000000000000000000000000000000000000000000000000000000000000000000
100110001011111111111000000000000000000000000000000000000000000000000000000000000000000000000
10000111111011000111011000000000000000000000000000000000000000000000000000000000000000000000
1010001011110111010100100000000000000000000000000000000000000000000000000000000000000000000
1111111111010010000010001001110110000000000000000000000000000000000000000000000000000000000000000000
1111111111000010111100001111001101000000000000000000000000000000000000000000000000000000000000000000
11111100001000010100110000000000000000000000000000000000000000000000000000000000000000000000
11111010111011000100011000000000000000000000000000000000000000000000000000000000000000000000
10010001001010110111101100000000000000000000000000000000000000000000000000000000000000000000
1011110111110011010101000000000000000000000000000000000000000000000000000000000000000000000
1111111111100011111000100011000000100000000000000000000000000000000000000000000000000000000000000000
100000100001001010000110000000000000000000000000000000000000000000000000000000000000000000000
101100101100011110101000000000000000000000000000000000000000000000000000000000000000000000000
100011100011001111111101000000000000000000000000000000000000000000000000000000000000000000000
10000111100110101110110000000000000000000000000000000000000000000000000000000000000000000000
10110010001001110010000100000000000000000000000000000000000000000000000000000000000000000000
1111111101010101101101001101010000000000000000000000000000000000000000000000000000000000000000000000
110101101101100010111110000000000000000000000000000000000000000000000000000000000000000000000
1111111110001011010101000001000100000000000000000000000000000000000000000000000000000000000000000000
1111111111101001000001010011111001100000000000000000000000000000000000000000000000000000000000000000
1001100011000011110000110000000000000000000000000000000000000000000000000000000000000000
110000111011100111101000000000000000000000000000000000000000000000000000000000000000000000000
1111111110010011111000111000010100000000000000000000000000000000000000000000000000000000000000000000
10100110001000011011100100000000000000000000000000000000000000000000000000000000000000000000
100001011011011100111111000000000000000000000000000000000000000000000000000000000000000000000
1111111101100010011110010110010100000000000000000000000000000000000000000000000000000000000000000000
10000001111010011111000100000000000000000000000000000000000000000000000000000000000000000000
101000101101001100100011000000000000000000000000000000000000000000000000000000000000000000000
1111111111110001011010110111000010110000000000000000000000000000000000000000000000000000000000000000
110100011010001101100011000000000000000000000000000000000000000000000000000000000000000000000
1111111110001000111100011101011100000000000000000000000000000000000000000000000000000000000000000000
1111111101101000101101010111001000000000000000000000000000000000000000000000000000000000000000000000
100110110111001101010000000000000000000000000000000000000000000000000000000000000000000000000
110100000001000001110110000000000000000000000000000000000000000000000000000000000000000000000
1111111101010001000000110100000000000000000000000000000000000000000000000000000000000000000000000000
101110011100110101100010000000000000000000000000000000000000000000000000000000000000000000000
10011001100010101100001000000000000000000000000000000000000000000000000000000000000000000000
100011000011011010011110000000000000000000000000000000000000000000000000000000000000000000000
1111111101010011011001100011000000000000000000000000000000000000000000000000000000000000000000000000
101111100101101001010100000000000000000000000000000000000000000000000000000000000000000000
10010011110011101111110100000000000000000000000000000000000000000000000000000000000000000000
10000110011010101011000000000000000000000000000000000000000000000000000000000000000000000000
1111111110111110111011000001000100000000000000000000000000000000000000000000000000000000000000000000
100010000111000000111101000000000000000000000000000000000000000000000000000000000000000000000
1111111111100110001011110110000000100000000000000000000000000000000000000000000000000000000000000000
100111001100101100111101000000000000000000000000000000000000000000000000000000000000000000000
1111111101000010101100110000000000000000000000000000000000000000000000000000000000000000000
100101100010011111101111000000000000000000000000000000000000000000000000000000000000000000000
1111111110000001010101111111100000000000000000000000000000000000000000000000000000000000000000000000
101010000101001100101101000000000000000000000000000000000000000000000000000000000000000000000
10001000100001100100101000000000000000000000000000000000000000000000000000000000000000000000
1010100010010101101010100000000000000000000000000000000000000000000000000000000000000000000
11111111100110010010101000000000000000000000000000000000000000000000000000000000000000000000
1111111111000111110000101000011110000000000000000000000000000000000000000000000000000000000000000000
110101010100010000000011000000000000000000000000000000000000000000000000000000000000000000000
10110011000000011100101000000000000000000000000000000000000000000000000000000000000000000000
1000101010110010110010110000000000000000000000000000000000000000000000000000000000000000000
101101111100011010000110000000000000000000000000000000000000000000000000000000000000000000000
100000011001001010100101000000000000000000000000000000000000000000000000000000000000000000000
1001110111011000000111010000000000000000000000000000000000000000000000000000000000000
100010110110010000111101000000000000000000000000000000000000000000000000000000000000000000000
1111111100110000001001011100110100000000000000000000000000000000000000000000000000000000000000000000
1111111100100000111001110010001000000000000000000000000000000000000000000000000000000000000000000000
10011100100000111010011100000000000000000000000000000000000000000000000000000000000000000000
1111111101011101110011111110011100000000000000000000000000000000000000000000000000000000000000000000
110001101011111010110000000000000000000000000000000000000000000000000000000000000000000000000
1111111100100001010010110111101100000000000000000000000000000000000000000000000000000000000000000000
100001000010111100011011000000000000000000000000000000000000000000000000000000000000000000000
100111000011001010111000000000000000000000000000000000000000000000000000000000000000000000000
11011100001110011110000000000000000000000000000000000000000000000000000000000000000000000000
11011100000000110000010000000000000000000000000000000000000000000000000000000000000000000000
11010011111110110110101000000000000000000000000000000000000000000000000000000000000000000000
111001000100111001100001000000000000000000000000000000000000000000000000000000000000000000
1111111101111010101111100110001000000000000000000000000000000000000000000000000000000000000000000000
101101011000100111000110000000000000000000000000000000000000000000000000000000000000000000000
111110011011000011010001000000000000000000000000000000000000000000000000000000000000000000
1111111101011001000001001101110100000000000000000000000000000000000000000000000000000000000000000000
101111101101000000111010000000000000000000000000000000000000000000000000000000000000000000000
1111111110100111011010100111100110000000000000000000000000000000000000000000000000000000000000000000
11001111001000001101001100000000000000000000000000000000000000000000000000000000000000000000
101100010101101001011111000000000000000000000000000000000000000000000000000000000000000000000
100011000110101111000011000000000000000000000000000000000000000000000000000000000000000000000
101111010000000011110000000000000000000000000000000000000000000000000000000000000000000000000
1111111111111110101001100010111000001100000000000000000000000000000000000000000000000000000000000000
110101000010010111110010000000000000000000000000000000000000000000000000000000000000000000000
101111111110001101111011000000000000000000000000000000000000000000000000000000000000000000000
1111111111011011011000001111011011000000000000000000000000000000000000000000000000000000000000000000
101011011001110110011011000000000000000000000000000000000000000000000000000000000000000000000
1111111110100101110011001101000010000000000000000000000000000000000000000000000000000000000000000000
100011111110001010010100000000000000000000000000000000000000000000000000000000000000000000000
1010110100111111100100100000000000000000000000000000000000000000000000000000000000000000
1111111110111010110000011010011000000000000000000000000000000000000000000000000000000000000000000000
11111111110010000110011100000000000000000000000000000000000000000000000000000000000000000000
1111111100101000100111100100001000000000000000000000000000000000000000000000000000000000000000000000
1011111010100000010110100000000000000000000000000000000000000000000000000000000000000000000
1111111100101100111001011110110000000000000000000000000000000000000000000000000000000000000000000000
1110011101001000000110000000000000000000000000000000000000000000000000000000000000000000000
1111111111001001001110110110011011000000000000000000000000000000000000000000000000000000000000000000
1111111111101110001001010010000110000000000000000000000000000000000000000000000000000000000000000000
110010111111011001001101000000000000000000000000000000000000000000000000000000000000000000000
10100101001010001101011000000000000000000000000000000000000000000000000000000000000000000000
1111111111011000010010110010000111000000000000000000000000000000000000000000000000000000000000000000
10010110011110000110101000000000000000000000000000000000000000000000000000000000000000000000
100011111100011100001101000000000000000000000000000000000000000000000000000000000000000000000
1111111101001111101001010101010000000000000000000000000000000000000000000000000000000000000000000000
1101110011011000101001000000000000000000000000000000000000000000000000000000000000000000
11011010010101011100010000000000000000000000000000000000000000000000000000000000000000000
1111111110011111011100010111010010000000000000000000000000000000000000000000000000000000000000000000
100011111011010100010110000000000000000000000000000000000000000000000000000000000000000000000
111111011110001101110001000000000000000000000000000000000000000000000000000000000000000000
100110010001101010010001000000000000000000000000000000000000000000000000000000000000000000000
1111111110110110011011000110011010000000000000000000000000000000000000000000000000000000000000000000
100100110101111001111110000000000000000000000000000000000000000000000000000000000000000000
1100000110101011001010110000000000000000000000000000000000000000000000000000000000000000000
11010100101100111010000000000000000000000000000000000000000000000000000000000000000000000000
11101111101101000100000100000000000000000000000000000000000000000000000000000000000000000000
