11001010101011100111111000000000000000000000000000000000000000000000000000000000000000000000
1000110101011101011100110000000000000000000000000000000000000000000000000000000000000000000
1110111000000101000101110000000000000000000000000000000000000000000000000000000000000000000
10101111111011010000100100000000000000000000000000000000000000000000000000000000000000000000
1111111101110100011001110001011000000000000000000000000000000000000000000000000000000000000000000000
11000000001001111111111000000000000000000000000000000000000000000000000000000000000000000000
11000011011100010111000000000000000000000000000000000000000000000000000000000000000000000
10110111101110101011010100000000000000000000000000000000000000000000000000000000000000000000
1111111110111010001001111110101000000000000000000000000000000000000000000000000000000000000000000000
1111111111110111011011101101101010110000000000000000000000000000000000000000000000000000000000000000
1111111110011110111101000101101100000000000000000000000000000000000000000000000000000000000000000000
1111111111110101010001001100001101010000000000000000000000000000000000000000000000000000000000000000
1111111100100001011001110010011000000000000000000000000000000000000000000000000000000000000000000000
1111111111100110111101010011111001000000000000000000000000000000000000000000000000000000000000000000
11111100110101110001111000000000000000000000000000000000000000000000000000000000000000000000
1100011010111101010101000000000000000000000000000000000000000000000000000000000000000000000
10000111111011000111100100000000000000000000000000000000000000000000000000000000000000000000
101101000000010011010011000000000000000000000000000000000000000000000000000000000000000000000
1111111100010100100011011011000100000000000000000000000000000000000000000000000000000000000000000000
10111011100001010100111000000000000000000000000000000000000000000000000000000000000000000
1111111101011101101101110011000000000000000000000000000000000000000000000000000000000000000000000000
110101010011000001010101000000000000000000000000000000000000000000000000000000000000000000
1010001100001111110101100000000000000000000000000000000000000000000000000000000000000000000
1101110101100110011001100000000000000000000000000000000000000000000000000000000000000000000
101111001101001001010011000000000000000000000000000000000000000000000000000000000000000000000
1001101010011100010010110000000000000000000000000000000000000000000000000000000000000000000
11001101001101110110101000000000000000000000000000000000000000000000000000000000000000000000
1111111101000111100001001000110000000000000000000000000000000000000000000000000000000000000000000000
110010111100111100111010000000000000000000000000000000000000000000000000000000000000000000000
1100010011010000000110100000000000000000000000000000000000000000000000000000000000000000000
110001000110110100100111000000000000000000000000000000000000000000000000000000000000000000
101001010110101011011011000000000000000000000000000000000000000000000000000000000000000000000
101110101011001100111000000000000000000000000000000000000000000000000000000000000000000000000
11110010111111101011110100000000000000000000000000000000000000000000000000000000000000000000
1010110110010011001110110000000000000000000000000000000000000000000000000000000000000000000
1111111110010001010011110110011100000000000000000000000000000000000000000000000000000000000000000000
10100110000000001110111000000000000000000000000000000000000000000000000000000000000000000000
1111111111100001101110101011101111000000000000000000000000000000000000000000000000000000000000000000
10010000110101011010000100000000000000000000000000000000000000000000000000000000000000000000
101001000111111001001000000000000000000000000000000000000000000000000000000000000000000000000
1111111100011000011000011001100000000000000000000000000000000000000000000000000000000000000000000000
1111111110111011110011011001100010000000000000000000000000000000000000000000000000000000000000000000
101111111010101010010101000000000000000000000000000000000000000000000000000000000000000000000
1111111101000110011010011100101100000000000000000000000000000000000000000000000000000000000000000000
111000100001010010101010000000000000000000000000000000000000000000000000000000000000000000
101100111001111000001011000000000000000000000000000000000000000000000000000000000000000000000
10010110110000111101110000000000000000000000000000000000000000000000000000000000000000000000
1111111101010111111010110011111100000000000000000000000000000000000000000000000000000000000000000000
1111111111001110000001000100000011000000000000000000000000000000000000000000000000000000000000000000
1001101100111011101010010000000000000000000000000000000000000000000000000000000000000000000
1111111110111010101110111100010010000000000000000000000000000000000000000000000000000000000000000000
11100011011000110101000000000000000000000000000000000000000000000000000000000000000000000000
1111111110110110101111110100010110000000000000000000000000000000000000000000000000000000000000000000
1111111110010111111101111101111010000000000000000000000000000000000000000000000000000000000000000000
1111111110000110110110000001110100000000000000000000000000000000000000000000000000000000000000000000
100100011101010110001101000000000000000000000000000000000000000000000000000000000000000000000
11111010011100110110101000000000000000000000000000000000000000000000000000000000000000000000
110011101100011011111000000000000000000000000000000000000000000000000000000000000000000000000
1101001010101100110111100000000000000000000000000000000000000000000000000000000000000000000
1111111110010000000000001000101000000000000000000000000000000000000000000000000000000000000000000000
1111111110001111000100001000001110000000000000000000000000000000000000000000000000000000000000000000
1111111111010001101111011001111010000000000000000000000000000000000000000000000000000000000000000000
101110011110000000100000000000000000000000000000000000000000000000000000000000000000000000
1111111101000100110001011010111100000000000000000000000000000000000000000000000000000000000000000000
100100011000001011001000000000000000000000000000000000000000000000000000000000000000000000000
100110111100110000110000000000000000000000000000000000000000000000000000000000000000000000000
101100011101100111011110000000000000000000000000000000000000000000000000000000000000000000
1100110010100100011101000000000000000000000000000000000000000000000000000000000000000000000
100101010010001100010001000000000000000000000000000000000000000000000000000000000000000000000
110010101000111001100100000000000000000000000000000000000000000000000000000000000000000000000
1011101000000000010011000000000000000000000000000000000000000000000000000000000000000000
11010011001010010101101100000000000000000000000000000000000000000000000000000000000000000
1111111100100000111111110001111100000000000000000000000000000000000000000000000000000000000000000000
101101100111110011000101000000000000000000000000000000000000000000000000000000000000000000000
100110001101111100111010000000000000000000000000000000000000000000000000000000000000000000000
10010110111100001110001100000000000000000000000000000000000000000000000000000000000000000000
10111011010011111111010100000000000000000000000000000000000000000000000000000000000000000000
110010000110111100101101000000000000000000000000000000000000000000000000000000000000000000000
1111111101001110110100001011001000000000000000000000000000000000000000000000000000000000000000000000
101100100011100110100010000000000000000000000000000000000000000000000000000000000000000000000
101111100101101111100111000000000000000000000000000000000000000000000000000000000000000000000
101110110101011000011000000000000000000000000000000000000000000000000000000000000000000000
1110001010111010001110100000000000000000000000000000000000000000000000000000000000000000000
101000001100111110000011000000000000000000000000000000000000000000000000000000000000000000000
11000010011010100100101100000000000000000000000000000000000000000000000000000000000000000000
101011011100100000110100000000000000000000000000000000000000000000000000000000000000000000000
1111111101110101110100001001001000000000000000000000000000000000000000000000000000000000000000000000
111010110100100010011111000000000000000000000000000000000000000000000000000000000000000
11111001000101100010111100000000000000000000000000000000000000000000000000000000000000000000
1111111110010000100001000010000010000000000000000000000000000000000000000000000000000000000000000000
110001001011111001101101000000000000000000000000000000000000000000000000000000000000000000000
1110111110011011110110010000000000000000000000000000000000000000000000000000000000000000000
100000000000011001101100000000000000000000000000000000000000000000000000000000000000000000000
101001101010111101111101000000000000000000000000000000000000000000000000000000000000000000000
1111111101010011000111110101101100000000000000000000000000000000000000000000000000000000000000000000
10010101000101000100010000000000000000000000000000000000000000000000000000000000000000000000
1111111101101000001001010001100000000000000000000000000000000000000000000000000000000000000000000000
101001111111100000010011000000000000000000000000000000000000000000000000000000000000000000000
10110000011000011010011100000000000000000000000000000000000000000000000000000000000000000000
1111111111110011011110101010010100100000000000000000000000000000000000000000000000000000000000000000
1100010110011101010101000000000000000000000000000000000000000000000000000000000000000000000
100011001110000001010011000000000000000000000000000000000000000000000000000000000000000000000
1111111101000110011110101011001100000000000000000000000000000000000000000000000000000000000000000000
1111111101011011001110001101100100000000000000000000000000000000000000000000000000000000000000000000
101010010001111010100001000000000000000000000000000000000000000000000000000000000000000000000
11101000010000101101011100000000000000000000000000000000000000000000000000000000000000000
110001111010100011100101000000000000000000000000000000000000000000000000000000000000000000
1111111110101100011011011001111000000000000000000000000000000000000000000000000000000000000000000000
11011111110001100101001000000000000000000000000000000000000000000000000000000000000000000000
100011100010010001110001000000000000000000000000000000000000000000000000000000000000000000000
101101001111100001111111000000000000000000000000000000000000000000000000000000000000000000000
1101111101011110010011110000000000000000000000000000000000000000000000000000000000000000
100000011101111001100011000000000000000000000000000000000000000000000000000000000000000000000
1111111110000001110101001110000110000000000000000000000000000000000000000000000000000000000000000000
101011111000110100000110000000000000000000000000000000000000000000000000000000000000000000000
1111111100001101100100101111010000000000000000000000000000000000000000000000000000000000000000000000
11011110101001001000101100000000000000000000000000000000000000000000000000000000000000000000
101110100110010001110110000000000000000000000000000000000000000000000000000000000000000000000
110000011000110000000010000000000000000000000000000000000000000000000000000000000000000000000
1111111111011011000111111000111011000000000000000000000000000000000000000000000000000000000000000000
1111111101010010000000111111001100000000000000000000000000000000000000000000000000000000000000000000
11011101000111000001100000000000000000000000000000000000000000000000000000000000000000000000
11001011011001110110011100000000000000000000000000000000000000000000000000000000000000000000
1111111110110010011010110100001010000000000000000000000000000000000000000000000000000000000000000000
100000011100000101100010000000000000000000000000000000000000000000000000000000000000000000
1111111110010111101101110111101010000000000000000000000000000000000000000000000000000000000000000000
1111111110101010101101001100011000000000000000000000000000000000000000000000000000000000000000000000
100110000011001111010110000000000000000000000000000000000000000000000000000000000000000000000
110101000110000011110111000000000000000000000000000000000000000000000000000000000000000000
1111111110000111110011000101111010000000000000000000000000000000000000000000000000000000000000000000
1111111110110100101100001000011110000000000000000000000000000000000000000000000000000000000000000000
10101000111011001111110000000000000000000000000000000000000000000000000000000000000000000000
11100110001110000011111100000000000000000000000000000000000000000000000000000000000000000
11111110100010110110111100000000000000000000000000000000000000000000000000000000000000000000
1111111101011001011101110010001100000000000000000000000000000000000000000000000000000000000000000000
1110011000000001010111100000000000000000000000000000000000000000000000000000000000000000000
1111111100111111000001010000101000000000000000000000000000000000000000000000000000000000000000000000
11110001100001100001101100000000000000000000000000000000000000000000000000000000000000000000
1111111101000010001100011001111000000000000000000000000000000000000000000000000000000000000000000000
101101001011001100000001000000000000000000000000000000000000000000000000000000000000000000000
1111111110110101100001101000101000000000000000000000000000000000000000000000000000000000000000000000
1111111100010101110111111001101100000000000000000000000000000000000000000000000000000000000000000000
10001010001110001101011000000000000000000000000000000000000000000000000000000000000000000000
1111111100001110010010111101010000000000000000000000000000000000000000000000000000000000000000000000
1111111111111101100010001110101111010000000000000000000000000000000000000000000000000000000000000000
11101110100110111010110100000000000000000000000000000000000000000000000000000000000000000000
100000000011001100000111000000000000000000000000000000000000000000000000000000000000000000000
10000001000011000000011000000000000000000000000000000000000000000000000000000000000000000000
110000001010000111010010000000000000000000000000000000000000000000000000000000000000000000000
110001100001000100000011000000000000000000000000000000000000000000000000000000000000000000000
1110000100011000010001010000000000000000000000000000000000000000000000000000000000000000000
101011101000101010100101000000000000000000000000000000000000000000000000000000000000000000000
10000111111000100010010100000000000000000000000000000000000000000000000000000000000000000000
100101011011110011011101000000000000000000000000000000000000000000000000000000000000000000000
100101000101111011110110000000000000000000000000000000000000000000000000000000000000000000000
101001000010110010000100000000000000000000000000000000000000000000000000000000000000000000000
101110001011011000001000000000000000000000000000000000000000000000000000000000000000000000000
11100010001001101100000000000000000000000000000000000000000000000000000000000000000000000000
101111100001000110001110000000000000000000000000000000000000000000000000000000000000000000
101101110101100111000100000000000000000000000000000000000000000000000000000000000000000000000
1100010000000110110101110000000000000000000000000000000000000000000000000000000000000000000
100001101111111010101111000000000000000000000000000000000000000000000000000000000000000000
1111111101101000100001011110100000000000000000000000000000000000000000000000000000000000000000000000
111010100011111011101101000000000000000000000000000000000000000000000000000000000000000000
101011101111000010011011000000000000000000000000000000000000000000000000000000000000000000000
100011101110110010110011000000000000000000000000000000000000000000000000000000000000000000000
11100001000010101000011100000000000000000000000000000000000000000000000000000000000000000000
1111111111001000100111011000001101000000000000000000000000000000000000000000000000000000000000000000
1111111101110111010100111000001000000000000000000000000000000000000000000000000000000000000000000000
100111000110000011111010000000000000000000000000000000000000000000000000000000000000000000000
1111111110000011110101011001111000000000000000000000000000000000000000000000000000000000000000000000
1111111100010101001010100101010100000000000000000000000000000000000000000000000000000000000000000000
10101110100111010110101100000000000000000000000000000000000000000000000000000000000000000000
11110011110011110001111100000000000000000000000000000000000000000000000000000000000000000000
1111111100111010110110010001101100000000000000000000000000000000000000000000000000000000000000000000
101000111010011010000000000000000000000000000000000000000000000000000000000000000000000000000
111110000100001101111011000000000000000000000000000000000000000000000000000000000000000000
100011000111110001000101000000000000000000000000000000000000000000000000000000000000000000
10110001010110110111111100000000000000000000000000000000000000000000000000000000000000000000
101000101111110011100010000000000000000000000000000000000000000000000000000000000000000000000
1110101010110000001101000000000000000000000000000000000000000000000000000000000000000000000
100010101101111011010100000000000000000000000000000000000000000000000000000000000000000000000
100011000111100001101001000000000000000000000000000000000000000000000000000000000000000000
1111111100111110001111011000011000000000000000000000000000000000000000000000000000000000000000000000
1111111111010100001110000011110011000000000000000000000000000000000000000000000000000000000000000000
10011100101000111011110000000000000000000000000000000000000000000000000000000000000000000
1111111100110011100001001101100100000000000000000000000000000000000000000000000000000000000000000000
1100010011011100011010000000000000000000000000000000000000000000000000000000000000000000
1111111110010111101010000110010110000000000000000000000000000000000000000000000000000000000000000000
10100101011111000001110000000000000000000000000000000000000000000000000000000000000000000000
1101101011111111101010110000000000000000000000000000000000000000000000000000000000000000000
1111111111100010001010110001101001000000000000000000000000000000000000000000000000000000000000000000
1111111110100011110111100010110000000000000000000000000000000000000000000000000000000000000000000000
101010010101011110001010000000000000000000000000000000000000000000000000000000000000000000000
100111111111100100101110000000000000000000000000000000000000000000000000000000000000000000000
1111111110010011101011111111011010000000000000000000000000000000000000000000000000000000000000000000
1111111100010010110111000010000100000000000000000000000000000000000000000000000000000000000000000000
101101111110010100110000000000000000000000000000000000000000000000000000000000000000000000000
11000100101101011111100100000000000000000000000000000000000000000000000000000000000000000000
1111111111011100001111011101010110000000000000000000000000000000000000000000000000000000000000000000
1111111100010001011101000000010000000000000000000000000000000000000000000000000000000000000000000000
101111010000101010010000000000000000000000000000000000000000000000000000000000000000000000000
10000011000010110010111100000000000000000000000000000000000000000000000000000000000000000000
1111111100100010010001111111110000000000000000000000000000000000000000000000000000000000000000000000
10110001011101111000011000000000000000000000000000000000000000000000000000000000000000000000
100101110011011110111000000000000000000000000000000000000000000000000000000000000000000000000
1111111111000010110101110111011111000000000000000000000000000000000000000000000000000000000000000000
1101111100110111100110110000000000000000000000000000000000000000000000000000000000000000000
1111111111101001011001110100010010100000000000000000000000000000000000000000000000000000000000000000
1010100001001100001001010000000000000000000000000000000000000000000000000000000000000000000
1111111100100110101010000111101100000000000000000000000000000000000000000000000000000000000000000000
11101010000000111101000100000000000000000000000000000000000000000000000000000000000000000000
1111111111111010100000111111001010110000000000000000000000000000000000000000000000000000000000000000
101101101110010000110011000000000000000000000000000000000000000000000000000000000000000000000
11110110000011110000110100000000000000000000000000000000000000000000000000000000000000000000
1111111101101001100011111000010100000000000000000000000000000000000000000000000000000000000000000000
1110001010110000101101010000000000000000000000000000000000000000000000000000000000000000000
1111111111000100001110011111000100000000000000000000000000000000000000000000000000000000000000000000
1001011111100000110111110000000000000000000000000000000000000000000000000000000000000000000
100011100100111110011110000000000000000000000000000000000000000000000000000000000000000000000
1111111111011110111110001000011000000000000000000000000000000000000000000000000000000000000000000000
11010000011101101101000100000000000000000000000000000000000000000000000000000000000000000000
111011100011000100101101000000000000000000000000000000000000000000000000000000000000000000
1101000000010110001111010000000000000000000000000000000000000000000000000000000000000000
1111111111110000010011111101110110010000000000000000000000000000000000000000000000000000000000000000
11000010001100010000111000000000000000000000000000000000000000000000000000000000000000000000
1110011101000001100001100000000000000000000000000000000000000000000000000000000000000000000
1101100110011001111100010000000000000000000000000000000000000000000000000000000000000000000
110011000111000111011111000000000000000000000000000000000000000000000000000000000000000000000
1111111101111100011011100101100100000000000000000000000000000000000000000000000000000000000000000000
1111111101001000111110110000010100000000000000000000000000000000000000000000000000000000000000000000
11111010110110111001011100000000000000000000000000000000000000000000000000000000000000000
1111111101001001111110110010111000000000000000000000000000000000000000000000000000000000000000000000
1111111111000000001010000111101100000000000000000000000000000000000000000000000000000000000000000000
1111111111111101100110011101101110010100000000000000000000000000000000000000000000000000000000000000
1111111101001010110111001100101100000000000000000000000000000000000000000000000000000000000000000000
10101100100111101111001000000000000000000000000000000000000000000000000000000000000000000000
1111111100011110001111100100011100000000000000000000000000000000000000000000000000000000000000000000
1111111110110101001011111100001000000000000000000000000000000000000000000000000000000000000000000000
10011010001101111110101000000000000000000000000000000000000000000000000000000000000000000000
1111111101111010110011000111010000000000000000000000000000000000000000000000000000000000000000000000
110001100011001110001100000000000000000000000000000000000000000000000000000000000000000000000
101011111101000011100010000000000000000000000000000000000000000000000000000000000000000000000
100000111011010000111111000000000000000000000000000000000000000000000000000000000000000000
1111111101011000001101111001111000000000000000000000000000000000000000000000000000000000000000000000
11011110110001110000101100000000000000000000000000000000000000000000000000000000000000000000
1000110001011101011110000000000000000000000000000000000000000000000000000000000000000000000
110000010011000111000000000000000000000000000000000000000000000000000000000000000000000000000
111101100111111100111101000000000000000000000000000000000000000000000000000000000000000000
1111111111010011100010110100110100000000000000000000000000000000000000000000000000000000000000000000
100001101110000111111010000000000000000000000000000000000000000000000000000000000000000000000
1111111101010010101010111110110000000000000000000000000000000000000000000000000000000000000000000000
100101101101111001110111000000000000000000000000000000000000000000000000000000000000000000000
10010100000111001001111000000000000000000000000000000000000000000000000000000000000000000000
101101001000010101010111000000000000000000000000000000000000000000000000000000000000000000000
1111111111000010110100110111011001000000000000000000000000000000000000000000000000000000000000000000
11110010000110000011100000000000000000000000000000000000000000000000000000000000000000000000
11010100110101010010000100000000000000000000000000000000000000000000000000000000000000000000
1111111110001100010001101111001000000000000000000000000000000000000000000000000000000000000000000000
1111111101001011000101000010110000000000000000000000000000000000000000000000000000000000000000000000
110001011110111101111111000000000000000000000000000000000000000000000000000000000000000000
1111111101000001101000011011100000000000000000000000000000000000000000000000000000000000000000000000
101111011001000011111101000000000000000000000000000000000000000000000000000000000000000000000
1111111100100010101001000100101100000000000000000000000000000000000000000000000000000000000000000000
110011111010010110001100000000000000000000000000000000000000000000000000000000000000000000000
1101001110111010101110000000000000000000000000000000000000000000000000000000000000000000000
1111010111111011101111100000000000000000000000000000000000000000000000000000000000000000000
100111010110110110111010000000000000000000000000000000000000000000000000000000000000000000000
1011000111000100101001100000000000000000000000000000000000000000000000000000000000000000000
1111111110110111000101101100101110000000000000000000000000000000000000000000000000000000000000000000
1101101001111110110110000000000000000000000000000000000000000000000000000000000000000000000
1111111101111000001011101110100100000000000000000000000000000000000000000000000000000000000000000000
101001001100101111100000000000000000000000000000000000000000000000000000000000000000000000000
10011010111010011110000000000000000000000000000000000000000000000000000000000000000000000000
100010110001000100101101000000000000000000000000000000000000000000000000000000000000000000000
1111111100110100110110000110011000000000000000000000000000000000000000000000000000000000000000000000
1111111101110001111000010010010100000000000000000000000000000000000000000000000000000000000000000000
1111111110010110001100010000100000000000000000000000000000000000000000000000000000000000000000000000
1111111111010100110001011111111100000000000000000000000000000000000000000000000000000000000000000000
1100011110101101110011010000000000000000000000000000000000000000000000000000000000000000000
10011110111000100001101100000000000000000000000000000000000000000000000000000000000000000
11010001011000100111100100000000000000000000000000000000000000000000000000000000000000000
1111111101110101111011100010001000000000000000000000000000000000000000000000000000000000000000000000
11110111000101110101111000000000000000000000000000000000000000000000000000000000000000000000
1111111100111100100011100100110000000000000000000000000000000000000000000000000000000000000000000000
10011111100000010001111000000000000000000000000000000000000000000000000000000000000000000000
1111111110000001111000010110111100000000000000000000000000000000000000000000000000000000000000000000
1111111110010011000000000110111110000000000000000000000000000000000000000000000000000000000000000000
1111111100010010111010101001100100000000000000000000000000000000000000000000000000000000000000000000
100100111101100001010101000000000000000000000000000000000000000000000000000000000000000000000
100110011110110110111110000000000000000000000000000000000000000000000000000000000000000000000
1111111110111110010001100010001000000000000000000000000000000000000000000000000000000000000000000000
1011011100101001111000010000000000000000000000000000000000000000000000000000000000000000000
100101010001111001110101000000000000000000000000000000000000000000000000000000000000000000000
1010110010111011101001110000000000000000000000000000000000000000000000000000000000000000000
10100100001100000010100100000000000000000000000000000000000000000000000000000000000000000000
101101011111100011111110000000000000000000000000000000000000000000000000000000000000000000000
10101011110000100000111100000000000000000000000000000000000000000000000000000000000000000000
1001111101010111011101100000000000000000000000000000000000000000000000000000000000000000
1111111101110000000101000111011000000000000000000000000000000000000000000000000000000000000000000000
11100000011000011100110000000000000000000000000000000000000000000000000000000000000000000000
110001111101000100110001000000000000000000000000000000000000000000000000000000000000000000000
11011101111110011000110000000000000000000000000000000000000000000000000000000000000000000000
1111111101010000111001101010100100000000000000000000000000000000000000000000000000000000000000000000
1111111101011010100000111000011100000000000000000000000000000000000000000000000000000000000000000000
10001100101110111000001100000000000000000000000000000000000000000000000000000000000000000000
1101110011101011101110110000000000000000000000000000000000000000000000000000000000000000000
1000010000001010110111100000000000000000000000000000000000000000000000000000000000000000000
10000010000110111011110100000000000000000000000000000000000000000000000000000000000000
101111100100100100010011000000000000000000000000000000000000000000000000000000000000000000
110010011010101001110001000000000000000000000000000000000000000000000000000000000000000000000
11001111101100101010000000000000000000000000000000000000000000000000000000000000000000000000
10001101101001000100110000000000000000000000000000000000000000000000000000000000000000000000
1111111100010111011111010010110000000000000000000000000000000000000000000000000000000000000000000000
101101100011101010010101000000000000000000000000000000000000000000000000000000000000000000000
101001010110101000110111000000000000000000000000000000000000000000000000000000000000000000000
1110011011000010001101010000000000000000000000000000000000000000000000000000000000000000000
10011101010011001011110100000000000000000000000000000000000000000000000000000000000000000000
1111111111111111010000101000010000011001000000000000000000000000000000000000000000000000000000000000
101011001010111110111111000000000000000000000000000000000000000000000000000000000000000000000
100010000001111111100100000000000000000000000000000000000000000000000000000000000000000000
100001101001001001100011000000000000000000000000000000000000000000000000000000000000000000000
11010000111010111011111000000000000000000000000000000000000000000000000000000000000000000
11000110010011101001010000000000000000000000000000000000000000000000000000000000000000000
1110000010101010000000100000000000000000000000000000000000000000000000000000000000000000000
101000111011010101010001000000000000000000000000000000000000000000000000000000000000000000000
110010011011011000110100000000000000000000000000000000000000000000000000000000000000000000000
110000010001001100110010000000000000000000000000000000000000000000000000000000000000000000000
10001000010011100100011000000000000000000000000000000000000000000000000000000000000000000000
1111111100111111101000011000011100000000000000000000000000000000000000000000000000000000000000000000
100101110101010110110110000000000000000000000000000000000000000000000000000000000000000000000
100000110011101101011001000000000000000000000000000000000000000000000000000000000000000000000
110011111100100011000100000000000000000000000000000000000000000000000000000000000000000000000
1111111110111001001000110100110010000000000000000000000000000000000000000000000000000000000000000000
11010011100100101100011000000000000000000000000000000000000000000000000000000000000000000000
1111111101010000001100000101011100000000000000000000000000000000000000000000000000000000000000000000
101011010111110100110011000000000000000000000000000000000000000000000000000000000000000000000
10100011110011100100101000000000000000000000000000000000000000000000000000000000000000000000
1111111110110011001110000011111010000000000000000000000000000000000000000000000000000000000000000000
1111111101010011111111010100101100000000000000000000000000000000000000000000000000000000000000000000
1111111101110101111011001100010100000000000000000000000000000000000000000000000000000000000000000000
1000111000010000111001110000000000000000000000000000000000000000000000000000000000000000000
110000011100100001011111000000000000000000000000000000000000000000000000000000000000000000000
10011100110001011011110100000000000000000000000000000000000000000000000000000000000000000000
11001000111111111111111100000000000000000000000000000000000000000000000000000000000000000000
1111111100100011100110011110101000000000000000000000000000000000000000000000000000000000000000000000
1111111111001000101011111101000001000000000000000000000000000000000000000000000000000000000000000000
1111111101001101011101011011111000000000000000000000000000000000000000000000000000000000000000000000
1101010011001000001001010000000000000000000000000000000000000000000000000000000000000000
11110001000101101010100100000000000000000000000000000000000000000000000000000000000000000000
1111111101110011010101100000001100000000000000000000000000000000000000000000000000000000000000000000
110010110101010110101011000000000000000000000000000000000000000000000000000000000000000000000
1111111110110100101101010010101100000000000000000000000000000000000000000000000000000000000000000000
101110101100000001100001000000000000000000000000000000000000000000000000000000000000000000000
11011000100010011100110100000000000000000000000000000000000000000000000000000000000000000000
1111111101111010111010011101100000000000000000000000000000000000000000000000000000000000000000000000
1111111111111101111100001011111100011000000000000000000000000000000000000000000000000000000000000000
1111111111010111000111011110100101000000000000000000000000000000000000000000000000000000000000000000
11001001101001011001110000000000000000000000000000000000000000000000000000000000000000000000
11110110010111000101101100000000000000000000000000000000000000000000000000000000000000000
11001000110010011100011000000000000000000000000000000000000000000000000000000000000000000000
1111111111000010001011001111010000000000000000000000000000000000000000000000000000000000000000000000
10100001001100001010000100000000000000000000000000000000000000000000000000000000000000000000
1111111111111011100011111110011001010000000000000000000000000000000000000000000000000000000000000000
110111000100100101110010000000000000000000000000000000000000000000000000000000000000000000
110011100000100010010111000000000000000000000000000000000000000000000000000000000000000000000
101100000111110110000011000000000000000000000000000000000000000000000000000000000000000000000
10101000111000110101110000000000000000000000000000000000000000000000000000000000000000000000
1111111111100010000000010010100010000000000000000000000000000000000000000000000000000000000000000000
1010111010101111010100000000000000000000000000000000000000000000000000000000000000000000
1111111110101110000000010001111000000000000000000000000000000000000000000000000000000000000000000000
1000001000011000110110110000000000000000000000000000000000000000000000000000000000000000000
1111111110110100000011101101001000000000000000000000000000000000000000000000000000000000000000000000
1111111100011100100111111110100100000000000000000000000000000000000000000000000000000000000000000000
1000111100010111010101010000000000000000000000000000000000000000000000000000000000000000000
100100101000101111100011000000000000000000000000000000000000000000000000000000000000000000000
11001000010010101110001000000000000000000000000000000000000000000000000000000000000000000000
100010111011100110000011000000000000000000000000000000000000000000000000000000000000000000
1111111100011111100011000100111100000000000000000000000000000000000000000000000000000000000000000000
10101010000001111011000000000000000000000000000000000000000000000000000000000000000000000000
1111111100001111011001101111000100000000000000000000000000000000000000000000000000000000000000000000
1111111101000001011110000010111100000000000000000000000000000000000000000000000000000000000000000000
1100000101110110001110110000000000000000000000000000000000000000000000000000000000000000000
100111010110100100001001000000000000000000000000000000000000000000000000000000000000000000000
1111111110100101111110100100101010000000000000000000000000000000000000000000000000000000000000000000
1111111101100111010110000010111100000000000000000000000000000000000000000000000000000000000000000000
101101010010110011001101000000000000000000000000000000000000000000000000000000000000000000000
1111111101001000011101010000100100000000000000000000000000000000000000000000000000000000000000000000
1111111110110011000000111101100000000000000000000000000000000000000000000000000000000000000000000000
1111111111000111111110101011101111000000000000000000000000000000000000000000000000000000000000000000
10100000001000110100001000000000000000000000000000000000000000000000000000000000000000000000
1111111100010000011111110100001000000000000000000000000000000000000000000000000000000000000000000000
110000100011010010011101000000000000000000000000000000000000000000000000000000000000000000000
100010010001110110101111000000000000000000000000000000000000000000000000000000000000000000000
101001010100010100001100000000000000000000000000000000000000000000000000000000000000000000000
10101100100100001100010000000000000000000000000000000000000000000000000000000000000000000000
1101011100111010110000010000000000000000000000000000000000000000000000000000000000000000000
101111001011001001111101000000000000000000000000000000000000000000000000000000000000000000000
11011100110101000001111100000000000000000000000000000000000000000000000000000000000000000000
11001010011000101100101100000000000000000000000000000000000000000000000000000000000000000000
10111000110010000110000000000000000000000000000000000000000000000000000000000000000000000000
11001001011011101010101100000000000000000000000000000000000000000000000000000000000000000000
1111111111101100010100001011010101000000000000000000000000000000000000000000000000000000000000000000
110001101011100010111101000000000000000000000000000000000000000000000000000000000000000000000
1100001011001011111001010000000000000000000000000000000000000000000000000000000000000000000
1111111100101101001100110110011000000000000000000000000000000000000000000000000000000000000000000000
1111111110110100111001110100001110000000000000000000000000000000000000000000000000000000000000000000
11110000010101010110010000000000000000000000000000000000000000000000000000000000000000000000
1111111111101100100111110100010101100000000000000000000000000000000000000000000000000000000000000000
11101111001101000100100100000000000000000000000000000000000000000000000000000000000000000000
1111111111111000000000010011011101010000000000000000000000000000000000000000000000000000000000000000
1111111111011101101100110000011111000000000000000000000000000000000000000000000000000000000000000000
110010110010000111011001000000000000000000000000000000000000000000000000000000000000000000000
11010000010110111100110000000000000000000000000000000000000000000000000000000000000000000000
10111010001011000101000100000000000000000000000000000000000000000000000000000000000000000000
100010101110000000111111000000000000000000000000000000000000000000000000000000000000000000000
100010101100010101001100000000000000000000000000000000000000000000000000000000000000000000000
10101101110110101000001000000000000000000000000000000000000000000000000000000000000000000000
100111101010011001010000000000000000000000000000000000000000000000000000000000000000000000000
1111111111110100010110010110111100010000000000000000000000000000000000000000000000000000000000000000
1111111110011001110001101001100100000000000000000000000000000000000000000000000000000000000000000000
101010111000100010110011000000000000000000000000000000000000000000000000000000000000000000000
1111111110111101011001010000111010000000000000000000000000000000000000000000000000000000000000000000
111110110000101111111110000000000000000000000000000000000000000000000000000000000000000000
11111000000111010011100100000000000000000000000000000000000000000000000000000000000000000000
11011000001101101000010100000000000000000000000000000000000000000000000000000000000000000000
100010010100111110010101000000000000000000000000000000000000000000000000000000000000000000000
10100011111110100000111100000000000000000000000000000000000000000000000000000000000000000000
101000101000000010001111000000000000000000000000000000000000000000000000000000000000000000000
1111111101110100000111101000100000000000000000000000000000000000000000000000000000000000000000000000
100001001110011101010111000000000000000000000000000000000000000000000000000000000000000000000
1111111111011111001010011101101000000000000000000000000000000000000000000000000000000000000000000000
1111000010001101111000000000000000000000000000000000000000000000000000000000000000000000000
110010100110111011111011000000000000000000000000000000000000000000000000000000000000000000000
1111111100101001110000101110111000000000000000000000000000000000000000000000000000000000000000000000
1111111110101010001110110010000100000000000000000000000000000000000000000000000000000000000000000000
100011100001111010110111000000000000000000000000000000000000000000000000000000000000000000000
1111111101010001111010101011000100000000000000000000000000000000000000000000000000000000000000000000
1111111101001001000100000110010100000000000000000000000000000000000000000000000000000000000000000000
1111111101001101001010001001111100000000000000000000000000000000000000000000000000000000000000000000
1111111110101001010001010110010010000000000000000000000000000000000000000000000000000000000000000000
1111111100010000101011011111101000000000000000000000000000000000000000000000000000000000000000000000
1100000001111110111101110000000000000000000000000000000000000000000000000000000000000000000
110001000111001001010010000000000000000000000000000000000000000000000000000000000000000000000
1101100101110110001000000000000000000000000000000000000000000000000000000000000000000000000
1111111101000011011100101100110000000000000000000000000000000000000000000000000000000000000000000000
1111111110110011110011100100010110000000000000000000000000000000000000000000000000000000000000000000
11010010100011101011101000000000000000000000000000000000000000000000000000000000000000000000
1111111100111101010001011110001000000000000000000000000000000000000000000000000000000000000000000000
1111111101000011001010110100101000000000000000000000000000000000000000000000000000000000000000000000
11010110110000111001011100000000000000000000000000000000000000000000000000000000000000000000
1001010111110010100100100000000000000000000000000000000000000000000000000000000000000000
10000101001111001101110000000000000000000000000000000000000000000000000000000000000000000000
1111111111110100000001011000000111010000000000000000000000000000000000000000000000000000000000000000
1111111111010001110100001001010010000000000000000000000000000000000000000000000000000000000000000000
1111111100101100011101000011000100000000000000000000000000000000000000000000000000000000000000000000
110001100001010000111000000000000000000000000000000000000000000000000000000000000000000000
100100010100001110110100000000000000000000000000000000000000000000000000000000000000000000000
1111111101000001010000110000110100000000000000000000000000000000000000000000000000000000000000000000
10001001001101011001000000000000000000000000000000000000000000000000000000000000000000
10001111110111010110000000000000000000000000000000000000000000000000000000000000000000000000
11101001100100011111000100000000000000000000000000000000000000000000000000000000000000000000
101101010011100100001000000000000000000000000000000000000000000000000000000000000000000000000
100110111100011101001111000000000000000000000000000000000000000000000000000000000000000000
1111111100110011010111110011111000000000000000000000000000000000000000000000000000000000000000000000
10001111011001100101101100000000000000000000000000000000000000000000000000000000000000000
110001101101111111101100000000000000000000000000000000000000000000000000000000000000000000000
111110110100010011011101000000000000000000000000000000000000000000000000000000000000000000
1111111110011110100011011111100100000000000000000000000000000000000000000000000000000000000000000000
1111111110010100010011110011110000000000000000000000000000000000000000000000000000000000000000000000
1111111110010111010001000110111100000000000000000000000000000000000000000000000000000000000000000000
100101011011110110111011000000000000000000000000000000000000000000000000000000000000000000000
110010000100110010111000000000000000000000000000000000000000000000000000000000000000000000000
1010100110000111001100110000000000000000000000000000000000000000000000000000000000000000000
110101101110110101101000000000000000000000000000000000000000000000000000000000000000000000
10010110110100100111101000000000000000000000000000000000000000000000000000000000000000000000
100001000101000000010110000000000000000000000000000000000000000000000000000000000000000000000
1111111110001101010101110011100100000000000000000000000000000000000000000000000000000000000000000000
100001010001011100011001000000000000000000000000000000000000000000000000000000000000000000
1111111101000101110111110011111100000000000000000000000000000000000000000000000000000000000000000000
1111111111110100001110101111010101010000000000000000000000000000000000000000000000000000000000000000
10111111110001010000101100000000000000000000000000000000000000000000000000000000000000000000
1111111111111111000001011100001000001000000000000000000000000000000000000000000000000000000000000000
10000001000111111010001000000000000000000000000000000000000000000000000000000000000000000000
10101010110100000000001100000000000000000000000000000000000000000000000000000000000000000
1111111101011100101111101011001000000000000000000000000000000000000000000000000000000000000000000000
1111111110110001110000100001001010000000000000000000000000000000000000000000000000000000000000000000
11000010010111001001000100000000000000000000000000000000000000000000000000000000000000000000
110011011111001010100110000000000000000000000000000000000000000000000000000000000000000000000
101101000100001100011000000000000000000000000000000000000000000000000000000000000000000000000
1111111101111100000110101010001000000000000000000000000000000000000000000000000000000000000000000000
100101110101010101010000000000000000000000000000000000000000000000000000000000000000000000000
1111111111101001101001001010011011000000000000000000000000000000000000000000000000000000000000000000
1111111100001001010001111101101100000000000000000000000000000000000000000000000000000000000000000000
101000101100010110101110000000000000000000000000000000000000000000000000000000000000000000000
1101101111001100111001110000000000000000000000000000000000000000000000000000000000000000000
101001101000000110110110000000000000000000000000000000000000000000000000000000000000000000000
11101011111011010100000100000000000000000000000000000000000000000000000000000000000000000000
11110000000110001010100000000000000000000000000000000000000000000000000000000000000000000000
11010100001111111011010000000000000000000000000000000000000000000000000000000000000000000000
100000100011011100100111000000000000000000000000000000000000000000000000000000000000000000000
101100000000111111010100000000000000000000000000000000000000000000000000000000000000000000000
11011101111100100000110000000000000000000000000000000000000000000000000000000000000000000000
1111111101111101111000010011100100000000000000000000000000000000000000000000000000000000000000000000
1100001011111110100111000000000000000000000000000000000000000000000000000000000000000000000
100110100011101000001000000000000000000000000000000000000000000000000000000000000000000000000
10111000100001000011111000000000000000000000000000000000000000000000000000000000000000000000
101111011000000101001100000000000000000000000000000000000000000000000000000000000000000000000
1111111101110001000111100100111100000000000000000000000000000000000000000000000000000000000000000000
1111111101111101010110011111100000000000000000000000000000000000000000000000000000000000000000000000
1111111111100101111110001101101010100000000000000000000000000000000000000000000000000000000000000000
11011111010100101001010100000000000000000000000000000000000000000000000000000000000000000000
101001001001111011101011000000000000000000000000000000000000000000000000000000000000000000000
100101011010100101010001000000000000000000000000000000000000000000000000000000000000000000000
1010111000111110010000110000000000000000000000000000000000000000000000000000000000000000000
1011000000010111011101000000000000000000000000000000000000000000000000000000000000000000000
1111111110001001101011100000100110000000000000000000000000000000000000000000000000000000000000000000
1111111101011100101001110111011000000000000000000000000000000000000000000000000000000000000000000000
1111111111100111111111100100010001000000000000000000000000000000000000000000000000000000000000000000
100001010001100100110000000000000000000000000000000000000000000000000000000000000000000000000
11111000011010001111001100000000000000000000000000000000000000000000000000000000000000000000
100100110101001011000010000000000000000000000000000000000000000000000000000000000000000000000
11110101001010101110000000000000000000000000000000000000000000000000000000000000000000000000
1111111101000011110101001100101000000000000000000000000000000000000000000000000000000000000000000000
1111111100001001010110000010001100000000000000000000000000000000000000000000000000000000000000000000
11000111000011010111111000000000000000000000000000000000000000000000000000000000000000000000
110111011101101011111111000000000000000000000000000000000000000000000000000000000000000000
101100100000000101001111000000000000000000000000000000000000000000000000000000000000000000000
1111111110001001001000100110001100000000000000000000000000000000000000000000000000000000000000000000
10100010101100111111110000000000000000000000000000000000000000000000000000000000000000000000
11110000101110101101010100000000000000000000000000000000000000000000000000000000000000000000
10000000011101101101110000000000000000000000000000000000000000000000000000000000000000000000
1111111111010011101001100101011110000000000000000000000000000000000000000000000000000000000000000000
110010100011100011011001000000000000000000000000000000000000000000000000000000000000000000000
1111111101010011011101100001101000000000000000000000000000000000000000000000000000000000000000000000
101001110011011010101100000000000000000000000000000000000000000000000000000000000000000000000
1011011011000110100101100000000000000000000000000000000000000000000000000000000000000000000
10101100011010010110001100000000000000000000000000000000000000000000000000000000000000000000
1111111111110100011010110001011011110000000000000000000000000000000000000000000000000000000000000000
110000010100000100100011000000000000000000000000000000000000000000000000000000000000000000000
1111111111010111101000101101011001000000000000000000000000000000000000000000000000000000000000000000
1111111110110111001010000000111000000000000000000000000000000000000000000000000000000000000000000000
101101100001100100111100000000000000000000000000000000000000000000000000000000000000000000000
101000000010101000100101000000000000000000000000000000000000000000000000000000000000000000
100100111001001000111000000000000000000000000000000000000000000000000000000000000000000000000
11011001001000100111111100000000000000000000000000000000000000000000000000000000000000000000
1111111100100100001000000011101000000000000000000000000000000000000000000000000000000000000000000000
1111111111100010001101010111111011000000000000000000000000000000000000000000000000000000000000000000
1111111111010111000111100101111010000000000000000000000000000000000000000000000000000000000000000000
11111110000111000100001000000000000000000000000000000000000000000000000000000000000000000000
1111011111100010100101000000000000000000000000000000000000000000000000000000000000000000000
10110000101100110000111000000000000000000000000000000000000000000000000000000000000000000000
10110110111111101111001000000000000000000000000000000000000000000000000000000000000000000000
1111111111011111110100111011010100000000000000000000000000000000000000000000000000000000000000000000
101001111101100010001111000000000000000000000000000000000000000000000000000000000000000000000
11101001000000000101011100000000000000000000000000000000000000000000000000000000000000000000
1111111100011101100010100110001100000000000000000000000000000000000000000000000000000000000000000000
1111111110100111111010000110111000000000000000000000000000000000000000000000000000000000000000000000
1111111111000111101110100010000010000000000000000000000000000000000000000000000000000000000000000000
1111111101011100000010101000111100000000000000000000000000000000000000000000000000000000000000000000
1100101111000011100000110000000000000000000000000000000000000000000000000000000000000000000
1111111100001010100010110000010100000000000000000000000000000000000000000000000000000000000000000000
100100011001001000001010000000000000000000000000000000000000000000000000000000000000000000
1111111101010000011101001100111100000000000000000000000000000000000000000000000000000000000000000000
11011101100100010110111100000000000000000000000000000000000000000000000000000000000000000000
100000100100101100110011000000000000000000000000000000000000000000000000000000000000000000
10101101010000000101101000000000000000000000000000000000000000000000000000000000000000000000
1110101110010000000101100000000000000000000000000000000000000000000000000000000000000000000
101110000101000101101100000000000000000000000000000000000000000000000000000000000000000000
1111111101100010111011000101100000000000000000000000000000000000000000000000000000000000000000000000
1111111111010111110001110101101110000000000000000000000000000000000000000000000000000000000000000000
100001001110011011011000000000000000000000000000000000000000000000000000000000000000000000000
1111111101110100010011100010111000000000000000000000000000000000000000000000000000000000000000000000
10010110101101001110111100000000000000000000000000000000000000000000000000000000000000000
101010111100001010001101000000000000000000000000000000000000000000000000000000000000000000000
1111111101110110101000111001100100000000000000000000000000000000000000000000000000000000000000000000
101000000110110000100111000000000000000000000000000000000000000000000000000000000000000000000
11100110101010111101011000000000000000000000000000000000000000000000000000000000000000000000
101101111110111101101100000000000000000000000000000000000000000000000000000000000000000000000
1111111101010010101011011100001000000000000000000000000000000000000000000000000000000000000000000000
100100100011101100100111000000000000000000000000000000000000000000000000000000000000000000000
10100100101010101010011000000000000000000000000000000000000000000000000000000000000000000000
10001010011011111001101000000000000000000000000000000000000000000000000000000000000000000000
101000000100010110101000000000000000000000000000000000000000000000000000000000000000000000000
1111111111010100001111000111100000000000000000000000000000000000000000000000000000000000000000000000
1000110000111001001010010000000000000000000000000000000000000000000000000000000000000000000
110010010111101011101001000000000000000000000000000000000000000000000000000000000000000000000
11010001110111001100111100000000000000000000000000000000000000000000000000000000000000000000
11001101111011000010100000000000000000000000000000000000000000000000000000000000000000000000
11100000100011101100110100000000000000000000000000000000000000000000000000000000000000000000
101000110111010011100110000000000000000000000000000000000000000000000000000000000000000000
11011010010010100001110000000000000000000000000000000000000000000000000000000000000000000000
1111111101100101111011000111001000000000000000000000000000000000000000000000000000000000000000000000
101000111100011101011010000000000000000000000000000000000000000000000000000000000000000000
110000000000001011110000000000000000000000000000000000000000000000000000000000000000000000000
10000111011010000111110100000000000000000000000000000000000000000000000000000000000000000000
11001100110001001100010100000000000000000000000000000000000000000000000000000000000000000
100000000100100001100100000000000000000000000000000000000000000000000000000000000000000000000
1010001010111001100000110000000000000000000000000000000000000000000000000000000000000000000
100110010011111111101000000000000000000000000000000000000000000000000000000000000000000000000
1001010011001010011010100000000000000000000000000000000000000000000000000000000000000000
1101101101011111101110100000000000000000000000000000000000000000000000000000000000000000000
1111111111111111011110010001000100101100000000000000000000000000000000000000000000000000000000000000
10111101111010110000111000000000000000000000000000000000000000000000000000000000000000000
100101011000101011000110000000000000000000000000000000000000000000000000000000000000000000000
1111111111111010011000111010010011011000000000000000000000000000000000000000000000000000000000000000
11001011101001100110010000000000000000000000000000000000000000000000000000000000000000000000
1111111100110000100000000011010000000000000000000000000000000000000000000000000000000000000000000000
11111100101010001010010000000000000000000000000000000000000000000000000000000000000000000000
1100110011110110011111110000000000000000000000000000000000000000000000000000000000000000000
1111111110011011110000010100010110000000000000000000000000000000000000000000000000000000000000000000
1111111110011000010000111000001110000000000000000000000000000000000000000000000000000000000000000000
1111111100010000101001100000111000000000000000000000000000000000000000000000000000000000000000000000
100010010111100110111000000000000000000000000000000000000000000000000000000000000000000000000
10000111001010011100111100000000000000000000000000000000000000000000000000000000000000000000
110000100100000010111100000000000000000000000000000000000000000000000000000000000000000000000
1111111101000001111110001000001000000000000000000000000000000000000000000000000000000000000000000000
11100101100010000100011000000000000000000000000000000000000000000000000000000000000000000000
100001101011011000001000000000000000000000000000000000000000000000000000000000000000000000
1111111100101011011111100101000100000000000000000000000000000000000000000000000000000000000000000000
100010110110100001100101000000000000000000000000000000000000000000000000000000000000000000000
1111111100001111010000010010111100000000000000000000000000000000000000000000000000000000000000000000
10111111011001100100011100000000000000000000000000000000000000000000000000000000000000000000
101000011000100010000101000000000000000000000000000000000000000000000000000000000000000000000
1111111111010110010001011011011000000000000000000000000000000000000000000000000000000000000000000000
11010111001110000000110100000000000000000000000000000000000000000000000000000000000000000000
1111111101001000011100011000110100000000000000000000000000000000000000000000000000000000000000000000
11100111101111110011100000000000000000000000000000000000000000000000000000000000000000000000
10011111101111000111000100000000000000000000000000000000000000000000000000000000000000000000
1111111110000010100101101000001000000000000000000000000000000000000000000000000000000000000000000000
111001101110011100001001000000000000000000000000000000000000000000000000000000000000000000
1111111111010110100010101001101010000000000000000000000000000000000000000000000000000000000000000000
110101111110001011001011000000000000000000000000000000000000000000000000000000000000000000
11011010010100011100011100000000000000000000000000000000000000000000000000000000000000000000
10010010011101110000100000000000000000000000000000000000000000000000000000000000000000000000
10010011000101111011101100000000000000000000000000000000000000000000000000000000000000000000
1111111110111001101100001110001010000000000000000000000000000000000000000000000000000000000000000000
1111111111111001101000111110000111110000000000000000000000000000000000000000000000000000000000000000
1111111111001010000011100001010011000000000000000000000000000000000000000000000000000000000000000000
11010110101001001110111000000000000000000000000000000000000000000000000000000000000000000000
101000000101110101111100000000000000000000000000000000000000000000000000000000000000000000000
101100010110101111101001000000000000000000000000000000000000000000000000000000000000000000000
10101010000000000010010000000000000000000000000000000000000000000000000000000000000000000000
1111111100101011111101101000111100000000000000000000000000000000000000000000000000000000000000000000
1111111111111001110010110000010001100000000000000000000000000000000000000000000000000000000000000000
1111111100111011010100001001101100000000000000000000000000000000000000000000000000000000000000000000
1011001111001001101011100000000000000000000000000000000000000000000000000000000000000000000
1111111101111101000001000111110100000000000000000000000000000000000000000000000000000000000000000000
1111111101011001010010110110110100000000000000000000000000000000000000000000000000000000000000000000
1111111100010101001111001010001100000000000000000000000000000000000000000000000000000000000000000000
1111111110011011000000011000000000000000000000000000000000000000000000000000000000000000000000000000
1111111111101111000000000011110001000000000000000000000000000000000000000000000000000000000000000000
100110111011011111011110000000000000000000000000000000000000000000000000000000000000000000
101110011011111111111000000000000000000000000000000000000000000000000000000000000000000000000
101101111000101111000110000000000000000000000000000000000000000000000000000000000000000000000
110000101011001111011111000000000000000000000000000000000000000000000000000000000000000000000
1111111111100010010010001110110001000000000000000000000000000000000000000000000000000000000000000000
100001111110001100110000000000000000000000000000000000000000000000000000000000000000000000000
11111101101001010001011100000000000000000000000000000000000000000000000000000000000000000000
11111000000010101101011000000000000000000000000000000000000000000000000000000000000000000
100101100010010011010001000000000000000000000000000000000000000000000000000000000000000000000
1111111101010000000111010010001000000000000000000000000000000000000000000000000000000000000000000000
10010101110111101000110000000000000000000000000000000000000000000000000000000000000000000000
1111111101100110010110100010011000000000000000000000000000000000000000000000000000000000000000000000
100000001101011101111100000000000000000000000000000000000000000000000000000000000000000000000
1111111111000000011001010100111000000000000000000000000000000000000000000000000000000000000000000000
110001011000101010011010000000000000000000000000000000000000000000000000000000000000000000000
1111111110001110111110100111010100000000000000000000000000000000000000000000000000000000000000000000
1111111100110111010010111010010000000000000000000000000000000000000000000000000000000000000000000000
11100111001000011010111100000000000000000000000000000000000000000000000000000000000000000000
1111111111100110101100010000101110100000000000000000000000000000000000000000000000000000000000000000
101001100111101110110011000000000000000000000000000000000000000000000000000000000000000000000
1111111100001000011110110101110000000000000000000000000000000000000000000000000000000000000000000000
1111100100110000101010010000000000000000000000000000000000000000000000000000000000000000000
10001011101110000001000100000000000000000000000000000000000000000000000000000000000000000000
1111111110110110110000001110111110000000000000000000000000000000000000000000000000000000000000000000
101000000110100110111111000000000000000000000000000000000000000000000000000000000000000000000
1111111101101100100010001101111000000000000000000000000000000000000000000000000000000000000000000000
1111111111000100000101011111100100000000000000000000000000000000000000000000000000000000000000000000
1111111100101001110010000001001000000000000000000000000000000000000000000000000000000000000000000000
1111111101100110000110110001100100000000000000000000000000000000000000000000000000000000000000000000
1011011101111000011110000000000000000000000000000000000000000000000000000000000000000000000
10010011101001000000111000000000000000000000000000000000000000000000000000000000000000000000
1010111100011001110101110000000000000000000000000000000000000000000000000000000000000000
10011010011110001010100000000000000000000000000000000000000000000000000000000000000000000000
110000100101101000011011000000000000000000000000000000000000000000000000000000000000000000000
10010111010010111110001100000000000000000000000000000000000000000000000000000000000000000000
10101011111110111010011000000000000000000000000000000000000000000000000000000000000000000000
1111111100011111111101100011000100000000000000000000000000000000000000000000000000000000000000000000
1111111101000000111010000000111100000000000000000000000000000000000000000000000000000000000000000000
1111111100100101100101010011000100000000000000000000000000000000000000000000000000000000000000000000
100111110101100110100001000000000000000000000000000000000000000000000000000000000000000000000
1000011000100111000101010000000000000000000000000000000000000000000000000000000000000000000
100111001100001000011111000000000000000000000000000000000000000000000000000000000000000000000
10100101111011110000001100000000000000000000000000000000000000000000000000000000000000000000
11110011000100111000111000000000000000000000000000000000000000000000000000000000000000000000
11110011000001010001010000000000000000000000000000000000000000000000000000000000000000000000
1111111111110111111111110011111011010000000000000000000000000000000000000000000000000000000000000000
1111111111010111001111101000111010000000000000000000000000000000000000000000000000000000000000000000
101100011011101011011001000000000000000000000000000000000000000000000000000000000000000000000
1111111101110111101001101101010100000000000000000000000000000000000000000000000000000000000000000000
11111011110000100010110000000000000000000000000000000000000000000000000000000000000000000000
10101000000110100010101100000000000000000000000000000000000000000000000000000000000000000000
1011010000011111111001010000000000000000000000000000000000000000000000000000000000000000000
111011001010101011000000000000000000000000000000000000000000000000000000000000000000000
1111111111001110110110110101010110000000000000000000000000000000000000000000000000000000000000000000
101111100100110010111100000000000000000000000000000000000000000000000000000000000000000000000
1111111111100101111110101000110011000000000000000000000000000000000000000000000000000000000000000000
101101000110111111000011000000000000000000000000000000000000000000000000000000000000000000
100011000110100101001011000000000000000000000000000000000000000000000000000000000000000000
1111111100101111011101100101101000000000000000000000000000000000000000000000000000000000000000000000
1111111110100110111010100000101000000000000000000000000000000000000000000000000000000000000000000000
1001101010010010100110000000000000000000000000000000000000000000000000000000000000000000000
11111101010000000100000000000000000000000000000000000000000000000000000000000000000000000000
1111111110001010110001110000100110000000000000000000000000000000000000000000000000000000000000000000
1111111101101000011101110100101000000000000000000000000000000000000000000000000000000000000000000000
1101011011000101110111110000000000000000000000000000000000000000000000000000000000000000000
1111111100110000111000111100111100000000000000000000000000000000000000000000000000000000000000000000
1110110111101010001110110000000000000000000000000000000000000000000000000000000000000000000
1111111110011111111101001000011000000000000000000000000000000000000000000000000000000000000000000000
1111111100011001001010100101110100000000000000000000000000000000000000000000000000000000000000000000
11101010110011011111011000000000000000000000000000000000000000000000000000000000000000000000
1111111100110111010110110001111100000000000000000000000000000000000000000000000000000000000000000000
11100110101011011010010000000000000000000000000000000000000000000000000000000000000000000000
1111111111010111011110100110001010000000000000000000000000000000000000000000000000000000000000000000
1111110010010101010111110000000000000000000000000000000000000000000000000000000000000000000
10000010010100101100101000000000000000000000000000000000000000000000000000000000000000000
1111111110111000101001110000110100000000000000000000000000000000000000000000000000000000000000000000
10101100001010110011000100000000000000000000000000000000000000000000000000000000000000000000
101110000001100001010001000000000000000000000000000000000000000000000000000000000000000000000
101110101001001011110011000000000000000000000000000000000000000000000000000000000000000000000
11100100000101001011001000000000000000000000000000000000000000000000000000000000000000000000
1111111101111111001001100101101100000000000000000000000000000000000000000000000000000000000000000000
11100111001010111011000100000000000000000000000000000000000000000000000000000000000000000
1111111110001000010100110101100010000000000000000000000000000000000000000000000000000000000000000000
110000101010011000011010000000000000000000000000000000000000000000000000000000000000000000000
100101000010110011011101000000000000000000000000000000000000000000000000000000000000000000000
11000101010001110011000100000000000000000000000000000000000000000000000000000000000000000000
100001101010111101111110000000000000000000000000000000000000000000000000000000000000000000000
11101011000110111011111100000000000000000000000000000000000000000000000000000000000000000
1111111100001110100100101010101100000000000000000000000000000000000000000000000000000000000000000000
1111111110100000100000001001001110000000000000000000000000000000000000000000000000000000000000000000
1111010010101101010111000000000000000000000000000000000000000000000000000000000000000000000
100100101000101000100111000000000000000000000000000000000000000000000000000000000000000000000
1111111110011000111010111110011010000000000000000000000000000000000000000000000000000000000000000000
110111100100110000010111000000000000000000000000000000000000000000000000000000000000000000
1111111101101100110001111100001100000000000000000000000000000000000000000000000000000000000000000000
1111111100100101001101110011100100000000000000000000000000000000000000000000000000000000000000000000
1111111101100011011001100111011000000000000000000000000000000000000000000000000000000000000000000000
1111000000100001000010110000000000000000000000000000000000000000000000000000000000000000000
1111111111101101101110110001001010000000000000000000000000000000000000000000000000000000000000000000
100011100100011011100011000000000000000000000000000000000000000000000000000000000000000000
1111111100001001111001001110100100000000000000000000000000000000000000000000000000000000000000000000
1111111110110011001001011100001100000000000000000000000000000000000000000000000000000000000000000000
1111111111000010100001101101010110000000000000000000000000000000000000000000000000000000000000000000
1111111101101001011010001110101100000000000000000000000000000000000000000000000000000000000000000000
101110111110101010010000000000000000000000000000000000000000000000000000000000000000000000000
101010010011110001111111000000000000000000000000000000000000000000000000000000000000000000000
1111111111101010001011011101001100000000000000000000000000000000000000000000000000000000000000000000
1111111101110101011111100110101000000000000000000000000000000000000000000000000000000000000000000000
10011110110101001111110100000000000000000000000000000000000000000000000000000000000000000000
11011111010101101101101100000000000000000000000000000000000000000000000000000000000000000
1010010100111110110100110000000000000000000000000000000000000000000000000000000000000000000
1111111111100011111001011101010101100000000000000000000000000000000000000000000000000000000000000000
1111111111000001010110110100010111000000000000000000000000000000000000000000000000000000000000000000
1111111101010110111100001001000000000000000000000000000000000000000000000000000000000000000000000000
101111001010011111001101000000000000000000000000000000000000000000000000000000000000000000000
1100000100011001001010100000000000000000000000000000000000000000000000000000000000000000000
1111111100010001100011011001101100000000000000000000000000000000000000000000000000000000000000000000
101001111110110101000110000000000000000000000000000000000000000000000000000000000000000000000
100001011110111101011100000000000000000000000000000000000000000000000000000000000000000000000
110010000110111001000011000000000000000000000000000000000000000000000000000000000000000000000
101100001110111110011101000000000000000000000000000000000000000000000000000000000000000000000
100100111111101011010011000000000000000000000000000000000000000000000000000000000000000000000
1100001011100010111101110000000000000000000000000000000000000000000000000000000000000000000
1111111100100011000101101010011000000000000000000000000000000000000000000000000000000000000000000000
1111111110111101000001000111100000000000000000000000000000000000000000000000000000000000000000000000
11111001000100111100110000000000000000000000000000000000000000000000000000000000000000000000
1111111100010000000111101101000100000000000000000000000000000000000000000000000000000000000000000000
1111111111000101000010001001111111000000000000000000000000000000000000000000000000000000000000000000
1111111110101001111010011001011000000000000000000000000000000000000000000000000000000000000000000000
1111111111101101010100011001011010100000000000000000000000000000000000000000000000000000000000000000
101100111110100010100000000000000000000000000000000000000000000000000000000000000000000000000
100111110111110111010111000000000000000000000000000000000000000000000000000000000000000000000
