1111110011011110001111100111100000000000000000000000000000000000000000000000000000000000000000000000
1111111101010001000101010010101100000000000000000000000000000000000000000000000000000000000000000000
1111110111110011110001111101110000000000000000000000000000000000000000000000000000000000000000000000
100001111100101100011000000000000000000000000000000000000000000000000000000000000000000000000
1111110111000010111111101010100000000000000000000000000000000000000000000000000000000000000000000000
11010111111110001010100000000000000000000000000000000000000000000000000000000000000000000000
1111111101100001011001111000010100000000000000000000000000000000000000000000000000000000000000000000
1111111100001100100100001001001000000000000000000000000000000000000000000000000000000000000000000000
1111111100111011010011110011001000000000000000000000000000000000000000000000000000000000000000000000
10001010110001111000010000000000000000000000000000000000000000000000000000000000000000000000
100100011011100011101001000000000000000000000000000000000000000000000000000000000000000000000
100011000011110101101010000000000000000000000000000000000000000000000000000000000000000000000
1111111111000011110000010100010111000000000000000000000000000000000000000000000000000000000000000000
111010111100000001100101000000000000000000000000000000000000000000000000000000000000000000000
1111110101110111110110101110010000000000000000000000000000000000000000000000000000000000000000000000
1000011100101101010000100000000000000000000000000000000000000000000000000000000000000000000000
1111111100110011001110000011111000000000000000000000000000000000000000000000000000000000000000000000
1111110111010001110111001110000000000000000000000000000000000000000000000000000000000000000000000000
10100001000010001110110100000000000000000000000000000000000000000000000000000000000000000000
1111111100101100110000101001001100000000000000000000000000000000000000000000000000000000000000000000
1111110111110101000001100111110000000000000000000000000000000000000000000000000000000000000000000000
111100001001100111100010000000000000000000000000000000000000000000000000000000000000000000000
1111111110111001000100110101010100000000000000000000000000000000000000000000000000000000000000000000
100101100001001110010110000000000000000000000000000000000000000000000000000000000000000000
1000010111110000010100100000000000000000000000000000000000000000000000000000000000000000000000
101110011011011101010010000000000000000000000000000000000000000000000000000000000000000000
1111110011110001101011100100010000000000000000000000000000000000000000000000000000000000000000000000
1111110110110010111001100110010000000000000000000000000000000000000000000000000000000000000000000000
1111110110000001111000001000000000000000000000000000000000000000000000000000000000000000000000000000
11101010110011010101101100000000000000000000000000000000000000000000000000000000000000000000
1100110101110000110011010000000000000000000000000000000000000000000000000000000000000000000
111001010000011110111011000000000000000000000000000000000000000000000000000000000000000000000
1111111111101001010001011011011010100000000000000000000000000000000000000000000000000000000000000000
1111111001001010010101011001111000000000000000000000000000000000000000000000000000000000000000000000
1111111011100001011100100010101000000000000000000000000000000000000000000000000000000000000000000000
110111000100100100001011000000000000000000000000000000000000000000000000000000000000000000000
1111111000111001011110011000101000000000000000000000000000000000000000000000000000000000000000000000
1111111001000101010000011110001000000000000000000000000000000000000000000000000000000000000000000000
10111110010010011101010100000000000000000000000000000000000000000000000000000000000000000000
1111111100111111001110011011111100000000000000000000000000000000000000000000000000000000000000000000
1111111011001101100000010010111000000000000000000000000000000000000000000000000000000000000000000000
1011010001001000011111110000000000000000000000000000000000000000000000000000000000000000000
1111111001111001100110110000011000000000000000000000000000000000000000000000000000000000000000000000
1111111111101000010001110010110011100000000000000000000000000000000000000000000000000000000000000000
10110001101101100110010000000000000000000000000000000000000000000000000000000000000000000000
1111110110111011110100001010110000000000000000000000000000000000000000000000000000000000000000000000
1111111010110011110100110100001000000000000000000000000000000000000000000000000000000000000000000000
1111111011111111011011101010101000000000000000000000000000000000000000000000000000000000000000000000
11100111000001111101100000000000000000000000000000000000000000000000000000000000000000000000
1111111010001111001011100010111000000000000000000000000000000000000000000000000000000000000000000000
1111110111110111110100010000100000000000000000000000000000000000000000000000000000000000000000000000
1001100001000100000010000000000000000000000000000000000000000000000000000000000000000000000000
110101110000001100000111000000000000000000000000000000000000000000000000000000000000000
1111110011101111101110100110010000000000000000000000000000000000000000000000000000000000000000000000
1111110011110000110001001101010000000000000000000000000000000000000000000000000000000000000000000000
100011000111100010101101000000000000000000000000000000000000000000000000000000000000000000
1001000011010100001001110000000000000000000000000000000000000000000000000000000000000000000
111010110110011101001111000000000000000000000000000000000000000000000000000000000000000000000
1111110011001010010110000010010000000000000000000000000000000000000000000000000000000000000000000000
1111110110111111111111110000110000000000000000000000000000000000000000000000000000000000000000000000
1111110101100110110010110010100000000000000000000000000000000000000000000000000000000000000000000000
1111111101000110100110111111010000000000000000000000000000000000000000000000000000000000000000000000
1000100000010111111000100000000000000000000000000000000000000000000000000000000000000000000
1000010010101110010010100000000000000000000000000000000000000000000000000000000000000000000000
1111111100010011000100000001000000000000000000000000000000000000000000000000000000000000000000000000
10111100011100110100111100000000000000000000000000000000000000000000000000000000000000000000
111001001010101111111110000000000000000000000000000000000000000000000000000000000000000000000
1111110111010010011110000000110000000000000000000000000000000000000000000000000000000000000000000000
110011101110000010011100000000000000000000000000000000000000000000000000000000000000000000000
1111111101111001110010001111001100000000000000000000000000000000000000000000000000000000000000000000
110010110000111010101101000000000000000000000000000000000000000000000000000000000000000000000
1111110100001000000110100111100000000000000000000000000000000000000000000000000000000000000000000000
1001011010000110100000010000000000000000000000000000000000000000000000000000000000000000000000
1111111001100100110011010011000000000000000000000000000000000000000000000000000000000000000000000000
1111110111010100101010010010000000000000000000000000000000000000000000000000000000000000000000000000
1111111011110001100011101101001000000000000000000000000000000000000000000000000000000000000000000000
1111111011011111001111100000010000000000000000000000000000000000000000000000000000000000000000000000
1111110100010111011000110000010000000000000000000000000000000000000000000000000000000000000000000000
1111111010011110100011100111101000000000000000000000000000000000000000000000000000000000000000000000
1111111011110011000000001111010000000000000000000000000000000000000000000000000000000000000000000000
1111111101101101010111001001011000000000000000000000000000000000000000000000000000000000000000000000
1111111100011000110100100100100000000000000000000000000000000000000000000000000000000000000000000000
111110110101100010001011000000000000000000000000000000000000000000000000000000000000000000000
1011001001011010100010000000000000000000000000000000000000000000000000000000000000000000000
1111110110000011101001101110110000000000000000000000000000000000000000000000000000000000000000000000
1000000111011101100101000000000000000000000000000000000000000000000000000000000000000000000000
1111111110010010111100011100001010000000000000000000000000000000000000000000000000000000000000000000
1111110101111000101000111110100000000000000000000000000000000000000000000000000000000000000000000000
1111111010000011011001001110100000000000000000000000000000000000000000000000000000000000000000000000
110011001101101001100001000000000000000000000000000000000000000000000000000000000000000000000
1111111101010001000111100011100100000000000000000000000000000000000000000000000000000000000000000000
101001111000001101111100000000000000000000000000000000000000000000000000000000000000000000000
1111110011001100101000110001000000000000000000000000000000000000000000000000000000000000000000000000
11001111111110101011010100000000000000000000000000000000000000000000000000000000000000000
110011000110011101010011000000000000000000000000000000000000000000000000000000000000000000000
101111010000100100000010000000000000000000000000000000000000000000000000000000000000000000000
1111111010000011100001101011110000000000000000000000000000000000000000000000000000000000000000000000
11001111000111011000000100000000000000000000000000000000000000000000000000000000000000000000
100101001010101110111100000000000000000000000000000000000000000000000000000000000000000000000
11110110100001111110000000000000000000000000000000000000000000000000000000000000000000000000
1111111100101100000101101010011000000000000000000000000000000000000000000000000000000000000000000000
1111111100110100111111001011110000000000000000000000000000000000000000000000000000000000000000000000
1111111001010111010001010101111000000000000000000000000000000000000000000000000000000000000000000000
1111111101011011100001101110011000000000000000000000000000000000000000000000000000000000000000000000
1111111000110110111110111111010000000000000000000000000000000000000000000000000000000000000000000000
1111111101110101000010101010101100000000000000000000000000000000000000000000000000000000000000000000
1111111100010111001001100011111000000000000000000000000000000000000000000000000000000000000000000000
1111111100100110010011101010001000000000000000000000000000000000000000000000000000000000000000000000
1111111001000100110110110110110000000000000000000000000000000000000000000000000000000000000000000000
1111111000000000111110010010010000000000000000000000000000000000000000000000000000000000000000000000
111011110111110010100010000000000000000000000000000000000000000000000000000000000000000000000
1000011000110010000110100000000000000000000000000000000000000000000000000000000000000000000000
1111111101101010000000101011001100000000000000000000000000000000000000000000000000000000000000000000
1111111010000111111101110010101000000000000000000000000000000000000000000000000000000000000000000000
1111001000110101101100110000000000000000000000000000000000000000000000000000000000000000000
101011001100110001001011000000000000000000000000000000000000000000000000000000000000000000
1111111000111010110110001010111000000000000000000000000000000000000000000000000000000000000000000000
1111111101111010001101100010100100000000000000000000000000000000000000000000000000000000000000000000
101111110001111010010011000000000000000000000000000000000000000000000000000000000000000000000
1001001100111001110111100000000000000000000000000000000000000000000000000000000000000000000000
1111110111011001101001000100100000000000000000000000000000000000000000000000000000000000000000000000
1001010100110000000010010000000000000000000000000000000000000000000000000000000000000000000
1111110100111110101000011001100000000000000000000000000000000000000000000000000000000000000000000000
111101001000010101000000000000000000000000000000000000000000000000000000000000000000000000000
1111111101110101110100111011001100000000000000000000000000000000000000000000000000000000000000000000
1111111100111011111010011101000100000000000000000000000000000000000000000000000000000000000000000000
11101010010001110000000000000000000000000000000000000000000000000000000000000000000000000
1001001000101110110101110000000000000000000000000000000000000000000000000000000000000000000000
