110010111110110100010011000000000000000000000000000000000000000000000000000000000000000000000
1111111000110110010111101100000000000000000000000000000000000000000000000000000000000000000000000000
11111110001000110000000100000000000000000000000000000000000000000000000000000000000000000000
1111110101111000011011011000010000000000000000000000000000000000000000000000000000000000000000000000
101101110110111101110100000000000000000000000000000000000000000000000000000000000000000000000
1111110111000001001100101011100000000000000000000000000000000000000000000000000000000000000000000000
1111110111000001010000011101010000000000000000000000000000000000000000000000000000000000000000000000
1000111010111110001010110000000000000000000000000000000000000000000000000000000000000000000000
101011110001011001011011000000000000000000000000000000000000000000000000000000000000000000000
100101010010110001010000000000000000000000000000000000000000000000000000000000000000000000000
100100111111010110111011000000000000000000000000000000000000000000000000000000000000000000000
1111111001011001011011000111000000000000000000000000000000000000000000000000000000000000000000000000
1111111101110111100000011000001000000000000000000000000000000000000000000000000000000000000000000000
110001111111110100100110000000000000000000000000000000000000000000000000000000000000000000000
1000011100110010001010100000000000000000000000000000000000000000000000000000000000000000000000
1100100000110000000111010000000000000000000000000000000000000000000000000000000000000000000
1111110111110101111000000100010000000000000000000000000000000000000000000000000000000000000000000000
101110100101001000010000000000000000000000000000000000000000000000000000000000000000000000
1111110101111001010101110011110000000000000000000000000000000000000000000000000000000000000000000000
1111111010000010110001010010101000000000000000000000000000000000000000000000000000000000000000000000
1111111001011110111100010111100000000000000000000000000000000000000000000000000000000000000000000000
1111110111001110101101011100110000000000000000000000000000000000000000000000000000000000000000000000
1111111111100100100010001111001010000000000000000000000000000000000000000000000000000000000000000000
1111111111011111001101000110101101000000000000000000000000000000000000000000000000000000000000000000
110000010001011111000110000000000000000000000000000000000000000000000000000000000000000000000
1000010101010001001111010000000000000000000000000000000000000000000000000000000000000000000000
101001100111111001010001000000000000000000000000000000000000000000000000000000000000000000000
1010011001010100101110100000000000000000000000000000000000000000000000000000000000000000000000
1011000011100010110100110000000000000000000000000000000000000000000000000000000000000000000000
1111110111100000110110111111000000000000000000000000000000000000000000000000000000000000000000000000
1111111111001100111011011010000000000000000000000000000000000000000000000000000000000000000000000000
1000011110101011011100100000000000000000000000000000000000000000000000000000000000000000000000
10110000010001111100001000000000000000000000000000000000000000000000000000000000000000000000
1111111110111111010100100110011110000000000000000000000000000000000000000000000000000000000000000000
11011010001100001000111000000000000000000000000000000000000000000000000000000000000000000000
1111110111011011100011011111010000000000000000000000000000000000000000000000000000000000000000000000
111110000101010101001101000000000000000000000000000000000000000000000000000000000000000000000
101000101011001011001110000000000000000000000000000000000000000000000000000000000000000000000
1000000111001010110011010000000000000000000000000000000000000000000000000000000000000000000
1111111000110001001111101010100000000000000000000000000000000000000000000000000000000000000000000000
100111110100001101010100000000000000000000000000000000000000000000000000000000000000000000000
111110100011101011000110000000000000000000000000000000000000000000000000000000000000000000000
1011000100100001111100110000000000000000000000000000000000000000000000000000000000000000000000
10110011100111000000011000000000000000000000000000000000000000000000000000000000000000000
1111111101010110010110100000100000000000000000000000000000000000000000000000000000000000000000000000
1001111010001001000100000000000000000000000000000000000000000000000000000000000000000000000000
1111111011001100111111110111111000000000000000000000000000000000000000000000000000000000000000000000
1111111001010110001111001101010000000000000000000000000000000000000000000000000000000000000000000000
10011101001101000011011100000000000000000000000000000000000000000000000000000000000000000000
1111111000100000101110001100110000000000000000000000000000000000000000000000000000000000000000000000
110011100000011010110110000000000000000000000000000000000000000000000000000000000000000000000
11110001111111001011001000000000000000000000000000000000000000000000000000000000000000000
1111111111100100101101000010011001100000000000000000000000000000000000000000000000000000000000000000
100010010001101101111010000000000000000000000000000000000000000000000000000000000000000000000
1001001000110110010110110000000000000000000000000000000000000000000000000000000000000000000000
111010100010010111111010000000000000000000000000000000000000000000000000000000000000000000000
100001100001001001101000000000000000000000000000000000000000000000000000000000000000000000
1010001100001000001010110000000000000000000000000000000000000000000000000000000000000000000000
110111100001010011001100000000000000000000000000000000000000000000000000000000000000000000
1111111000101000110111000111100000000000000000000000000000000000000000000000000000000000000000000000
1100011101100100010010010000000000000000000000000000000000000000000000000000000000000000000000
111111000101111110101101000000000000000000000000000000000000000000000000000000000000000000000
1001001110110110011101100000000000000000000000000000000000000000000000000000000000000000000000
11100101110011011111100100000000000000000000000000000000000000000000000000000000000000000000
111001000100100111000111000000000000000000000000000000000000000000000000000000000000000000000
1111111000000101110011010000010000000000000000000000000000000000000000000000000000000000000000000000
1111110101110100011010001010100000000000000000000000000000000000000000000000000000000000000000000000
101101010000011011001010000000000000000000000000000000000000000000000000000000000000000000000
1111110111101001101110000111100000000000000000000000000000000000000000000000000000000000000000000000
1111111001101011110011110011010000000000000000000000000000000000000000000000000000000000000000000000
1111111100101100001101011100010100000000000000000000000000000000000000000000000000000000000000000000
1111111100100111001101010110011100000000000000000000000000000000000000000000000000000000000000000000
0
1111111001110111110010011101110000000000000000000000000000000000000000000000000000000000000000000000
1111111110110100001100010100100100000000000000000000000000000000000000000000000000000000000000000000
110001000110000011110100000000000000000000000000000000000000000000000000000000000000000000
110001111100011111000010000000000000000000000000000000000000000000000000000000000000000000000
1001101010111101111110010000000000000000000000000000000000000000000000000000000000000000000000
1111111001000100100100000100000000000000000000000000000000000000000000000000000000000000000000000000
1010111001111000000000000000000000000000000000000000000000000000000000000000000000000000000
111010001110110001111001000000000000000000000000000000000000000000000000000000000000000000000
101010110101011100101110000000000000000000000000000000000000000000000000000000000000000000
1111111001101011001001111001110000000000000000000000000000000000000000000000000000000000000000000000
1111111100110000110010001000100100000000000000000000000000000000000000000000000000000000000000000000
1111111001011100000100011000111000000000000000000000000000000000000000000000000000000000000000000000
1100000000001110011100000000000000000000000000000000000000000000000000000000000000000000000000
1001101101000100011101010000000000000000000000000000000000000000000000000000000000000000000000
1111110111101101111000001100010000000000000000000000000000000000000000000000000000000000000000000000
1111111000100011101011010110100000000000000000000000000000000000000000000000000000000000000000000000
101011101000111111101000000000000000000000000000000000000000000000000000000000000000000000000
1111110111110100110001110000010000000000000000000000000000000000000000000000000000000000000000000000
1111111011101010100100010011110000000000000000000000000000000000000000000000000000000000000000000000
1111111100001011001101010000001000000000000000000000000000000000000000000000000000000000000000000000
1111111010001100100110001010100000000000000000000000000000000000000000000000000000000000000000000000
1010000001010111111001100000000000000000000000000000000000000000000000000000000000000000000000
1011101010111011111010010000000000000000000000000000000000000000000000000000000000000000000000
1100100000111001110101010000000000000000000000000000000000000000000000000000000000000000000000
1111111111111110110100011001011000111010000000000000000000000000000000000000000000000000000000000000
1100001110011011100101110000000000000000000000000000000000000000000000000000000000000000000000
1111111100100110101001001011100100000000000000000000000000000000000000000000000000000000000000000000
1011110101110101001110010000000000000000000000000000000000000000000000000000000000000000000000
1001010000110110011010000000000000000000000000000000000000000000000000000000000000000000000
1111111100101101101100110110111100000000000000000000000000000000000000000000000000000000000000000000
1000001110011000101110000000000000000000000000000000000000000000000000000000000000000000000000
1000110010011110110011000000000000000000000000000000000000000000000000000000000000000000000
101101000011011110000100000000000000000000000000000000000000000000000000000000000000000000000
1010000111010111101000000000000000000000000000000000000000000000000000000000000000000000000000
11001011000111011111101100000000000000000000000000000000000000000000000000000000000000000000
1111111000011001001101001101111000000000000000000000000000000000000000000000000000000000000000000000
100101110111101000011001000000000000000000000000000000000000000000000000000000000000000000000
1111110111100010001000000011100000000000000000000000000000000000000000000000000000000000000000000000
1111111000100001111011101100010000000000000000000000000000000000000000000000000000000000000000000000
1100001100111000001010110000000000000000000000000000000000000000000000000000000000000000000000
1111111111000001010010011011000001000000000000000000000000000000000000000000000000000000000000000000
1100101111100110101010010000000000000000000000000000000000000000000000000000000000000000000000
111010000101010010001010000000000000000000000000000000000000000000000000000000000000000000000
1011001111110110000000000000000000000000000000000000000000000000000000000000000000000000000000
1001110000111011100001010000000000000000000000000000000000000000000000000000000000000000000000
1111111001100001110010000101111000000000000000000000000000000000000000000000000000000000000000000000
1111111111111010010000001110110101000000000000000000000000000000000000000000000000000000000000000000
1000000001000000011101000000000000000000000000000000000000000000000000000000000000000000000000
111011111100110100011010000000000000000000000000000000000000000000000000000000000000000000000
1100000011111100110110000000000000000000000000000000000000000000000000000000000000000000000000
1010111110110101111110010000000000000000000000000000000000000000000000000000000000000000000000
1111111001011011100001100101001000000000000000000000000000000000000000000000000000000000000000000000
1011110101010000111110100000000000000000000000000000000000000000000000000000000000000000000000
1111111101011100001010110000001000000000000000000000000000000000000000000000000000000000000000000000
1000000011111000001011110000000000000000000000000000000000000000000000000000000000000000000000
