101100011100100111010101000000000000000000000000000000000000000000000000000000000000000000000
10101011011111111111101000000000000000000000000000000000000000000000000000000000000000000000
1111110011010101111010000110010000000000000000000000000000000000000000000000000000000000000000000000
1111110100111010010000101110110000000000000000000000000000000000000000000000000000000000000000000000
1111111111110111110101001100101001010000000000000000000000000000000000000000000000000000000000000000
100100111110010010010100000000000000000000000000000000000000000000000000000000000000000000000
10101000111101111000110100000000000000000000000000000000000000000000000000000000000000000
11000110001110111110010000000000000000000000000000000000000000000000000000000000000000000000
1111111110110100110110000100011000000000000000000000000000000000000000000000000000000000000000000000
110100000001100001011000000000000000000000000000000000000000000000000000000000000000000000000
1111111100011111100010010101110100000000000000000000000000000000000000000000000000000000000000000000
1111110101101110010001011000010000000000000000000000000000000000000000000000000000000000000000000000
1111111001110110000000010110100000000000000000000000000000000000000000000000000000000000000000000000
100101001101011011001100000000000000000000000000000000000000000000000000000000000000000000000
111011010010101110001001000000000000000000000000000000000000000000000000000000000000000000000
110110000111010010100101000000000000000000000000000000000000000000000000000000000000000000000
11110001011011111000101100000000000000000000000000000000000000000000000000000000000000000000
100000001000001010010100000000000000000000000000000000000000000000000000000000000000000000000
1001111010011001000011110000000000000000000000000000000000000000000000000000000000000000000000
1111111100100110100001111110010100000000000000000000000000000000000000000000000000000000000000000000
100001011010100110000101000000000000000000000000000000000000000000000000000000000000000000000
11010011001010000001011000000000000000000000000000000000000000000000000000000000000000000
1111110100001110000011101010010000000000000000000000000000000000000000000000000000000000000000000000
1111111100110000100001101110010000000000000000000000000000000000000000000000000000000000000000000000
1111110101111010110001011011110000000000000000000000000000000000000000000000000000000000000000000000
1000001100111111110001010000000000000000000000000000000000000000000000000000000000000000000000
101111101011101100101101000000000000000000000000000000000000000000000000000000000000000000000
100111000011011001101100000000000000000000000000000000000000000000000000000000000000000000000
1111111011001101110011000001100000000000000000000000000000000000000000000000000000000000000000000000
1111110110011001000010001110100000000000000000000000000000000000000000000000000000000000000000000000
101010100101010010110001000000000000000000000000000000000000000000000000000000000000000000
1111111101100000000101110101100100000000000000000000000000000000000000000000000000000000000000000000
1111110011011011010000111010000000000000000000000000000000000000000000000000000000000000000000000000
101101010000011010000011000000000000000000000000000000000000000000000000000000000000000000
1111111011110011010011111110000000000000000000000000000000000000000000000000000000000000000000000000
1111111010011010111101101101100000000000000000000000000000000000000000000000000000000000000000000000
100110111011111010001011000000000000000000000000000000000000000000000000000000000000000000000
110100000110001110110100000000000000000000000000000000000000000000000000000000000000000000000
1111110101110011100110100100010000000000000000000000000000000000000000000000000000000000000000000000
1111111101111001101010100001001000000000000000000000000000000000000000000000000000000000000000000000
100000101111111110011101000000000000000000000000000000000000000000000000000000000000000000000
1111111001111000000110010101010000000000000000000000000000000000000000000000000000000000000000000000
100000010010001111010001000000000000000000000000000000000000000000000000000000000000000000000
101000100000000010101111000000000000000000000000000000000000000000000000000000000000000000
10101010100101100100001100000000000000000000000000000000000000000000000000000000000000000000
1111111110001110101111000101111110000000000000000000000000000000000000000000000000000000000000000000
10110011100100011111111100000000000000000000000000000000000000000000000000000000000000000000
1010100100010100110101010000000000000000000000000000000000000000000000000000000000000000000
111001001110111101001111000000000000000000000000000000000000000000000000000000000000000000000
1111111111111111010111101100010010010000000000000000000000000000000000000000000000000000000000000000
111101011001001100110101000000000000000000000000000000000000000000000000000000000000000000000
10000010001110011011011000000000000000000000000000000000000000000000000000000000000000000000
110000011111001010101111000000000000000000000000000000000000000000000000000000000000000000
10110010101111001101011100000000000000000000000000000000000000000000000000000000000000000000
1001010011010110011000110000000000000000000000000000000000000000000000000000000000000000000000
10011011011101011110100100000000000000000000000000000000000000000000000000000000000000000000
1111111011110100000110010010110000000000000000000000000000000000000000000000000000000000000000000000
1111110101101100001000000011000000000000000000000000000000000000000000000000000000000000000000000000
110110100100011111001111000000000000000000000000000000000000000000000000000000000000000000
1111111100110011010100000100111100000000000000000000000000000000000000000000000000000000000000000000
1111110010111100111010110001010000000000000000000000000000000000000000000000000000000000000000000000
1111111001001100110101011111100000000000000000000000000000000000000000000000000000000000000000000000
10101011011111100010100000000000000000000000000000000000000000000000000000000000000000000000
100000111111111011000010000000000000000000000000000000000000000000000000000000000000000000000
10110100111111011011011100000000000000000000000000000000000000000000000000000000000000000000
1111111110011101001101011001110110000000000000000000000000000000000000000000000000000000000000000000
1111111000011010101001110101100000000000000000000000000000000000000000000000000000000000000000000000
1111111011010011001000101001100000000000000000000000000000000000000000000000000000000000000000000000
1111111110011110100000010010110000000000000000000000000000000000000000000000000000000000000000000000
1111111000100110010100100011110000000000000000000000000000000000000000000000000000000000000000000000
110110101000001111000010000000000000000000000000000000000000000000000000000000000000000000000
110001111110110001010001000000000000000000000000000000000000000000000000000000000000000000000
1111111110110100110000101000011010000000000000000000000000000000000000000000000000000000000000000000
10110110101010110000000000000000000000000000000000000000000000000000000000000000000000000000
101011111010101011011110000000000000000000000000000000000000000000000000000000000000000000000
1111111010000011000001010000000000000000000000000000000000000000000000000000000000000000000000000000
1111110111011010100000111011000000000000000000000000000000000000000000000000000000000000000000000000
1111111000110001111010011011101000000000000000000000000000000000000000000000000000000000000000000000
1111111001010111001001101010011000000000000000000000000000000000000000000000000000000000000000000000
1111110101011110101000111011100000000000000000000000000000000000000000000000000000000000000000000000
1111110101100110000111010111010000000000000000000000000000000000000000000000000000000000000000000000
1111111100000001110011011101011000000000000000000000000000000000000000000000000000000000000000000000
1111110101111110110011011001010000000000000000000000000000000000000000000000000000000000000000000000
1111111011100010001000001101010000000000000000000000000000000000000000000000000000000000000000000000
11011001110100100101010100000000000000000000000000000000000000000000000000000000000000000000
1111111111110011010010011011001101010000000000000000000000000000000000000000000000000000000000000000
1111110100100001010100110111010000000000000000000000000000000000000000000000000000000000000000000000
100111110001111010011000000000000000000000000000000000000000000000000000000000000000000000
1111110101100101001000011110010000000000000000000000000000000000000000000000000000000000000000000000
1111110110111110010110101100000000000000000000000000000000000000000000000000000000000000000000000000
110001010000100111001100000000000000000000000000000000000000000000000000000000000000000000000
1000001100011111001010000000000000000000000000000000000000000000000000000000000000000000000000
1111111001001010001111110110001000000000000000000000000000000000000000000000000000000000000000000000
10110101100111001010001000000000000000000000000000000000000000000000000000000000000000000000
1111110110111101110110100100010000000000000000000000000000000000000000000000000000000000000000000000
1111110100100100010000100001000000000000000000000000000000000000000000000000000000000000000000000000
1111111111001100110001011110000101000000000000000000000000000000000000000000000000000000000000000000
11100001010101100100000000000000000000000000000000000000000000000000000000000000000000000000
1111110101101110100000101111000000000000000000000000000000000000000000000000000000000000000000000000
1001000010110011011001100000000000000000000000000000000000000000000000000000000000000000000000
110011100010101011011110000000000000000000000000000000000000000000000000000000000000000000000
111111111011100011000100000000000000000000000000000000000000000000000000000000000000000000000
1111111010000110111111011010110000000000000000000000000000000000000000000000000000000000000000000000
1111111001011001101100101110000000000000000000000000000000000000000000000000000000000000000000000000
10101100001110011010011100000000000000000000000000000000000000000000000000000000000000000000
1111110101110000010101011000010000000000000000000000000000000000000000000000000000000000000000000000
110110110100111001000111000000000000000000000000000000000000000000000000000000000000000000
11100101001010111000010100000000000000000000000000000000000000000000000000000000000000000
1111111100010000100000101111010100000000000000000000000000000000000000000000000000000000000000000000
1111111001100111100001001000111000000000000000000000000000000000000000000000000000000000000000000000
1111111101000101100111110111111100000000000000000000000000000000000000000000000000000000000000000000
1111110110100011110111100011010000000000000000000000000000000000000000000000000000000000000000000000
1111111001000001010011010010011000000000000000000000000000000000000000000000000000000000000000000000
1111110100000110110110111010110000000000000000000000000000000000000000000000000000000000000000000000
1111111101111111001011001010010100000000000000000000000000000000000000000000000000000000000000000000
1111111001001101001010110111000000000000000000000000000000000000000000000000000000000000000000000000
1111110100110100100111001011110000000000000000000000000000000000000000000000000000000000000000000000
111010101100010110001000000000000000000000000000000000000000000000000000000000000000000000000
1111111101101011000011101101000000000000000000000000000000000000000000000000000000000000000000000000
1001001110011100001010010000000000000000000000000000000000000000000000000000000000000000000000
1111111101011001001010000111010100000000000000000000000000000000000000000000000000000000000000000000
1111111111100100111000111110110010100000000000000000000000000000000000000000000000000000000000000000
110011000100011010101100000000000000000000000000000000000000000000000000000000000000000000000
1111110011110010011011001111100000000000000000000000000000000000000000000000000000000000000000000000
101100011011001111001111000000000000000000000000000000000000000000000000000000000000000000000
110000001110111000110111000000000000000000000000000000000000000000000000000000000000000000
1111110101100000110011110000000000000000000000000000000000000000000000000000000000000000000000000000
1111111011000101001000001100100000000000000000000000000000000000000000000000000000000000000000000000
